[UNK]
[CLS]
[SEP]
[PAD]
[MASK]
<unused0>
<unused1>
<unused2>
<unused3>
<unused4>
<unused5>
<unused6>
<unused7>
<unused8>
<unused9>
!
"
#
$
%
&
'
(
)
*
+
,
-
.
/
0
1
2
3
4
5
6
7
8
9
:
;
<
=
>
?
@
A
B
C
D
E
F
G
H
I
J
K
L
M
N
O
P
Q
R
S
T
U
V
W
X
Y
Z
[
\
]
^
_
`
a
b
c
d
e
f
g
h
i
j
k
l
m
n
o
p
q
r
s
t
u
v
w
x
y
z
{
|
}
~
¢
£
¥
§
©
«
¬
®
°
±
·
»
À
Á
Ä
Å
Æ
Ç
È
É
Í
Î
Ó
Ö
×
Ø
Ú
Ü
Þ
ß
à
á
â
ã
ä
å
æ
ç
è
é
ê
ë
ì
í
î
ï
ð
ñ
ò
ó
ô
õ
ö
÷
ø
ù
ú
û
ü
ý
þ
Ā
ā
ă
ą
ć
Č
č
Đ
đ
ē
ĕ
ė
ę
ě
ğ
ħ
ī
İ
ı
Ł
ł
ń
ň
ŋ
Ō
ō
ŏ
ő
œ
ř
Ś
ś
Ş
ş
Š
š
ţ
ť
Ū
ū
ŭ
ů
ż
Ž
ž
ƒ
ơ
ư
ǎ
ǐ
ǒ
ǔ
ș
ț
ɑ
ɒ
ɔ
ə
ɛ
ɡ
ɣ
ɪ
ɴ
ʃ
ʊ
ʒ
ʔ
ʻ
ʼ
ʾ
ʿ
ˈ
ˌ
ː
́
̈
Α
Β
Γ
Δ
Ε
Ζ
Θ
Ι
Κ
Λ
Μ
Ν
Ξ
Ο
Π
Σ
Τ
Φ
Χ
Ψ
Ω
ά
έ
ή
ί
α
β
γ
δ
ε
ζ
η
θ
ι
κ
λ
μ
ν
ξ
ο
π
ρ
ς
σ
τ
υ
φ
χ
ψ
ω
ό
ύ
ώ
А
Б
В
Г
Д
Е
Ж
З
И
К
Л
М
Н
О
П
Р
С
Т
У
Ф
Х
Ц
Ч
Ш
Э
Ю
Я
а
б
в
г
д
е
ж
з
и
й
к
л
м
н
о
п
р
с
т
у
ф
х
ц
ч
ш
щ
ъ
ы
ь
э
ю
я
ё
і
ј
ћ
ա
ե
ի
ն
ո
ր
ְ
ַ
ָ
ּ
א
ב
ג
ד
ה
ו
ז
ח
ט
י
כ
ל
ם
מ
ן
נ
ס
ע
פ
צ
ק
ר
ש
ת
ء
آ
أ
إ
ا
ب
ة
ت
ث
ج
ح
خ
د
ر
ز
س
ش
ص
ض
ط
ظ
ع
غ
ف
ق
ك
ل
م
ن
ه
و
ى
ي
َ
ّ
پ
چ
ک
گ
ی
ं
अ
क
ख
ग
च
ज
ट
ड
ण
त
द
ध
न
प
ब
भ
म
य
र
ल
व
श
ष
स
ह
़
ा
ि
ी
ु
ू
े
ो
्
ন
ম
র
া
ি
্
க
ச
ட
த
ப
ம
ர
வ
ா
ி
ு
்
ర
ರ
್
ก
ข
ค
ง
จ
ช
ซ
ญ
ณ
ด
ต
ถ
ท
ธ
น
บ
ป
พ
ฟ
ภ
ม
ย
ร
ล
ว
ศ
ษ
ส
ห
อ
ะ
ั
า
ิ
ี
ื
ุ
ู
เ
แ
โ
ใ
ไ
็
่
้
์
ํ
་
ག
ང
ད
ན
བ
མ
ར
ལ
ས
ི
ུ
ོ
ྱ
ა
ე
ვ
ი
ლ
ნ
ო
რ
ს
ᆞ
ḍ
Ḥ
ḥ
ḫ
ṃ
ṅ
ṇ
ṛ
ṣ
ṭ
ẓ
ạ
ả
ế
ễ
ệ
ố
ờ
‐
–
—
―
‘
’
“
”
„
†
‡
•
‰
′
※
⁄
€
←
↑
→
↓
⇒
⇔
∀
∂
∅
∇
∈
−
∗
√
∞
∠
∧
∨
∩
∪
∴
∶
∼
∽
≈
≒
≠
≡
≤
≥
≦
≧
≪
≫
⊂
⊆
⊕
⊗
⊥
⊿
⋅
─
━
■
□
▲
△
▼
▽
◆
◇
○
◎
●
◯
★
☆
☉
☖
☗
♀
♂
♡
♥
♪
♭
♯
⟨
⟩
、
。
々
〆
〇
〈
〉
《
》
「
」
『
』
【
】
〒
〔
〕
〜
〝
〟
ぁ
あ
ぃ
い
ぅ
う
ぇ
え
ぉ
お
か
が
き
ぎ
く
ぐ
け
げ
こ
ご
さ
ざ
し
じ
す
ず
せ
ぜ
そ
ぞ
た
だ
ち
ぢ
っ
つ
づ
て
で
と
ど
な
に
ぬ
ね
の
は
ば
ぱ
ひ
び
ぴ
ふ
ぶ
ぷ
へ
べ
ぺ
ほ
ぼ
ぽ
ま
み
む
め
も
ゃ
や
ゅ
ゆ
ょ
よ
ら
り
る
れ
ろ
ゎ
わ
ゐ
ゑ
を
ん
゙
゚
ゝ
ゞ
゠
ァ
ア
ィ
イ
ゥ
ウ
ェ
エ
ォ
オ
カ
ガ
キ
ギ
ク
グ
ケ
ゲ
コ
ゴ
サ
ザ
シ
ジ
ス
ズ
セ
ゼ
ソ
ゾ
タ
ダ
チ
ヂ
ッ
ツ
ヅ
テ
デ
ト
ド
ナ
ニ
ヌ
ネ
ノ
ハ
バ
パ
ヒ
ビ
ピ
フ
ブ
プ
ヘ
ベ
ペ
ホ
ボ
ポ
マ
ミ
ム
メ
モ
ャ
ヤ
ュ
ユ
ョ
ヨ
ラ
リ
ル
レ
ロ
ヮ
ワ
ヰ
ヱ
ヲ
ン
ヴ
ヵ
ヶ
・
ー
ヽ
ㇰ
ㇱ
ㇷ
ㇺ
ㇽ
㓛
一
丁
七
万
丈
三
上
下
不
与
丑
且
丕
世
丘
丙
业
东
丞
両
並
中
丰
串
丶
丸
丹
主
丼
乂
乃
久
么
之
乍
乎
乏
乐
乖
乗
乘
乙
九
乞
也
乭
乱
乳
乾
亀
了
予
争
事
二
于
云
互
五
井
亘
亙
些
亜
亞
亟
亡
亢
交
亥
亦
亨
享
京
亭
亮
亳
亶
人
什
仁
仄
仇
今
介
仍
仏
仔
仕
他
仗
付
仙
代
令
以
仮
仰
仲
件
价
任
份
仿
企
伊
伋
伍
伎
伏
伐
休
会
伝
伯
伴
伶
伷
伸
伺
似
伽
佃
但
佇
位
低
住
佐
佑
体
何
佗
余
佚
佛
作
佞
佟
你
佩
佰
佳
併
佶
佺
佼
使
侂
侃
來
侈
例
侍
侏
侑
侗
侘
供
依
侠
価
侭
侮
侯
侵
侶
便
係
促
俄
俅
俊
俎
俑
俗
俘
俚
保
俟
俠
信
俣
俥
修
俯
俱
俳
俵
俶
俸
俺
倅
倉
個
倍
們
倒
倖
候
倚
借
倡
倣
値
倦
倩
倪
倫
倭
倶
倹
偃
假
偈
偉
偏
偕
做
停
健
偰
偲
側
偵
偶
偽
傀
傅
傉
傍
傑
傕
傘
備
催
傭
傲
傳
債
傷
傾
僅
僉
僊
働
像
僑
僕
僖
僚
僧
僭
僮
僻
儀
儁
儂
億
儋
儒
儔
儘
儚
償
儡
優
儲
儷
儺
儼
兀
允
元
兄
充
兆
兇
先
光
克
兌
免
兎
児
兒
兔
兗
党
兜
入
內
全
兩
兪
八
公
六
兮
共
兵
其
具
典
兼
冀
冄
内
円
冉
冊
册
再
冏
冑
冒
冕
冗
写
冠
冢
冤
冥
冨
冪
冬
冰
冲
决
冴
冶
冷
冽
凄
准
凉
凋
凌
凍
凛
凜
凝
几
凡
処
凧
凪
凮
凰
凱
凶
凸
凹
出
函
刀
刁
刃
分
切
刈
刊
刎
刑
列
初
判
別
利
刪
到
刳
制
刷
券
刹
刺
刻
剃
則
削
剋
剌
前
剖
剛
剝
剣
剤
剥
剪
副
剰
剱
割
剳
創
剽
剿
劃
劇
劈
劉
劍
劔
力
功
加
劣
动
助
努
劫
劭
励
労
効
劾
勁
勃
勅
勇
勉
勒
動
勗
勘
務
勛
勝
募
勢
勣
勤
勧
勰
勱
勲
勳
勺
勾
勿
匁
匂
包
匈
匍
匐
匕
化
北
匙
匝
匠
匡
匣
匪
匯
匱
匹
区
医
匿
區
十
千
卅
升
午
卉
半
卍
华
卑
卒
卓
協
南
単
博
卜
卞
占
卡
卦
卬
卯
印
危
即
却
卵
卷
卸
卿
厄
厓
厖
厘
厙
厚
厝
原
厠
厥
厦
厨
厩
厭
厲
厳
去
参
參
又
叉
及
友
双
反
収
叔
取
受
叙
叛
叟
叡
叢
口
古
句
叩
只
叫
召
叭
可
台
叱
史
右
叶
号
司
吃
各
合
吉
吊
同
名
后
吏
吐
向
吒
君
吝
吟
吠
否
含
吳
吶
吸
吹
吻
吼
吽
吾
呂
呆
呈
呉
告
呑
呟
周
呪
呰
味
呵
呻
呼
命
咀
咄
咆
咋
和
咎
咒
咤
咥
咨
咩
咫
咬
咲
咳
咸
咽
哀
品
哄
哈
哉
員
哥
哨
哩
哭
哮
哲
哺
唄
唆
唇
唐
唖
唯
唱
唸
唹
唾
啄
商
問
啓
啖
啜
啞
啼
喀
喃
善
喆
喇
喉
喊
喋
喘
喙
喚
喜
喝
喧
喩
喪
喫
喬
喰
営
嗄
嗅
嗇
嗚
嗜
嗟
嗣
嗽
嗾
嘆
嘉
嘏
嘔
嘗
嘘
嘩
嘯
嘱
嘲
嘴
噂
噌
噛
器
噪
噲
噴
噶
噺
嚆
嚇
嚙
嚢
嚥
嚮
嚴
嚶
嚼
囀
囁
囂
囃
囎
囚
四
回
因
团
団
囮
困
囲
図
围
固
国
圀
圃
圉
國
圍
圏
園
圓
圖
團
圜
土
圧
在
圭
地
圳
圻
址
坂
均
坊
坎
坏
坐
坑
坡
坤
坦
坩
坪
垂
型
垓
垠
垢
垣
垪
埃
埋
城
埒
埔
埕
埜
域
埠
埤
埴
埵
執
培
基
埼
堀
堂
堅
堆
堕
堝
堡
堤
堪
堯
堰
報
場
堵
堺
塀
塁
塊
塑
塔
塗
塘
塙
塚
塞
塡
塢
塩
填
塵
塹
塼
塾
境
墉
墓
増
墜
墟
墨
墩
墳
墺
墻
墾
壁
壇
壊
壌
壕
壙
壜
壟
壢
壩
士
壬
壮
声
壱
売
壷
壹
壺
壽
変
夏
夔
夕
外
夙
多
夛
夜
夢
夥
大
天
太
夫
夭
央
失
夷
夾
奄
奇
奈
奉
奎
奏
奐
契
奔
奕
套
奘
奚
奠
奢
奥
奧
奨
奪
奭
奮
女
奴
奸
好
如
妃
妄
妊
妍
妓
妖
妙
妤
妥
妨
妬
妲
妹
妻
妾
姆
姉
始
姐
姑
姒
姓
委
姚
姜
姥
姦
姨
姪
姫
姶
姻
姿
威
娃
娍
娑
娘
娜
娟
娠
娥
娩
娯
娶
娼
婁
婆
婉
婕
婚
婢
婦
婷
婺
婿
媒
媚
媛
媧
媯
媼
媽
嫁
嫂
嫉
嫌
嫗
嫡
嫣
嫦
嫩
嬉
嬌
嬢
嬪
嬬
嬰
嬲
嬴
子
孔
孕
字
存
孚
孛
孜
孝
孟
季
孤
学
孩
孫
孰
孵
學
孺
它
宅
宇
守
安
宋
完
宍
宏
宕
宗
官
宙
定
宛
宜
宝
実
客
宣
室
宥
宦
宮
宰
害
宴
宵
家
宸
容
宿
寂
寄
寅
密
寇
富
寒
寓
寔
寛
寝
察
寡
寥
實
寧
寨
審
寫
寬
寮
寰
寳
寵
寶
寸
寺
対
寿
封
専
射
将
將
專
尉
尊
尋
對
導
小
少
尓
尖
尚
尤
尭
就
尸
尹
尺
尻
尼
尽
尾
尿
局
屁
居
屈
届
屋
屍
屎
屏
屑
屓
展
属
屠
屡
層
履
屬
屯
山
屹
岌
岐
岑
岔
岡
岨
岩
岫
岬
岱
岳
岷
岸
峅
峙
峠
峡
峨
峪
峯
峰
峴
島
峻
崇
崋
崎
崑
崔
崖
崗
崙
崧
崩
嵆
嵊
嵌
嵐
嵜
嵩
嵬
嵯
嶋
嶌
嶠
嶮
嶷
嶺
嶼
嶽
巂
巌
巍
巒
巖
川
州
巡
巣
工
左
巧
巨
巫
差
己
已
巳
巴
巷
巻
巽
巾
巿
市
布
帆
希
帖
帚
帛
帝
帥
師
席
帯
帰
帳
帷
常
帽
幀
幄
幅
幇
幌
幔
幕
幟
幡
幢
幣
干
平
年
并
幸
幹
幻
幼
幽
幾
广
庁
広
庄
庇
床
序
底
庖
店
庚
府
庠
度
座
庫
庭
庵
庶
康
庸
庾
廂
廃
廆
廈
廉
廊
廓
廖
廙
廞
廟
廠
廢
廣
廨
廩
廬
廳
延
廷
建
廻
廼
廿
弁
弄
弇
弉
弊
弋
弌
式
弐
弑
弓
弔
引
弖
弗
弘
弛
弟
弢
弥
弦
弧
弩
弯
弱
弴
張
強
弼
弾
彅
彊
彌
彎
当
彗
彙
彜
彝
形
彦
彧
彩
彪
彫
彬
彭
彰
影
彷
役
彼
彿
往
征
徂
径
待
徇
徊
律
後
徐
徒
従
得
徘
徙
從
徠
御
徧
徨
復
循
徭
微
徳
徴
德
徹
徽
心
必
忌
忍
忖
志
忘
忙
応
忠
快
忱
念
忻
忽
忿
怒
怕
怖
怜
思
怠
怡
急
性
怨
怪
怯
恂
恃
恆
恋
恍
恐
恒
恕
恢
恣
恤
恥
恨
恩
恪
恫
恬
恭
息
恰
恵
悉
悌
悍
悔
悖
悛
悝
悟
悠
患
悦
悩
悪
悰
悲
悳
悴
悶
悸
悼
情
惇
惑
惕
惚
惜
惟
惠
惡
惣
惧
惨
惰
惲
想
惹
惺
愁
愈
愉
愍
意
愔
愕
愚
愛
感
愧
愨
愴
愷
愼
愾
愿
慂
慄
慇
慈
慊
態
慌
慎
慕
慟
慢
慣
慧
慨
慮
慰
慶
慷
慾
憂
憊
憎
憐
憑
憔
憙
憚
憤
憧
憩
憫
憬
憲
憶
憺
憾
懃
懇
懈
應
懊
懋
懌
懐
懣
懲
懶
懸
懺
懼
懿
戀
戈
戊
戌
戍
戎
成
我
戒
戔
或
战
戚
戟
戡
戦
截
戮
戯
戰
戴
戸
戻
房
所
扁
扇
扈
扉
手
才
扎
打
払
托
扮
扱
扶
批
扼
承
技
抄
抉
把
抑
抒
投
抗
折
抛
抜
択
披
抱
抵
抹
押
抽
拂
担
拇
拉
拌
拍
拏
拐
拒
拓
拔
拗
拘
拙
招
拜
拝
拠
拡
括
拭
拮
拯
拱
拳
拵
拶
拷
拼
拾
拿
持
挂
指
按
挑
挙
挟
挨
挫
振
挹
挺
挽
挾
挿
捉
捌
捏
捐
捕
捗
捜
捧
捨
捩
据
捲
捷
捺
捻
掃
授
掉
掌
排
掖
掘
掛
掟
掠
採
探
掣
接
控
推
掩
措
掬
掲
掴
掻
掾
揃
揄
揆
揉
描
提
揖
揚
換
握
揮
援
揶
揺
損
搗
搦
搬
搭
携
搾
摂
摘
摠
摩
摯
摸
摺
撃
撈
撒
撓
撚
撞
撤
撥
撫
播
撮
撰
撲
撹
撻
撼
擁
擂
擅
擇
操
擎
擒
據
擡
擢
擦
擬
擱
擲
擾
攀
攘
攝
攣
攪
攫
攬
支
收
攷
攸
改
攻
放
政
故
效
敎
敏
救
敖
敗
教
敞
敢
散
敦
敬
数
敲
整
敵
敷
數
斂
斃
文
斉
斌
斎
斐
斑
斗
料
斛
斜
斟
斡
斤
斥
斧
斫
斬
断
斯
新
方
於
施
旁
旃
旅
旋
旌
族
旗
旛
无
既
日
旦
旧
旨
早
旬
旭
旱
旺
旻
昀
昂
昆
昇
昉
昊
昌
明
昏
易
昔
昕
星
映
春
昧
昨
昭
是
昱
昴
昵
昶
昼
晁
時
晃
晄
晋
晏
晒
晞
晟
晤
晦
晧
晨
晩
普
景
晰
晴
晶
晷
智
暁
暇
暈
暉
暎
暐
暑
暖
暗
暘
暠
暢
暦
暫
暮
暲
暴
暹
暾
曁
曄
曇
曉
曖
曙
曜
曝
曠
曦
曰
曲
曳
更
曷
書
曹
曺
曼
曽
曾
替
最
會
月
有
朋
服
朏
朐
朔
朕
朗
望
朝
期
朦
朧
木
未
末
本
札
朮
朱
朴
朶
机
朽
杁
杉
李
杏
材
村
杓
杖
杜
杞
束
条
杢
杣
来
杭
杮
杯
杰
東
杲
杳
杵
杷
杼
松
板
枇
枋
析
枕
林
枚
果
枝
枠
枡
枢
枩
枯
枳
架
枷
枹
柄
柊
柏
某
柑
染
柔
柘
柚
柞
柩
柯
柱
柳
柴
柵
査
柾
柿
栁
栂
栃
栄
栓
栖
栗
栞
校
栢
栩
株
栲
栴
核
根
格
栽
桀
桁
桂
桃
框
案
桐
桑
桓
桔
桙
桜
桝
桟
桧
桴
桶
桿
梁
梃
梅
梓
梔
梗
條
梟
梢
梧
梨
梭
梯
械
梱
梳
梵
梶
棄
棉
棊
棋
棍
棒
棕
棗
棘
棚
棟
棠
棣
森
棱
棲
棹
棺
椀
椅
椋
植
椎
椏
椒
椙
椚
椛
検
椰
椴
椹
椿
楊
楓
楔
楕
楙
楚
楞
楠
楡
楢
楨
楫
業
楮
楯
楳
極
楷
楸
楼
楽
概
榊
榎
榑
榔
榕
榘
榛
榜
榧
榮
榴
槃
槇
槊
構
槌
槍
槎
槐
槓
様
槙
槨
槻
槽
槿
樂
樅
樊
樋
樒
樓
樗
標
樟
模
樣
権
横
樫
樵
樸
樹
樺
樽
樾
橄
橇
橈
橋
橘
橙
機
橡
橿
檀
檄
檎
檗
檜
檣
檬
檮
檳
檸
檻
櫂
櫃
櫓
櫚
櫛
櫟
櫨
櫻
欄
欅
權
欒
欖
欝
欠
次
欣
欧
欲
欺
欽
款
歆
歇
歌
歎
歐
歓
歙
止
正
此
步
武
歩
歪
歯
歳
歴
歸
死
歿
殆
殉
殊
残
殖
殤
殯
殲
殴
段
殷
殺
殻
殿
毀
毅
毋
毌
母
毎
毒
毓
比
毖
毗
毘
毛
毫
毬
毯
氈
氏
氐
民
気
氣
水
氷
永
氾
汀
汁
求
汎
汐
汕
汗
汚
汜
汝
汞
江
池
汨
汪
汰
汲
汴
汶
決
汽
汾
沁
沂
沃
沅
沈
沌
沐
沓
沔
沖
沙
沛
没
沢
沫
沭
沮
沱
河
沸
油
治
沼
沽
沾
沿
況
泄
泉
泊
泌
泓
法
泗
泚
泛
泠
泡
波
泣
泥
注
泪
泮
泯
泰
泳
洋
洌
洒
洗
洙
洛
洞
津
洩
洪
洮
洱
洲
洵
洸
洺
活
洽
派
流
浄
浅
浙
浚
浜
浣
浦
浩
浪
浬
浮
浴
海
浸
涅
涇
消
涌
涎
涓
涙
涛
涜
涪
涯
液
涵
涸
涼
涿
淀
淄
淅
淆
淇
淋
淑
淘
淝
淞
淡
淤
淦
淨
淩
淫
淮
深
淳
淵
混
淸
淹
淺
添
清
渇
済
渉
渋
渓
渕
渙
渚
減
渝
渟
渠
渡
渣
渤
渥
渦
温
渫
測
渭
港
游
渾
湊
湍
湖
湘
湛
湟
湣
湧
湫
湯
湾
湿
満
溌
源
準
溜
溝
溟
溢
溥
溧
溪
溯
溶
溺
滁
滄
滅
滇
滉
滋
滌
滎
滑
滓
滔
滕
滝
滞
滬
滲
滴
滸
滾
滿
漁
漂
漆
漉
漏
漑
演
漕
漠
漢
漣
漫
漬
漱
漲
漳
漸
漿
潁
潅
潔
潘
潙
潜
潞
潟
潢
潤
潭
潮
潯
潰
潴
潼
潽
澁
澂
澄
澈
澍
澎
澗
澠
澤
澧
澪
澱
澳
澶
澹
激
濁
濂
濃
濊
濘
濛
濞
濟
濠
濡
濤
濫
濬
濮
濯
濰
濱
濵
濾
瀆
瀉
瀋
瀏
瀑
瀕
瀘
瀚
瀛
瀝
瀞
瀟
瀧
瀨
瀬
瀾
灌
灘
灝
灞
灣
灤
火
灯
灰
灸
灼
災
炅
炉
炊
炎
炒
炙
炫
炬
炭
炮
炯
炳
炸
点
為
炻
烈
烏
烙
烝
烟
烹
烽
焉
焔
焙
焚
焜
無
焦
然
焼
煉
煊
煌
煎
煒
煕
煙
煜
煤
煥
照
煩
煬
煮
煽
熈
熊
熏
熔
熕
熙
熟
熨
熬
熱
熲
熹
熾
燁
燃
燈
燎
燐
燔
燕
燗
營
燥
燦
燧
燭
燮
燵
燻
燼
燾
燿
爆
爐
爛
爨
爪
爬
爭
爰
爲
爵
父
爺
爻
爽
爾
牁
牂
牆
片
版
牌
牒
牘
牙
牛
牝
牟
牡
牢
牧
物
牲
特
牽
犀
犁
犂
犍
犠
犢
犬
犯
状
狂
狄
狆
狐
狗
狙
狛
狡
狩
独
狭
狸
狼
狽
猊
猗
猛
猜
猟
猥
猩
猪
猫
献
猴
猶
猷
猾
猿
獄
獅
獎
獏
獠
獣
獨
獪
獰
獲
獺
玄
率
玉
王
玕
玖
玘
玥
玩
玫
玲
玻
珀
珂
珈
珉
珊
珍
珎
珞
珠
珣
珥
珩
珪
班
現
球
琅
理
琇
琉
琊
琚
琛
琢
琥
琦
琨
琪
琬
琮
琰
琲
琳
琴
琵
琶
琺
琼
琿
瑀
瑁
瑈
瑋
瑕
瑗
瑙
瑚
瑛
瑜
瑞
瑟
瑠
瑣
瑤
瑩
瑪
瑭
瑯
瑰
瑱
瑳
瑶
瑾
璃
璆
璇
璉
璋
璐
璘
璜
璞
璟
璠
璧
璩
璮
環
璽
璿
瓊
瓌
瓏
瓔
瓘
瓚
瓜
瓠
瓢
瓦
瓶
瓷
甄
甌
甑
甕
甘
甚
甜
生
産
甥
甦
用
甫
甯
田
由
甲
申
男
甸
町
画
界
畏
畑
畔
留
畜
畝
畠
畢
畤
略
畦
番
畫
畯
異
畳
當
畷
畸
畿
疆
疇
疋
疎
疏
疑
疝
疣
疥
疫
疱
疲
疵
疸
疹
疼
疽
疾
痂
病
症
痍
痒
痔
痕
痘
痙
痛
痢
痣
痤
痩
痰
痴
痺
瘍
瘙
瘞
瘡
瘢
瘤
瘴
瘻
療
癇
癌
癒
癖
癡
癩
癪
癬
癲
癸
発
登
發
白
百
的
皆
皇
皋
皎
皐
皓
皖
皝
皮
皷
皺
皿
盂
盃
盆
盈
益
盎
盒
盗
盛
盞
盟
盡
監
盤
盥
盧
盪
目
盱
盲
直
相
盾
省
眈
眉
看
県
眙
眜
眞
真
眠
眩
眭
眷
眸
眺
眼
着
睛
睡
睢
督
睦
睨
睫
睹
睺
睾
睿
瞋
瞑
瞞
瞥
瞬
瞭
瞰
瞳
瞻
瞼
瞽
瞿
矗
矛
矜
矢
矣
知
矧
矩
短
矮
矯
石
砂
砒
研
砕
砥
砦
砧
砲
破
砺
砿
硝
硤
硫
硬
硯
碁
碇
碌
碍
碑
碓
碕
碗
碣
碧
碩
碭
確
碼
碾
磁
磊
磋
磐
磔
磚
磡
磧
磨
磬
磯
磾
礁
礎
礒
礙
礦
礪
礫
礬
示
礼
社
祀
祁
祇
祈
祉
祐
祓
祖
祗
祚
祜
祝
神
祟
祠
祢
祥
票
祭
祷
祺
祿
禁
禄
禅
禊
禍
禎
福
禕
禦
禧
禪
禮
禰
禱
禹
禺
禽
禾
禿
秀
私
秉
秋
种
科
秒
秘
租
秣
秤
秦
秩
秭
称
移
稀
稈
程
稍
税
稔
稗
稙
稚
稜
稟
稠
種
稱
稲
稷
稻
稼
稽
稿
穀
穂
穆
積
穎
穏
穐
穗
穢
穣
穫
穰
穴
究
穹
空
穿
突
窃
窄
窈
窒
窓
窖
窘
窟
窩
窪
窮
窯
窺
窿
竃
竄
竇
竈
立
竑
站
竜
竝
竟
章
竣
童
竦
竪
端
競
竹
竺
竿
笄
笈
笊
笏
笑
笘
笙
笛
笞
笠
笥
符
第
笮
笵
笹
筅
筆
筈
等
筋
筌
筍
筏
筐
筑
筒
答
策
筝
筠
筥
筧
筬
筮
筰
筵
筺
箆
箇
箋
箍
箏
箒
箔
箕
算
箙
箚
箟
管
箪
箭
箱
箴
箸
節
篁
範
篆
篇
築
篋
篝
篠
篤
篥
篩
篭
篳
簀
簋
簑
簒
簗
簡
簪
簫
簱
簸
簾
簿
籀
籃
籌
籍
籐
籔
籙
籟
籠
籤
籬
米
籾
粂
粉
粋
粍
粒
粕
粗
粘
粛
粟
粤
粥
粧
粮
粲
粳
粹
粽
精
糀
糊
糎
糒
糖
糜
糞
糟
糠
糧
糯
糸
糺
系
糾
紀
紂
約
紅
紆
紇
紊
紋
納
紐
純
紗
紘
紙
級
紛
素
紡
索
紫
紬
紮
累
細
紳
紹
紺
絁
終
絃
組
絅
絆
経
結
絞
絡
絢
絣
給
絨
統
絲
絳
絵
絶
絹
綎
綏
經
継
続
綜
綝
綦
綫
綬
維
綰
綱
網
綴
綵
綸
綺
綻
綽
綾
綿
緊
緋
総
緑
緒
緘
線
緝
緞
締
編
緩
緬
緯
練
緻
縁
縄
縅
縉
縊
縋
縒
縛
縞
縣
縦
縫
縮
縯
縷
縹
縺
縻
總
績
繁
繆
繇
繊
繋
繍
織
繕
繚
繞
繡
繩
繪
繫
繭
繰
繹
繻
纂
纈
續
纏
纐
纒
纓
纘
纜
缶
缺
罐
罔
罕
罘
罠
罪
罫
置
罰
署
罵
罷
罹
羂
羅
羆
羈
羊
羋
羌
美
羚
羞
羡
羣
群
羨
義
羯
羲
羹
羽
羿
翁
翅
翊
翌
翎
習
翔
翕
翟
翠
翡
翦
翫
翰
翳
翹
翻
翼
耀
老
考
耄
者
耆
而
耐
耒
耕
耗
耘
耙
耳
耶
耽
耿
聊
聖
聘
聚
聞
聟
聡
聯
聰
聲
聳
聴
聶
職
聾
聿
肄
肆
肇
肉
肋
肌
肖
肘
肚
肛
肜
肝
股
肢
肥
肩
肪
肯
肱
育
肴
肺
胃
胆
背
胎
胖
胚
胝
胞
胡
胤
胥
胱
胴
胸
能
脂
脅
脆
脇
脈
脊
脚
脛
脩
脱
脳
脹
脾
腋
腎
腐
腑
腓
腔
腕
腟
腫
腰
腱
腸
腹
腺
腿
膀
膂
膏
膚
膜
膝
膠
膣
膨
膳
膵
膺
膽
膾
膿
臀
臂
臆
臈
臍
臏
臓
臘
臙
臚
臣
臥
臧
臨
自
臭
至
致
臺
臻
臼
舁
舂
舅
與
興
舊
舌
舍
舎
舐
舒
舗
舘
舛
舜
舞
舟
舩
航
舫
般
舳
舵
舶
舷
船
舺
艀
艇
艋
艘
艙
艤
艦
艪
艫
艮
良
艱
色
艶
艸
艾
芋
芍
芒
芙
芝
芥
芦
芬
芭
芮
芯
花
芳
芷
芸
芹
芻
芽
芾
苅
苑
苓
苔
苗
苛
苞
苟
苣
若
苦
苧
苫
英
苴
苺
苻
苾
茂
范
茄
茅
茉
茎
茗
茘
茜
茨
茫
茯
茱
茲
茶
茸
茹
荀
荃
草
荊
荏
荒
荘
荷
荻
荼
莅
莆
莉
莊
莎
莒
莘
莚
莞
莢
莫
莱
莽
菁
菅
菊
菌
菓
菖
菘
菜
菟
菩
菫
華
菰
菱
菲
菴
萃
萄
萇
萊
萌
萍
萎
萠
萢
萩
萬
萱
萼
落
葆
葉
葎
著
葛
葡
董
葦
葩
葫
葬
葭
葯
葱
葵
葷
葺
蒋
蒐
蒔
蒙
蒜
蒟
蒡
蒨
蒯
蒲
蒴
蒸
蒹
蒻
蒼
蒿
蓁
蓄
蓉
蓋
蓑
蓨
蓬
蓮
蓼
蔀
蔑
蔓
蔗
蔚
蔡
蔣
蔦
蔬
蔭
蔵
蔽
蔿
蕁
蕃
蕉
蕊
蕎
蕗
蕙
蕤
蕨
蕩
蕪
蕭
蕾
薀
薄
薇
薊
薔
薗
薙
薛
薦
薨
薩
薪
薫
薬
薮
薯
藁
藉
藍
藏
藝
藤
藩
藪
藷
藹
藺
藻
蘂
蘄
蘆
蘇
蘊
蘋
蘚
蘭
蘿
虎
虐
虓
虔
處
虚
虜
虞
號
虢
虫
虱
虹
虻
蚊
蚌
蚕
蚝
蚡
蚤
蚩
蛆
蛇
蛉
蛋
蛍
蛎
蛙
蛛
蛟
蛤
蛭
蛮
蛯
蛸
蛹
蛾
蜀
蜂
蜃
蜆
蜘
蜜
蜥
蜴
蜷
蜻
蝉
蝋
蝎
蝕
蝗
蝙
蝠
蝦
蝮
蝶
蝸
蝿
螂
融
螢
螺
蟄
蟇
蟠
蟲
蟷
蟹
蟻
蟾
蠅
蠍
蠕
蠟
蠡
蠢
蠣
蠱
血
衆
行
衍
衒
術
街
衙
衛
衝
衞
衡
衢
衣
表
衫
衰
衷
衾
衿
袁
袂
袈
袋
袍
袖
袞
袢
被
袱
袴
袷
袿
裁
裂
裃
装
裏
裒
裔
裕
裘
補
裝
裟
裡
裨
裳
裴
裵
裸
製
裾
褄
複
褌
褐
褒
褚
褥
褪
褶
褸
褻
襄
襖
襞
襟
襠
襤
襦
襲
襴
襷
西
要
覃
覆
覇
見
規
視
覗
覚
覧
親
覯
覲
観
覺
觀
角
觚
觜
解
触
觴
言
訂
訃
計
訊
訌
討
訓
託
記
訛
訝
訟
訢
訣
訥
訪
設
許
訳
訴
訶
診
註
証
詁
詈
詐
詒
詔
評
詛
詞
詠
詡
詢
詣
試
詧
詩
詫
詭
詮
詰
話
該
詳
詵
詹
誂
誄
誅
誇
誉
誌
認
誓
誕
誘
語
誠
誡
誣
誤
誥
誦
誨
説
読
誰
課
誹
誼
誾
調
諄
談
請
諌
諍
諏
諒
論
諚
諜
諡
諤
諦
諧
諫
諭
諮
諱
諳
諶
諷
諸
諺
諾
謀
謁
謂
謄
謌
謎
謐
謔
謖
謗
謙
講
謝
謡
謨
謫
謬
謳
謹
謾
證
識
譙
譚
譜
警
譬
譯
議
譲
譴
護
譽
讀
讃
變
讎
讐
讒
讓
讖
讚
请
谷
谿
豁
豆
豈
豉
豊
豎
豐
豚
象
豨
豪
豫
豳
豹
豺
貂
貉
貊
貌
貘
貝
貞
負
財
貢
貧
貨
販
貪
貫
責
貯
貰
貳
貴
貶
買
貸
費
貼
貽
貿
賀
賁
賂
賃
賄
資
賈
賊
賎
賑
賓
賚
賛
賜
賞
賠
賢
賣
賤
賦
質
賭
賴
購
賽
賾
贄
贅
贇
贈
贊
贋
贔
贖
贛
赛
赤
赦
赫
赭
走
赳
赴
起
超
越
趙
趣
趨
足
趺
趾
跋
跌
跏
跗
跛
距
跡
跨
跪
路
跳
践
踊
踏
踝
踞
踪
踰
踵
蹂
蹄
蹇
蹈
蹉
蹊
蹙
蹟
蹠
蹲
蹴
蹶
躁
躅
躇
躊
躍
躑
躓
躙
身
躬
躯
躰
躱
躾
軀
車
軋
軌
軍
軒
軛
軟
転
軫
軸
軻
軼
軽
軾
較
載
輌
輓
輔
輕
輛
輜
輝
輦
輩
輪
輯
輳
輸
輻
輿
轄
轅
轆
轉
轍
轟
轡
轢
轤
辛
辜
辞
辟
辣
辦
辨
辭
辮
辯
辰
辱
農
辷
辺
辻
込
辿
迂
迄
迅
迎
近
返
迢
迥
迦
迪
迫
迭
述
迴
迷
迹
追
退
送
逃
逄
逅
逆
逍
透
逐
逓
途
逖
逗
這
通
逝
逞
速
造
逡
逢
連
逮
週
進
逵
逸
逹
逼
遁
遂
遅
遇
遊
運
遍
過
遐
道
達
違
遙
遜
遠
遡
遣
遥
適
遭
遮
遵
遷
選
遹
遺
遼
遽
避
邀
邁
邂
邃
還
邇
邈
邉
邊
邏
邑
邕
邙
邛
邠
邢
那
邦
邨
邪
邯
邱
邳
邴
邵
邸
邽
邾
郁
郃
郅
郊
郎
郗
郛
郝
郞
郡
郢
郤
部
郫
郭
郯
郴
郵
郷
都
鄂
鄄
鄆
鄒
鄖
鄙
鄞
鄢
鄧
鄭
鄯
鄰
鄱
鄲
鄴
酈
酉
酊
酋
酌
配
酎
酒
酔
酛
酢
酥
酩
酪
酬
酵
酷
酸
醂
醇
醉
醍
醐
醒
醗
醜
醢
醤
醪
醫
醴
醸
采
釈
釉
釋
里
重
野
量
釐
金
釗
釘
釜
針
釣
釦
釧
釵
鈍
鈎
鈑
鈔
鈕
鈞
鈴
鈷
鈺
鈿
鉄
鉅
鉈
鉉
鉋
鉗
鉛
鉞
鉢
鉤
鉦
鉱
鉾
銀
銃
銅
銈
銑
銓
銕
銖
銘
銚
銛
銜
銭
鋏
鋒
鋤
鋪
鋭
鋲
鋳
鋸
鋺
鋼
錆
錐
錕
錘
錚
錠
錢
錣
錦
錨
錫
錬
錮
錯
録
鍇
鍋
鍍
鍔
鍛
鍬
鍮
鍵
鍼
鍾
鎌
鎔
鎖
鎗
鎚
鎧
鎬
鎭
鎮
鎰
鏃
鏈
鏑
鏗
鏝
鏞
鏡
鏤
鏨
鐐
鐔
鐘
鐙
鐚
鐡
鐵
鐸
鑁
鑑
鑒
鑓
鑚
鑠
鑢
鑫
鑰
鑲
鑼
鑽
鑾
鑿
長
門
閂
閃
閇
閉
開
閎
閏
閑
閒
間
閔
閖
閘
関
閣
閤
閥
閨
閩
閬
閭
閲
閻
閼
閾
闇
闊
闌
闍
闐
闓
闔
闕
闖
闘
關
闞
闡
闢
闥
阜
阪
阮
阯
防
阻
阿
陀
陂
附
陋
陌
降
限
陘
陛
陝
陞
陟
院
陣
除
陥
陪
陰
陳
陵
陶
陸
険
陽
隅
隆
隈
隊
隋
隍
階
随
隔
隕
隗
隘
隙
際
障
隠
隣
隧
隨
隰
隴
隷
隸
隻
隼
雀
雁
雄
雅
集
雇
雉
雋
雌
雍
雎
雑
雒
雕
雖
雙
雛
雜
雞
離
難
雨
雪
雫
雯
雰
雲
零
雷
雹
電
需
霄
霆
震
霊
霍
霓
霖
霙
霜
霞
霧
霰
露
霸
霹
霽
靂
靄
靈
靑
青
靖
静
靚
靜
非
靠
靡
面
革
靫
靭
靱
靳
靴
靺
靼
鞄
鞅
鞆
鞋
鞍
鞏
鞘
鞜
鞠
鞨
鞬
鞭
鞮
鞴
韃
韋
韓
韜
韮
音
韶
韻
響
頁
頂
頃
項
順
須
頊
頌
預
頑
頒
頓
頗
領
頚
頠
頡
頤
頫
頬
頭
頴
頷
頸
頻
頼
頽
顆
題
額
顎
顒
顓
顔
顕
顗
願
顛
類
顥
顧
顯
顰
風
颪
颯
飄
飛
飜
食
飡
飢
飩
飫
飯
飲
飴
飼
飽
飾
餃
餅
餉
養
餌
餐
餓
餘
餞
餡
館
餮
饅
饉
饋
饌
饒
饕
饗
首
馗
香
馥
馨
馬
馭
馮
馳
馴
駁
駄
駅
駆
駈
駐
駒
駕
駙
駝
駟
駢
駱
駿
騎
騏
騒
験
騖
騙
騨
騫
騭
騰
騶
騸
驀
驃
驍
驕
驚
驛
驟
驢
驤
驥
驩
驪
骨
骸
髄
髏
髑
體
高
髙
髠
髣
髦
髪
髭
髯
髴
髷
髻
鬆
鬘
鬚
鬢
鬣
鬨
鬪
鬱
鬼
魁
魂
魃
魄
魅
魍
魎
魏
魑
魔
魚
魯
魴
鮎
鮑
鮒
鮓
鮨
鮪
鮫
鮭
鮮
鯉
鯖
鯛
鯨
鯰
鯱
鯵
鰊
鰌
鰍
鰐
鰓
鰤
鰭
鰯
鰲
鰹
鰺
鰻
鰾
鱈
鱒
鱗
鱸
鳥
鳩
鳳
鳴
鳶
鴇
鴈
鴉
鴎
鴛
鴟
鴦
鴨
鴫
鴬
鴻
鵄
鵜
鵝
鵞
鵠
鵡
鵤
鵬
鵯
鵰
鵲
鵺
鶉
鶏
鶚
鶯
鶴
鶻
鷗
鷦
鷯
鷲
鷹
鷺
鸕
鸚
鸞
鹵
鹸
鹹
鹽
鹿
麁
麒
麓
麗
麝
麟
麥
麦
麩
麴
麵
麹
麺
麻
麾
麿
黃
黄
黌
黍
黎
黐
黑
黒
黔
默
黙
黛
點
黟
黨
黴
鼈
鼎
鼐
鼓
鼠
鼬
鼻
齊
齋
齎
齟
齢
齧
齬
齮
齲
龍
龐
龔
龕
龗
龙
龜
가
강
경
계
고
공
관
광
교
구
국
그
기
김
나
남
노
는
니
다
단
당
대
도
동
드
라
랑
로
리
마
만
명
모
무
문
미
민
바
박
방
배
보
부
비
사
산
상
서
석
선
성
세
소
수
스
승
시
신
아
안
양
어
에
여
역
연
영
오
왕
요
용
우
원
위
유
윤
은
을
의
이
인
일
자
장
재
전
정
제
조
종
주
준
중
지
진
차
천
최
치
태
트
하
학
한
해
현
호
화
회
희
﨑
﨟
︎
𐤄
󠄀
##お
##u
##r
##b
##o
##B
##a
##d
##i
##テ
##ミ
##フ
##ァ
##イ
##ト
##ア
##カ
##デ
##ー
##n
##c
##k
##ラ
##ワ
##ポ
##ッ
##プ
##コ
##ン
##ュ
##ジ
##ク
##ゲ
##タ
##レ
##ヴ
##え
##る
##な
##く
##っ
##た
##ネ
##2
##0
##3
##6
##切
##e
##h
##t
##八
##ス
##ニ
##グ
##m
##l
##O
##U
##S
##Y
##ェ
##ム
##s
##ォ
##ド
##演
##技
##ダ
##エ
##ロ
##ペ
##y
##ウ
##ノ
##f
##負
##い
##込
##ん
##モ
##ブ
##リ
##ツ
##度
##オ
##キ
##ケ
##す
##ら
##マ
##ル
##z
##ィ
##ャ
##原
##バ
##ビ
##ハ
##ゼ
##E
##T
##き
##返
##せ
##チ
##ユ
##ナ
##シ
##う
##ね
##や
##ゅ
##ょ
##し
##つ
##g
##p
##メ
##ボ
##ふ
##こ
##ど
##で
##潔
##F
##V
##の
##と
##ば
##を
##べ
##て
##も
##ヒ
##辺
##ズ
##翁
##ベ
##パ
##セ
##ゆ
##ū
##P
##知
##N
##H
##W
##R
##v
##ホ
##ガ
##ä
##進
##ソ
##ョ
##I
##C
##が
##め
##ヨ
##は
##ち
##か
##ひ
##ゃ
##じ
##ヌ
##肉
##び
##立
##w
##月
##サ
##さ
##ぎ
##ほ
##位
##兼
##行
##春
##宮
##大
##夫
##陸
##奥
##按
##察
##使
##鎮
##守
##府
##将
##軍
##ピ
##4
##7
##j
##ザ
##水
##運
##送
##K
##冷
##寺
##ギ
##8
##و
##م
##A
##庭
##明
##録
##я
##草
##珠
##L
##ぞ
##ゴ
##x
##J
##界
##席
##ö
##無
##森
##田
##に
##仙
##形
##5
##9
##り
##強
##方
##ヶ
##D
##象
##ā
##殖
##区
##G
##だ
##ぜ
##れ
##ろ
##戸
##ゥ
##ş
##ï
##そ
##嶺
##南
##般
##社
##団
##法
##人
##認
##動
##療
##研
##修
##開
##発
##由
##ī
##ヅ
##婦
##賞
##手
##指
##ま
##み
##ご
##地
##é
##城
##1
##恵
##þ
##X
##皮
##à
##è
##ヤ
##け
##除
##角
##元
##わ
##む
##越
##π
##υ
##ι
##α
##煮
##나
##요
##日
##成
##M
##達
##玄
##ى
##ش
##ر
##đ
##ı
##範
##鳥
##ü
##付
##仁
##觜
##郎
##右
##衛
##門
##家
##住
##宅
##節
##q
##下
##駐
##宝
##居
##常
##Z
##蔵
##瑞
##江
##場
##館
##取
##î
##á
##о
##л
##д
##е
##з
##н
##売
##川
##어
##神
##ε
##ω
##μ
##τ
##ρ
##ί
##縄
##自
##縛
##げ
##祖
##師
##寶
##壇
##經
##同
##ぶ
##ق
##ت
##ي
##浜
##ý
##比
##이
##介
##ヂ
##岳
##完
##よ
##間
##町
##新
##安
##當
##与
##野
##倫
##畑
##閣
##尾
##内
##ぷ
##å
##媛
##ㇽ
##斐
##上
##袋
##歳
##台
##才
##津
##眼
##炳
##ž
##ć
##目
##峰
##払
##小
##路
##ì
##車
##毎
##忍
##泉
##後
##谷
##桜
##子
##燃
##化
##学
##海
##ゾ
##久
##恐
##分
##信
##用
##金
##庫
##트
##奈
##க
##ி
##ர
##×
##九
##渕
##慮
##瀬
##治
##管
##島
##定
##ל
##ם
##勝
##殻
##代
##継
##倉
##戊
##刷
##表
##功
##之
##碑
##真
##柄
##髪
##는
##р
##в
##然
##ק
##率
##許
##橋
##ē
##決
##笠
##崇
##親
##王
##事
##Q
##各
##星
##へ
##杰
##黙
##ğ
##通
##狩
##晃
##石
##塞
##暎
##所
##前
##蘇
##岡
##商
##業
##高
##等
##校
##丘
##東
##状
##ř
##直
##長
##古
##ل
##ا
##ة
##寬
##주
##현
##ざ
##屋
##一
##御
##霊
##瑩
##滅
##佑
##流
##т
##б
##г
##а
##虫
##平
##糖
##良
##湖
##期
##沼
##ぺ
##市
##永
##県
##物
##中
##ǎ
##謬
##張
##ǐ
##籍
##相
##製
##作
##厳
##院
##ず
##吹
##林
##公
##園
##北
##口
##λ
##ο
##ς
##駅
##ë
##茂
##楽
##堂
##葉
##紫
##天
##鵞
##絨
##ê
##采
##鞮
##丸
##殿
##с
##к
##м
##у
##ó
##寿
##籌
##坂
##ヘ
##々
##逸
##ุ
##า
##ล
##ง
##ก
##ร
##ณ
##์
##ม
##ห
##ว
##ิ
##ท
##ย
##ั
##掛
##苔
##逡
##有
##ố
##牟
##ñ
##線
##č
##и
##起
##折
##í
##น
##ค
##ู
##あ
##式
##保
##山
##向
##転
##止
##י
##ש
##崗
##ŏ
##近
##断
##総
##豊
##里
##者
##ぐ
##朝
##墓
##ぃ
##陰
##士
##奴
##美
##命
##店
##室
##旧
##隅
##州
##非
##勤
##講
##正
##唱
##ţ
##助
##陵
##廟
##椎
##渓
##秦
##ś
##来
##読
##実
##火
##太
##升
##宿
##街
##済
##づ
##ि
##承
##快
##桂
##連
##続
##訂
##増
##補
##本
##食
##品
##標
##準
##ぼ
##役
##芝
##三
##栄
##華
##注
##仔
##入
##対
##失
##乗
##ж
##見
##死
##지
##虎
##ص
##荒
##牧
##ب
##ء
##首
##岬
##ե
##ն
##ի
##ա
##ր
##ы
##河
##諭
##会
##関
##支
##部
##任
##幹
##温
##木
##峠
##輪
##更
##瓜
##井
##秒
##무
##ن
##ǒ
##置
##頭
##病
##丞
##腱
##杵
##臼
##吾
##討
##図
##和
##ύ
##χ
##二
##冠
##塀
##ō
##炉
##ц
##可
##เ
##ข
##ี
##落
##ν
##避
##岸
##在
##沢
##宇
##姉
##毛
##寧
##ぱ
##留
##赤
##軒
##崎
##藤
##岐
##合
##盛
##卿
##息
##被
##出
##ą
##盤
##甫
##椿
##誠
##依
##娑
##絶
##沖
##特
##夜
##当
##武
##雲
##吉
##ю
##淑
##蓮
##結
##ु
##र
##्
##ग
##़
##次
##是
##穂
##薬
##第
##郡
##番
##寄
##医
##่
##้
##อ
##畠
##統
##ک
##ز
##ی
##鼻
##็
##𐤄
##索
##多
##暗
##貢
##綿
##廻
##翻
##磁
##力
##麿
##邊
##ά
##σ
##宗
##清
##文
##蹟
##ш
##理
##醢
##官
##束
##琅
##幡
##庄
##曽
##郷
##誡
##扇
##飯
##犬
##晴
##字
##離
##啓
##局
##類
##著
##笙
##志
##堀
##史
##西
##斤
##曇
##告
##都
##ч
##э
##板
##段
##減
##速
##歯
##装
##並
##列
##複
##蒸
##気
##滝
##英
##玉
##世
##号
##聴
##樫
##إ
##س
##交
##ø
##倒
##É
##衣
##粒
##種
##縣
##主
##倭
##彦
##戦
##竹
##解
##百
##弟
##説
##経
##声
##充
##裡
##寛
##恋
##ㇱ
##靖
##勿
##君
##疑
##案
##咋
##工
##曾
##根
##樹
##券
##虚
##賀
##라
##蔽
##培
##十
##版
##欲
##的
##音
##徐
##帰
##梨
##郢
##ú
##炭
##添
##待
##朔
##於
##慶
##尚
##道
##泗
##萬
##餘
##兵
##撃
##亡
##畢
##呼
##言
##雄
##先
##叔
##詰
##श
##ा
##च
##加
##量
##拝
##枝
##糸
##舞
##ł
##妻
##菜
##届
##恩
##咲
##村
##غ
##博
##ه
##棋
##陽
##△
##ぬ
##卵
##ج
##積
##鹿
##噺
##ぽ
##語
##書
##抜
##ख
##व
##स
##भ
##電
##機
##暖
##群
##心
##専
##攻
##š
##罪
##刺
##鉄
##苑
##щ
##ё
##簪
##祐
##勘
##奉
##記
##사
##酸
##雍
##須
##受
##ו
##ד
##ס
##賢
##ô
##権
##刀
##紋
##熊
##ð
##κ
##ό
##η
##奨
##編
##婆
##省
##調
##窪
##ṭ
##斉
##도
##布
##狸
##穴
##腕
##계
##을
##端
##邈
##波
##승
##민
##級
##匡
##輔
##国
##禄
##識
##ヲ
##好
##株
##科
##璟
##ь
##鎌
##柚
##名
##宕
##箕
##亀
##看
##想
##両
##洲
##禍
##座
##拯
##聞
##芳
##兆
##柘
##植
##骨
##儒
##矢
##司
##職
##五
##六
##歩
##戻
##რ
##ე
##ვ
##ლ
##ო
##ა
##岩
##曺
##ध
##ो
##प
##悉
##剥
##竦
##建
##築
##務
##限
##其
##ę
##ń
##造
##效
##浅
##砲
##嶋
##雷
##隊
##麾
##艦
##防
##荘
##教
##単
##ི
##ན
##白
##ṃ
##ṣ
##情
##報
##走
##義
##嫌
##จ
##ต
##û
##â
##性
##溢
##痒
##ぴ
##구
##천
##輝
##周
##ň
##ז
##ר
##ת
##栗
##急
##便
##銃
##創
##ப
##ா
##்
##ட
##鞠
##鬼
##宥
##持
##型
##構
##集
##希
##章
##湊
##מ
##女
##産
##臭
##湯
##意
##수
##爽
##末
##ம
##画
##陶
##器
##站
##贈
##吟
##男
##踞
##隈
##暦
##馳
##菱
##油
##馴
##短
##稍
##愛
##해
##경
##전
##丁
##智
##奏
##마
##ํ
##ส
##ญ
##乙
##ი
##深
##禎
##也
##θ
##δ
##洞
##京
##黒
##論
##敷
##馬
##側
##Š
##別
##ß
##刑
##忠
##강
##인
##與
##港
##協
##延
##警
##撫
##輩
##न
##致
##梅
##源
##臣
##誉
##戒
##慧
##空
##稷
##躁
##回
##嫁
##彫
##蔚
##邑
##裂
##緒
##梶
##伝
##ช
##ศ
##条
##闊
##曲
##塩
##膠
##п
##誼
##面
##観
##土
##械
##呂
##渭
##滑
##悍
##裁
##鑫
##孝
##ù
##蘭
##感
##体
##操
##組
##農
##民
##詮
##ě
##福
##ح
##薮
##母
##靡
##松
##旭
##斎
##味
##潟
##鉢
##四
##季
##旬
##鮮
##箋
##尊
##ธ
##紀
##生
##員
##就
##א
##Ä
##讖
##ゑ
##饌
##足
##股
##遣
##附
##属
##貞
##違
##ả
##肋
##花
##諸
##坪
##塁
##審
##姫
##د
##系
##정
##猿
##재
##那
##槨
##竑
##煒
##ṅ
##威
##沙
##全
##規
##則
##ع
##札
##塔
##令
##昌
##少
##劣
##浦
##國
##砥
##誌
##半
##慈
##蟻
##彊
##年
##祝
##會
##時
##示
##色
##題
##序
##洋
##卒
##船
##雀
##利
##鉱
##餅
##香
##再
##輓
##授
##帝
##忌
##妙
##典
##尹
##参
##謀
##佐
##隣
##従
##核
##ぁ
##х
##揚
##惠
##邦
##ी
##ف
##因
##砂
##碩
##æ
##叉
##峙
##徹
##산
##磋
##廃
##雪
##鳴
##未
##最
##優
##秀
##祇
##監
##俗
##й
##又
##能
##條
##様
##Ц
##Б
##丙
##일
##의
##İ
##素
##熙
##서
##砒
##換
##ò
##ू
##ल
##劉
##推
##刊
##В
##摩
##千
##왕
##青
##敏
##影
##以
##候
##数
##巻
##髦
##設
##盆
##崩
##着
##鮒
##池
##計
##算
##Ç
##友
##景
##割
##掌
##ज
##善
##免
##禮
##販
##牛
##ן
##散
##薗
##ă
##雅
##溥
##劇
##際
##卜
##أ
##酷
##화
##像
##廓
##ㇰ
##箱
##掘
##塚
##階
##七
##軽
##爆
##泊
##巴
##習
##粥
##懶
##고
##다
##緑
##중
##瑀
##円
##胡
##顧
##問
##黄
##酒
##初
##Г
##Т
##У
##得
##紅
##労
##念
##外
##豫
##改
##ს
##広
##漢
##簡
##溝
##拌
##호
##남
##浪
##光
##営
##ç
##篇
##і
##絵
##僧
##勧
##覧
##褒
##證
##亜
##懿
##乃
##筋
##蒲
##杯
##老
##抗
##羅
##基
##証
##融
##糞
##央
##身
##衰
##痩
##翼
##祭
##突
##ḥ
##仇
##杉
##柳
##畔
##活
##材
##篠
##婚
##妃
##麟
##并
##凛
##促
##伊
##盟
##悩
##蛸
##腸
##紗
##仏
##脚
##導
##釜
##存
##跡
##展
##φ
##γ
##魚
##帽
##護
##洗
##阪
##壽
##樂
##重
##托
##ぅ
##ぇ
##ぉ
##ゎ
##堵
##了
##毅
##奇
##児
##没
##부
##狭
##芹
##舘
##峯
##徳
##鉾
##亭
##于
##童
##仲
##抱
##哉
##ŭ
##殺
##而
##庵
##飼
##晏
##砕
##引
##議
##紛
##ח
##貝
##差
##尻
##Ж
##Д
##不
##押
##律
##厚
##簗
##穹
##魂
##稼
##璉
##ं
##द
##諚
##呉
##惲
##境
##究
##昭
##隆
##粋
##傷
##左
##逃
##句
##俊
##謝
##叫
##判
##眞
##奢
##實
##ћ
##舎
##練
##윤
##성
##埜
##勢
##胝
##駕
##班
##醸
##喜
##答
##歴
##域
##炎
##வ
##副
##燕
##痢
##邸
##税
##阿
##釘
##政
##하
##ك
##冬
##汞
##ط
##涇
##ไ
##專
##哈
##秋
##蓼
##誓
##ு
##த
##劫
##精
##飴
##銭
##圧
##紙
##垣
##พ
##ะ
##ื
##蔭
##鈞
##損
##透
##榮
##風
##措
##Л
##Я
##予
##満
##策
##整
##έ
##鼠
##峨
##反
##維
##俣
##袴
##甚
##خ
##織
##스
##ј
##醇
##ɑ
##ː
##委
##徒
##育
##浩
##純
##施
##己
##ע
##唐
##宜
##壷
##干
##ָ
##ב
##堰
##訶
##思
##耕
##伏
##刻
##대
##문
##例
##打
##ș
##輯
##嘉
##養
##課
##程
##태
##躓
##腹
##柱
##舩
##額
##迎
##銀
##剿
##匪
##熱
##吸
##綱
##壁
##血
##厩
##駒
##囲
##旱
##此
##竟
##係
##懇
##談
##翳
##籠
##渡
##痰
##針
##ป
##諮
##価
##ヮ
##翔
##熾
##烏
##逢
##祚
##ถ
##ฟ
##가
##礼
##菩
##薩
##愚
##訓
##鋼
##順
##리
##娼
##資
##格
##極
##보
##단
##滸
##鶏
##幕
##為
##領
##丈
##肯
##震
##災
##提
##碁
##飛
##揮
##盾
##汪
##牙
##芸
##匯
##魯
##弥
##怒
##笹
##箇
##幣
##視
##弾
##康
##捨
##寨
##片
##却
##隠
##娘
##航
##杭
##茎
##龍
##約
##游
##匂
##液
##堅
##陳
##恭
##闘
##โ
##ด
##豆
##投
##韓
##裳
##怪
##球
##漉
##求
##П
##皆
##苦
##頂
##ṇ
##蜜
##卦
##梁
##振
##柵
##幅
##ぢ
##頃
##暴
##แ
##尽
##嵐
##驢
##ã
##休
##菌
##甲
##坊
##迄
##放
##围
##鋳
##М
##氏
##우
##희
##菟
##点
##働
##載
##姪
##한
##湾
##●
##忽
##制
##ภ
##略
##到
##米
##穀
##椒
##鳩
##學
##舍
##徧
##竪
##坑
##櫓
##退
##楷
##ώ
##邪
##応
##富
##備
##処
##旅
##抄
##脈
##β
##ি
##া
##藏
##垪
##惣
##寝
##網
##宏
##騎
##บ
##侯
##派
##步
##ض
##유
##ư
##症
##迫
##拍
##脱
##원
##鈴
##莉
##術
##享
##曉
##兄
##ő
##遍
##伯
##양
##방
##脇
##幌
##葭
##独
##潜
##宣
##漏
##帆
##廣
##共
##批
##嗣
##巾
##廊
##籀
##喉
##茅
##狼
##現
##縁
##澹
##洪
##鏑
##靴
##동
##蜀
##簿
##雁
##容
##澄
##Á
##幸
##안
##殴
##弱
##朗
##懼
##竃
##閲
##琢
##柯
##脂
##筒
##腰
##ζ
##宋
##酬
##舌
##傅
##渙
##如
##泰
##旨
##袈
##̈
##普
##窟
##시
##준
##丹
##彌
##僕
##粧
##羽
##傍
##触
##樋
##凡
##夏
##鞍
##动
##ম
##্
##姚
##琴
##採
##質
##渠
##橘
##臂
##綜
##稿
##廠
##म
##変
##籾
##荷
##泓
##去
##帯
##肥
##韶
##宰
##弐
##層
##Ü
##랑
##膳
##健
##錬
##丰
##益
##장
##纂
##今
##要
##寇
##ф
##기
##若
##脳
##蛇
##符
##零
##茶
##鐘
##某
##壬
##話
##聘
##嘆
##諏
##族
##燐
##陀
##頼
##Í
##त
##枯
##及
##弓
##竜
##ヱ
##邁
##壊
##薄
##鉤
##歌
##帳
##興
##房
##僑
##朋
##執
##印
##挙
##ה
##楼
##敬
##毘
##曳
##榴
##齋
##य
##停
##劭
##彭
##納
##詞
##俵
##舒
##榔
##陣
##胆
##비
##ĕ
##ट
##َ
##訳
##鈍
##値
##桐
##綬
##爵
##琳
##鳳
##莎
##併
##蓬
##侘
##替
##О
##祺
##訪
##担
##敗
##ʃ
##戯
##環
##鯨
##捕
##獲
##査
##藩
##貴
##क
##遂
##柑
##Э
##孜
##往
##該
##万
##筏
##蔓
##樺
##敦
##尼
##誘
##鶴
##覺
##圓
##籬
##虜
##簾
##艮
##র
##ˌ
##乾
##豹
##擦
##儀
##望
##恒
##미
##咬
##遊
##料
##勲
##揃
##照
##И
##荊
##晩
##粉
##衍
##漱
##貨
##Ú
##害
##灯
##嶼
##銘
##珂
##濟
##汝
##회
##襲
##倩
##沈
##臚
##堤
##舟
##廷
##璠
##ण
##締
##衢
##杖
##供
##發
##獏
##苞
##壌
##窮
##紐
##涙
##稽
##芻
##치
##노
##試
##験
##ż
##沿
##即
##峡
##件
##悦
##祁
##ब
##े
##且
##慢
##학
##교
##譚
##汰
##ゝ
##虔
##過
##薙
##巌
##誤
##射
##癖
##掠
##痛
##横
##盗
##破
##侍
##双
##昇
##途
##橙
##纈
##微
##夷
##戌
##ใ
##踵
##俱
##乐
##郊
##髭
##狂
##蟹
##尉
##夾
##征
##詩
##費
##Ö
##蛮
##棲
##磐
##聯
##密
##滿
##披
##舶
##僚
##攣
##Р
##К
##藪
##庁
##腺
##드
##裕
##니
##耽
##泣
##萩
##亨
##聖
##果
##沂
##朮
##ή
##尺
##浸
##怖
##埃
##架
##譜
##穆
##楠
##ė
##剛
##署
##遠
##背
##韻
##ष
##聲
##∞
##寂
##呑
##烈
##С
##Х
##濠
##○
##신
##移
##憂
##叡
##菁
##葦
##衫
##党
##剤
##殉
##浮
##已
##ゞ
##ヰ
##絞
##稲
##低
##項
##検
##楊
##懐
##嶽
##咳
##柏
##桃
##晤
##銅
##葺
##್
##曙
##卉
##鵲
##禅
##ǔ
##姓
##汗
##撲
##簫
##映
##催
##暇
##역
##蝕
##浄
##寒
##辛
##丕
##漫
##危
##蝶
##貫
##盎
##槓
##累
##具
##薛
##翠
##檜
##燈
##鏃
##畝
##ّ
##纏
##ㇺ
##פ
##眉
##མ
##腔
##雨
##ξ
##魔
##衆
##縫
##ང
##琰
##澤
##Θ
##Ο
##Ζ
##革
##均
##繰
##斗
##辞
##栖
##細
##관
##珍
##猪
##騫
##克
##窯
##蒻
##奸
##奠
##鏡
##惨
##帷
##纓
##鞏
##余
##ヽ
##楚
##艸
##儁
##ह
##塵
##彩
##貼
##瓶
##━
##晶
##称
##封
##疫
##准
##配
##捜
##蒙
##〇
##狐
##露
##忘
##灣
##述
##辰
##径
##淵
##昊
##楢
##榊
##灸
##槍
##ַ
##ט
##ड
##縦
##携
##閑
##躬
##袖
##錦
##俸
##玖
##佳
##客
##ོ
##閏
##悪
##曰
##濃
##盲
##ť
##魁
##銜
##軟
##諾
##영
##弦
##菊
##肌
##卓
##徴
##縮
##藻
##痕
##洸
##駆
##胤
##聡
##巳
##진
##私
##穰
##覚
##燮
##峻
##伸
##滴
##屯
##麻
##疹
##耶
##必
##孫
##楡
##拠
##屎
##涸
##猾
##鞘
##翰
##悠
##他
##綾
##敵
##播
##痴
##ờ
##바
##柩
##燦
##励
##献
##은
##佺
##騒
##兔
##鍋
##捌
##ུ
##庇
##靱
##冶
##父
##慎
##ゐ
##로
##아
##争
##猫
##筠
##ర
##ḍ
##乱
##惑
##葱
##裏
##연
##漸
##緯
##暮
##柔
##怡
##婁
##鷲
##麦
##亘
##契
##墨
##蛋
##掻
##終
##降
##扱
##穏
##伐
##礫
##Æ
##↑
##에
##哀
##服
##釣
##黛
##酉
##ּ
##妖
##ㇷ
##舗
##棄
##娜
##診
##烙
##乎
##攫
##怨
##磯
##涼
##仕
##糠
##徭
##考
##埼
##亦
##底
##瓦
##珎
##鵬
##覇
##釧
##始
##拓
##А
##捷
##輸
##請
##劃
##爾
##耆
##軌
##敢
##衡
##김
##赫
##厨
##腐
##弘
##耀
##★
##財
##億
##馥
##探
##蹠
##廬
##蘿
##桁
##貿
##渋
##Н
##선
##伎
##恕
##塗
##گ
##追
##雑
##欽
##용
##鞬
##紂
##栽
##旛
##掩
##竿
##畜
##笛
##至
##œ
##么
##包
##鷹
##遷
##臨
##昔
##箏
##宸
##旻
##云
##豎
##偵
##號
##溜
##妓
##ъ
##黍
##登
##酔
##努
##顯
##泥
##ְ
##戍
##ন
##銑
##灌
##鴻
##淀
##妹
##弁
##儡
##夢
##坡
##楓
##涛
##勅
##亮
##應
##渚
##噌
##粲
##冨
##険
##模
##Δ
##Σ
##Ε
##Ι
##Α
##傳
##躍
##寮
##獅
##曜
##樽
##斧
##肝
##垠
##何
##靫
##稻
##撞
##逐
##业
##笑
##潭
##貸
##◯
##→
##姜
##襄
##橿
##葛
##彙
##자
##叛
##媚
##种
##麺
##鴉
##奪
##汀
##黨
##祥
##喋
##郝
##錠
##適
##膜
##鷺
##肘
##申
##接
##祢
##収
##餐
##ẓ
##栃
##泡
##難
##掃
##郁
##剌
##ơ
##淮
##巡
##爲
##企
##復
##櫃
##粟
##曹
##醐
##障
##נ
##ལ
##否
##曼
##駄
##浙
##汁
##ț
##厥
##隷
##固
##제
##乞
##공
##薦
##筆
##ʊ
##蹄
##矩
##允
##旗
##상
##還
##屍
##彰
##願
##ར
##曄
##募
##謙
##堕
##渇
##陛
##綴
##만
##囚
##צ
##鄂
##套
##驚
##艾
##筵
##畿
##姻
##盃
##圭
##ṛ
##塙
##鬱
##醤
##岑
##召
##晨
##槌
##戈
##鉉
##甘
##硯
##剣
##Å
##酪
##榎
##閃
##磨
##静
##隗
##幽
##ɪ
##缶
##倖
##棠
##只
##矧
##幾
##Λ
##Ω
##Ν
##盈
##ნ
##睡
##礁
##淫
##残
##宙
##塘
##寰
##随
##早
##玩
##ո
##銕
##衞
##績
##漬
##檀
##桑
##絹
##迦
##簀
##餡
##吼
##暠
##哲
##暉
##狽
##위
##占
##鴫
##õ
##ɒ
##茯
##釗
##彧
##裔
##賄
##拾
##魏
##鴨
##訴
##訟
##測
##Ū
##Ō
##瀑
##汕
##소
##贛
##聾
##恨
##국
##偃
##祀
##雇
##援
##絃
##藍
##芽
##異
##湧
##齢
##欠
##需
##沮
##袞
##芦
##종
##芯
##楯
##易
##세
##拳
##癬
##廉
##匐
##遁
##荻
##酥
##床
##刃
##棚
##瞳
##偏
##摘
##聿
##弼
##汽
##悸
##ซ
##描
##顆
##斯
##兒
##吏
##槃
##凰
##濁
##紹
##ệ
##胞
##襟
##璧
##焼
##洩
##柿
##倍
##數
##庸
##机
##牌
##柴
##遺
##逹
##媒
##佛
##喆
##紳
##皇
##耳
##脊
##髄
##逝
##凱
##遽
##珉
##盪
##鞆
##姿
##炊
##芋
##艙
##殊
##孟
##糧
##我
##履
##迷
##疎
##祷
##瀨
##茫
##辱
##枡
##贄
##靭
##激
##染
##狄
##伽
##督
##邨
##吐
##壮
##硬
##競
##后
##琛
##ŋ
##閩
##喝
##洽
##扼
##咀
##獣
##鍾
##杏
##愁
##眺
##ψ
##筈
##刈
##圏
##慣
##潰
##勒
##写
##倹
##函
##噲
##鼓
##嘱
##託
##耄
##似
##浴
##恥
##傑
##蕙
##讚
##髷
##ษ
##筰
##毒
##消
##鈕
##闡
##배
##兀
##ḫ
##懸
##奎
##嚢
##灘
##畷
##Č
##撒
##그
##豳
##犯
##罐
##尖
##旺
##買
##筌
##葬
##互
##炮
##匠
##揆
##幻
##艇
##酵
##溪
##炙
##娟
##冰
##壺
##駿
##對
##儺
##吒
##Е
##俳
##肢
##紡
##伴
##縞
##艶
##棍
##肇
##兌
##秘
##堡
##啜
##氷
##嶮
##熹
##琪
##舫
##洛
##續
##ರ
##蕃
##霧
##從
##聳
##麓
##瑜
##傲
##여
##兗
##鯉
##磚
##峅
##虞
##縊
##賽
##獄
##饒
##臓
##燭
##爐
##你
##碼
##德
##焦
##圖
##堯
##李
##疲
##皿
##赴
##焉
##鈺
##畳
##琶
##鐵
##訢
##夔
##枷
##墉
##屈
##澗
##脛
##評
##Φ
##屏
##渉
##枕
##捉
##扶
##腫
##狗
##給
##贅
##尸
##盒
##槻
##誕
##響
##祿
##粽
##ག
##ས
##塾
##肆
##歓
##弖
##鬪
##迪
##嬉
##尤
##澳
##跋
##孺
##註
##剰
##閤
##勇
##冤
##屠
##欧
##羌
##飽
##誥
##鍼
##迹
##譲
##昼
##藝
##嵩
##婿
##顕
##兜
##舵
##寸
##卑
##胎
##豉
##塑
##濱
##拿
##慟
##鱗
##勃
##È
##詣
##陪
##括
##綺
##辻
##浣
##救
##鞄
##璋
##帚
##鍬
##抹
##茨
##仰
##蕭
##謁
##苅
##昧
##帖
##罵
##豚
##來
##夕
##肺
##畫
##況
##鰐
##呪
##董
##敞
##畯
##滔
##妊
##ů
##潮
##灰
##駁
##詁
##湘
##傘
##幼
##摺
##毬
##憑
##粛
##剋
##嶌
##蓋
##憲
##禰
##麹
##鑿
##蓉
##袍
##戰
##癸
##駱
##蕩
##檄
##歿
##泳
##杣
##疋
##彼
##舜
##梯
##睦
##郵
##淳
##오
##熟
##灤
##垂
##چ
##琉
##悟
##轄
##烟
##喀
##筑
##ג
##叟
##寅
##晦
##疣
##靜
##沓
##豪
##眠
##縷
##虱
##簋
##兎
##婺
##偶
##芥
##昵
##箸
##購
##沫
##胃
##杁
##做
##繕
##명
##溶
##鹵
##選
##們
##超
##穿
##熨
##胴
##叩
##决
##¥
##蛎
##團
##綏
##薯
##敎
##崖
##陝
##潤
##裟
##颯
##Ž
##冉
##岱
##賦
##儘
##顔
##訝
##趙
##喬
##瓊
##阜
##瀧
##躑
##躅
##凸
##趾
##妄
##奄
##翊
##ث
##孚
##躇
##棒
##沃
##汲
##광
##責
##驩
##Ł
##蚊
##羯
##嗜
##瘡
##棟
##淡
##鐡
##故
##́
##魃
##瑁
##票
##讃
##娃
##哨
##Ø
##諒
##拭
##怠
##蔀
##墳
##葵
##蝋
##逆
##滓
##壱
##尭
##桔
##梗
##蛆
##莫
##拇
##懈
##顗
##偽
##辨
##蕪
##戎
##蟲
##차
##谿
##稀
##覃
##幢
##脩
##菓
##猥
##翹
##璃
##喩
##叢
##厝
##鎖
##嚴
##당
##窺
##炯
##鵝
##冀
##俟
##絲
##疱
##閇
##患
##桿
##澂
##斬
##蛟
##幇
##闕
##酢
##孔
##勱
##弄
##嬢
##唇
##猷
##含
##痔
##践
##謡
##晋
##賓
##碧
##斂
##腿
##撰
##猶
##爪
##奕
##Ó
##佼
##窓
##瑪
##闍
##奔
##奐
##閥
##嘗
##조
##嵜
##苗
##將
##玫
##ħ
##嫡
##賴
##筥
##但
##權
##犂
##鼎
##硝
##蝦
##搭
##稜
##鄭
##哥
##醍
##邉
##個
##冊
##↓
##錫
##嵬
##逵
##栢
##燁
##ச
##或
##鈔
##仍
##輿
##呆
##旁
##茗
##瀾
##菴
##遇
##倶
##雙
##弗
##曝
##択
##喰
##簑
##賊
##詵
##戮
##战
##煥
##沁
##幟
##翫
##距
##體
##猜
##轡
##嬌
##欣
##纒
##壕
##霜
##寫
##咩
##徨
##鱈
##粕
##租
##賜
##巨
##석
##螂
##釈
##惜
##狡
##箪
##庖
##糎
##循
##陂
##賃
##雯
##禦
##吊
##鴎
##瑤
##睿
##昱
##鑑
##牢
##肩
##凝
##Ю
##昏
##凶
##膚
##巣
##鯖
##遅
##痘
##髻
##遥
##尓
##裒
##鉦
##慰
##琦
##猛
##喪
##昂
##漠
##飾
##輌
##貌
##駈
##禽
##串
##態
##徽
##絡
##厦
##輜
##ạ
##讀
##搬
##繁
##薫
##諄
##釋
##昆
##赛
##耗
##憤
##朴
##戟
##兩
##臥
##暁
##婢
##洒
##甥
##牒
##暢
##縒
##緬
##窩
##乳
##箭
##禹
##軸
##璞
##潁
##嬪
##龜
##渥
##賛
##煌
##饗
##桧
##佚
##屓
##詢
##鋲
##悲
##滄
##伶
##覆
##З
##瑱
##罰
##褐
##芷
##淞
##桶
##蕊
##庶
##禿
##餌
##匿
##蹴
##梵
##埋
##鑽
##躯
##毫
##摂
##牡
##跪
##辟
##葩
##鄰
##斑
##總
##박
##盞
##鉈
##渣
##猴
##猟
##訛
##胸
##廩
##觴
##霖
##肴
##樵
##癪
##奭
##挾
##邵
##葆
##瑾
##鄯
##篤
##款
##♭
##朱
##斜
##債
##煉
##瘍
##驛
##咄
##諷
##咽
##砧
##ɔ
##鎬
##渤
##霞
##弋
##祉
##蚕
##缺
##謹
##旋
##犠
##枠
##遼
##菅
##婷
##纜
##篋
##挂
##竄
##鈎
##弊
##醒
##ɛ
##ˈ
##蹲
##窒
##賂
##預
##謨
##槽
##瑠
##兮
##蛾
##歎
##穫
##آ
##這
##麗
##氐
##蝉
##隼
##梓
##璽
##帥
##譽
##孛
##逍
##煙
##貪
##秉
##饕
##侭
##軻
##亞
##Ś
##吽
##僊
##薪
##韜
##諧
##喃
##羊
##喧
##嘩
##錢
##瑟
##憐
##圻
##←
##雌
##佩
##甸
##杜
##餉
##揺
##ə
##羨
##华
##樟
##鋪
##כ
##紺
##莱
##變
##椅
##礎
##鍵
##秤
##鵜
##鄧
##鋒
##虐
##嘴
##諍
##爺
##槐
##凜
##譯
##詹
##菘
##倡
##巫
##繭
##諜
##ྱ
##遵
##糊
##氣
##涵
##鎚
##疵
##皓
##耘
##拔
##仄
##枢
##昨
##瀆
##崙
##鍛
##漕
##粮
##鉅
##秩
##醜
##屑
##庚
##懲
##排
##眈
##詔
##湛
##卯
##遹
##欺
##篭
##ɡ
##妨
##肱
##煕
##黌
##栓
##塊
##瞞
##疏
##乏
##借
##茹
##膝
##漿
##午
##宍
##萌
##勁
##埔
##址
##招
##淨
##疆
##堝
##尿
##桓
##慕
##掉
##膨
##遐
##觀
##硤
##剪
##蠣
##昶
##睨
##冥
##据
##悳
##桝
##旦
##遮
##賁
##闇
##汾
##憎
##蒔
##藉
##黎
##擂
##飲
##碗
##摠
##璘
##抑
##睹
##鮫
##佗
##亥
##繊
##箔
##默
##朽
##讐
##珊
##疾
##矣
##黔
##蒼
##濡
##郞
##仮
##凍
##鐸
##恤
##籃
##框
##枇
##杷
##棘
##墻
##皖
##洵
##頑
##恰
##蜂
##萱
##掬
##悌
##烝
##宴
##確
##萎
##捺
##滋
##ễ
##ế
##棱
##挽
##鶻
##雋
##凄
##唯
##氈
##禕
##琵
##慾
##坐
##郴
##煤
##پ
##諺
##把
##較
##恬
##緩
##舳
##勉
##墾
##恪
##唄
##巖
##處
##霸
##攸
##縋
##侶
##≫
##嶠
##涯
##侵
##掾
##償
##忙
##廙
##悼
##ɣ
##모
##淇
##渝
##竣
##璆
##褻
##昀
##芬
##奮
##迅
##鱒
##逮
##禁
##崔
##痤
##翌
##閉
##鶯
##削
##瞭
##嗽
##鞭
##餮
##掲
##馨
##祈
##惟
##礒
##聟
##彪
##膺
##關
##癩
##轢
##昕
##緊
##洙
##鉞
##齊
##騰
##鮑
##稱
##溺
##汚
##巧
##豐
##緞
##鬘
##轍
##纘
##孤
##牆
##諫
##笞
##湿
##侠
##醫
##踊
##詠
##珩
##渾
##吃
##詳
##拉
##牘
##瀛
##ظ
##瑶
##鄙
##絆
##卡
##控
##涅
##弩
##礬
##窃
##瓚
##踏
##瑚
##尋
##躰
##稗
##妾
##譴
##琇
##恂
##烹
##閒
##忱
##靠
##□
##咎
##鮭
##挺
##咤
##涎
##朏
##撚
##莢
##痙
##盧
##勾
##无
##竇
##雉
##亢
##隻
##聚
##Τ
##禪
##娥
##磊
##沸
##Ш
##霍
##穣
##匹
##薇
##賣
##姦
##碓
##讓
##嚮
##椰
##苫
##榛
##鋸
##坤
##獨
##些
##繡
##跳
##躙
##辭
##梧
##蕤
##什
##邃
##睛
##唾
##効
##箙
##筐
##頓
##宛
##錐
##漁
##霄
##奚
##靺
##萢
##鏗
##嗟
##峴
##鸞
##析
##Ş
##潢
##謗
##惚
##賈
##鑁
##混
##滉
##卸
##虹
##芭
##朐
##漣
##沱
##鋏
##枚
##邏
##髴
##銖
##∂
##椋
##繻
##祗
##蘊
##蔗
##獪
##頻
##謌
##犢
##營
##鑾
##勳
##甕
##墟
##頒
##獎
##稚
##裾
##爰
##蛭
##♪
##偕
##ད
##磡
##暑
##殷
##瀘
##鈑
##挫
##Ч
##巽
##裝
##愔
##罫
##楨
##陟
##﨑
##辦
##茘
##澪
##蔦
##鋭
##蒯
##卞
##儂
##臧
##粍
##辣
##窖
##毀
##璩
##彝
##皐
##吻
##誅
##煜
##皷
##焚
##曷
##邕
##貽
##疼
##滌
##澱
##玕
##璐
##濤
##瑯
##詒
##啼
##胥
##靈
##瞰
##戚
##蘆
##帛
##圃
##圀
##廳
##螺
##詫
##侈
##臺
##叱
##戴
##諱
##掴
##馗
##Ξ
##Ψ
##繞
##咥
##貧
##毓
##鵰
##掟
##遙
##櫻
##愍
##內
##燥
##최
##握
##愧
##壩
##榑
##貯
##淋
##蕉
##坦
##訣
##抵
##謂
##蒜
##蔣
##挟
##讎
##衙
##闢
##蓁
##訊
##埒
##竈
##倚
##嶷
##勛
##禺
##困
##骸
##蜻
##蛉
##弧
##沛
##區
##儔
##點
##桟
##歇
##愨
##稈
##祓
##禾
##棺
##娯
##甑
##齮
##錨
##禧
##袁
##硫
##砦
##厘
##茉
##拒
##頚
##曦
##偉
##炅
##璇
##韋
##ʒ
##艪
##Π
##篩
##饅
##姑
##茜
##汎
##寔
##綫
##脹
##哺
##凧
##懺
##悔
##絣
##哭
##惕
##稔
##♀
##♂
##潼
##釉
##週
##琬
##鯛
##喙
##÷
##卅
##ʿ
##汶
##堺
##紮
##瑛
##嘘
##逓
##瘻
##趣
##苴
##錯
##皋
##菰
##鬢
##炫
##諤
##龕
##鐙
##珪
##訥
##ʔ
##Ф
##罷
##樓
##繋
##駝
##衷
##芙
##憚
##稠
##狙
##邳
##腓
##歐
##巒
##檗
##攀
##緝
##慷
##慨
##搾
##彬
##唖
##俘
##煩
##痍
##翅
##仗
##犁
##騙
##鶉
##惇
##蔑
##眷
##嘯
##凉
##凋
##埵
##玲
##峪
##罕
##弇
##恢
##塢
##兇
##僅
##斌
##閼
##繹
##弯
##儲
##囃
##岷
##塡
##諡
##漳
##藁
##鞋
##鑓
##箒
##惹
##雕
##宵
##粗
##悶
##瞻
##籤
##刹
##庠
##汐
##跨
##犀
##惧
##堪
##噴
##輕
##扎
##欄
##庾
##瀟
##飩
##吠
##蚌
##泮
##愷
##歆
##笥
##廿
##广
##哩
##疇
##鎭
##槇
##撤
##礦
##鉛
##丼
##矮
##魴
##冪
##盂
##熈
##懋
##棉
##叭
##嗾
##冏
##芒
##鵠
##郭
##徠
##櫛
##飢
##苧
##涿
##Χ
##絢
##蝿
##咸
##蠢
##邇
##晟
##祠
##琮
##蕨
##荀
##玥
##膿
##濾
##誦
##覲
##抛
##瀝
##癌
##淹
##弔
##鰯
##妬
##秣
##綸
##薀
##琨
##淸
##撥
##杲
##葡
##萄
##鑒
##砺
##靄
##濬
##邠
##瀏
##沅
##縅
##參
##姥
##懃
##苓
##爭
##箍
##頸
##拜
##捐
##羲
##艫
##眙
##茸
##屬
##碇
##惡
##筅
##渦
##褚
##腋
##灼
##珣
##扈
##瓘
##窿
##狛
##琚
##浚
##勗
##梔
##媼
##抽
##鑰
##劔
##雞
##贊
##巷
##騨
##晷
##牲
##憶
##馮
##竺
##欒
##謄
##鵄
##酎
##媯
##拡
##岨
##填
##愈
##隔
##愼
##±
##隨
##瀚
##收
##嫂
##冕
##泠
##苣
##嵌
##凹
##傭
##婉
##埠
##伍
##穢
##舷
##堆
##臈
##蹊
##昉
##慄
##卷
##詐
##燵
##滕
##滇
##棊
##閎
##惰
##裘
##揖
##壹
##橈
##欖
##侮
##垢
##倣
##弑
##紘
##蝠
##椴
##矛
##闐
##乍
##杓
##礪
##穎
##娩
##梟
##辯
##頤
##鑚
##樣
##剱
##誨
##暲
##緘
##襞
##擲
##櫟
##潴
##概
##濛
##窄
##爛
##潘
##轟
##岫
##茲
##咫
##偈
##咨
##漆
##涌
##殯
##廈
##Κ
##輛
##濯
##棣
##魄
##謖
##衝
##裸
##慌
##嫉
##莘
##濂
##徇
##淺
##椛
##Þ
##埤
##砿
##扉
##Ḥ
##頬
##賎
##范
##悴
##凮
##紆
##綰
##噂
##薨
##誰
##幄
##扁
##≪
##傉
##厄
##仿
##姐
##駙
##啖
##鰭
##繩
##魅
##梢
##苾
##蕾
##拼
##晒
##蕎
##甯
##紇
##閻
##斥
##酌
##燼
##顎
##∀
##°
##醗
##蕗
##芮
##叶
##牽
##肪
##婕
##愴
##迥
##鮎
##冢
##呈
##脆
##陋
##瞼
##耐
##Ā
##泪
##祜
##孩
##乂
##麒
##鶚
##荏
##俠
##屡
##鵡
##葎
##▲
##絅
##毗
##萠
##斡
##誇
##玻
##蛍
##贔
##﨟
##巂
##喚
##丑
##刁
##ʾ
##佞
##頗
##寡
##迭
##侃
##鳶
##癡
##鰓
##軫
##籟
##棗
##稟
##膽
##耿
##黃
##毖
##醉
##喇
##擬
##諦
##鞴
##臻
##冲
##頌
##櫨
##輦
##渟
##བ
##騭
##瓢
##漂
##鈿
##乘
##皺
##跌
##坩
##几
##瀉
##噪
##鄲
##酋
##驃
##茄
##熏
##黑
##郛
##脅
##挹
##箚
##崧
##寵
##羆
##汜
##圍
##亟
##鎰
##廂
##沌
##擁
##爬
##溟
##滞
##甌
##霰
##荼
##搗
##詧
##囂
##臍
##墩
##輻
##輳
##蛹
##霆
##瑣
##夭
##箆
##潯
##撮
##埕
##冒
##酛
##諳
##嵯
##粘
##鮪
##璿
##亶
##阯
##拏
##妍
##繫
##♥
##厲
##垓
##炸
##噶
##份
##舊
##繇
##嘲
##厓
##閔
##︎
##Β
##枳
##槙
##焔
##驍
##阮
##鼈
##挑
##东
##阻
##憺
##賠
##蘂
##摯
##嚇
##泌
##俄
##沔
##鬆
##勰
##勺
##琊
##臘
##詭
##莞
##摸
##鐐
##嬴
##憊
##梭
##鹽
##閾
##瑙
##劈
##瑗
##啄
##拂
##踰
##澎
##羚
##歙
##繆
##譙
##牝
##蔡
##鑼
##紬
##膏
##鈷
##貂
##賑
##怜
##鰹
##赦
##陌
##∗
##珈
##隘
##寓
##怯
##洮
##陥
##涓
##虢
##綵
##釐
##蒿
##濫
##媽
##碍
##√
##鮨
##棹
##醴
##礙
##滾
##萍
##薊
##巍
##衒
##煎
##娠
##豁
##叙
##沽
##蛙
##歸
##凌
##桴
##騶
##羣
##蜘
##蛛
##頡
##盱
##驥
##詛
##椚
##☆
##迂
##辿
##拐
##鷗
##憩
##蟷
##■
##卍
##篆
##姆
##雖
##杞
##鋺
##邯
##襖
##隴
##鏝
##麩
##鯰
##觚
##笵
##矯
##剃
##敖
##鄢
##Γ
##溯
##鎔
##菲
##嬰
##頁
##轉
##曠
##团
##昴
##蝸
##廼
##侗
##栞
##拙
##瞬
##馭
##閭
##腑
##繪
##灞
##顒
##霹
##靂
##圳
##菫
##埴
##髙
##♯
##麁
##愾
##逞
##軀
##頽
##懣
##瑳
##靚
##廖
##楞
##菖
##朶
##蓑
##憧
##韮
##蝗
##嘔
##鞨
##涜
##楕
##誂
##珀
##鉗
##筬
##淆
##鏞
##軼
##鎗
##拵
##驟
##笏
##揉
##它
##褄
##劾
##涪
##圜
##臆
##慂
##貉
##倅
##妤
##粤
##銓
##盡
##眸
##獠
##鏤
##呵
##痺
##襷
##鬚
##Đ
##頫
##幀
##邛
##雜
##麵
##貳
##唆
##澧
##雛
##萇
##蚤
##腎
##謔
##悰
##賭
##旃
##冑
##樸
##舅
##柞
##糒
##擾
##兪
##椏
##褸
##恆
##蓄
##徙
##笈
##寳
##刪
##篥
##凪
##艘
##縺
##咒
##愉
##繍
##荃
##戀
##¬
##噛
##沭
##逖
##猩
##緋
##袱
##苛
##燻
##黐
##邱
##飫
##莽
##鄞
##乖
##磔
##欅
##楮
##頊
##閘
##瞑
##龙
##饋
##嫩
##甦
##粂
##誄
##褌
##餓
##畦
##瑋
##驤
##褥
##≦
##拱
##殲
##傾
##髠
##萊
##縻
##匝
##迢
##粹
##襦
##袢
##廆
##謐
##燧
##蜴
##擒
##窈
##湍
##扮
##舂
##鍔
##轤
##邀
##鴦
##逼
##橡
##既
##龐
##僉
##▽
##嗅
##煊
##賚
##詈
##瓠
##隙
##糜
##誣
##轅
##毋
##錘
##瓌
##羹
##糀
##髯
##戔
##儼
##懌
##髏
##灝
##佶
##檸
##拗
##遜
##肖
##鄖
##捗
##藺
##匈
##喫
##琿
##賤
##莚
##澈
##鄴
##彎
##襠
##暈
##碌
##皎
##坎
##杢
##姒
##鉋
##请
##靼
##頠
##厭
##蟄
##晞
##鰻
##−
##撻
##纐
##顥
##挨
##拶
##圉
##彗
##鬨
##焜
##盥
##栁
##鑢
##假
##翕
##鰌
##剝
##俚
##擅
##伷
##鑠
##杼
##捻
##憾
##猗
##伺
##鎧
##鰊
##羡
##鼬
##澍
##窘
##磧
##疽
##癇
##萃
##撓
##酊
##瞿
##憬
##賾
##箴
##諌
##碭
##飄
##闔
##鍍
##閬
##◎
##甄
##癒
##◇
##瘤
##斛
##捏
##瓏
##沾
##襴
##鑲
##勣
##匙
##鴛
##忻
##颪
##蟠
##驪
##岌
##縉
##滁
##錮
##穗
##僖
##崑
##檬
##墜
##鰍
##恣
##吶
##隕
##冽
##羞
##饉
##茱
##暹
##挿
##烽
##醂
##揄
##綽
##顛
##踪
##鯱
##誾
##錚
##淦
##敲
##旌
##衾
##憫
##藹
##洺
##吝
##鯵
##攘
##∇
##綻
##軛
##詡
##癲
##攬
##燿
##恃
##碕
##璜
##偲
##≡
##貊
##炻
##枋
##渫
##歪
##鞜
##訃
##燗
##剖
##ʼ
##佃
##羈
##黴
##陘
##糟
##釵
##蝮
##∧
##濮
##褪
##虻
##煬
##愕
##倪
##裨
##鼐
##碾
##妲
##禱
##苺
##搦
##抉
##櫚
##袂
##覯
##攷
##俶
##淘
##畏
##擇
##悛
##猊
##艱
##槎
##拘
##銛
##鸕
##莒
##鮓
##樗
##譬
##闓
##裴
##雎
##蘚
##奧
##晁
##胚
##肜
##ᆞ
##銚
##遭
##汴
##揶
##孕
##鋤
##忿
##甜
##捧
##錕
##À
##蠍
##厠
##趺
##霽
##驕
##貶
##陞
##坏
##徊
##翎
##閨
##截
##哮
##斟
##ヵ
##湫
##繚
##釦
##頴
##寥
##澠
##稙
##▼
##迴
##汨
##捩
##弛
##鷯
##據
##滬
##牂
##苟
##殆
##貰
##娶
##犍
##燎
##槿
##蠕
##嘏
##刎
##佟
##豈
##姶
##畤
##奘
##劍
##榕
##樾
##喊
##筮
##隸
##栂
##聊
##蒋
##瑕
##价
##蠡
##餞
##雹
##捲
##柾
##瓷
##斃
##穐
##鍇
##掖
##蟇
##惺
##緻
##呻
##椀
##衿
##湟
##魍
##魎
##龗
##炒
##ɴ
##膾
##辜
##撈
##瀋
##綝
##脾
##鹸
##夙
##眩
##謫
##瑈
##諶
##雫
##檎
##樊
##麴
##謎
##晰
##册
##鍮
##蟾
##騖
##ƒ
##玘
##爨
##嗇
##肛
##泄
##聰
##膀
##橇
##郅
##≠
##匁
##瞥
##舺
##屁
##錆
##櫂
##Μ
##闖
##゙
##襤
##晄
##蒡
##淄
##竝
##泛
##潞
##糺
##禊
##筝
##耒
##唹
##逅
##榜
##磬
##萼
##孰
##喘
##蜷
##轆
##撼
##墺
##瀞
##蔬
##珞
##忖
##卬
##焙
##畸
##嗚
##亳
##赭
##邢
##碣
##筍
##贋
##薔
##篁
##嬲
##匱
##楔
##闥
##儷
##燾
##怕
##戡
##蝎
##琲
##呰
##罔
##睢
##闌
##齲
##謳
##棕
##隧
##睫
##胖
##♡
##∅
##籙
##閂
##靑
##楳
##◆
##夛
##蛤
##贇
##⊂
##芾
##蹙
##曁
##藷
##磾
##紊
##麝
##郫
##朧
##佰
##侑
##毯
##龔
##暘
##駟
##贖
##悝
##糾
##瘴
##牁
##獺
##弉
##潅
##擢
##槊
##雒
##鰺
##濞
##絳
##漑
##躾
##宦
##泯
##鱸
##軋
##⊿
##齬
##鰾
##莊
##鏈
##瑰
##趨
##舛
##⊥
##枹
##溌
##覗
##鴇
##螢
##嚼
##冴
##睾
##斫
##丶
##疸
##愿
##篝
##俎
##曖
##蠱
##鸚
##濵
##檻
##潙
##熔
##跏
##胱
##濘
##濊
##訌
##栩
##彿
##痂
##聶
ある
いる
する
19
から
20
こと
##して
として
によ
なっ
その
れる
など
この
201
ない
ため
られ
##ール
200
##リー
日本
##ック
##ター
##ラン
あっ
また
##ット
##ング
10
とい
##スト
よう
まで
もの
あり
##ート
なる
##ュー
という
##ーム
##いて
##って
##ント
18
##ード
これ
##ティ
##ンド
##ョン
##かっ
12
にお
でき
199
おり
##00
11
より
により
それ
##イン
##リア
##ース
##ディ
によって
##リカ
による
##ーク
##ける
現在
##ション
198
プロ
##ップ
##ーズ
しか
アメ
なり
アメリカ
##する
だっ
なかっ
##er
時代
##ージ
アル
##ーン
世界
15
において
197
なく
につ
放送
受け
行わ
られる
17
その後
##イト
に対
東京
について
場合
##える
16
しかし
##バー
大学
多く
##レー
できる
昭和
使用
196
作品
選手
##ンス
研究
##on
##ープ
##リス
##ランド
##ライ
##ラー
キャ
##in
イン
##リン
##める
およ
ファ
活動
##an
映画
当時
存在
194
コン
ジャ
学校
フラン
##レビ
##カー
##イル
13
##ルト
##or
および
14
##しい
番組
##ッド
##大学
195
##ーマ
呼ば
同年
##ンジ
出身
リー
大き
可能
##ニア
代表
行っ
##ar
30
開発
以下
地域
のみ
なお
発売
##en
たち
同じ
発表
クラ
さら
##シュ
フィ
チーム
##れる
##イツ
チャ
取り
年代
##シア
以降
における
##とも
出場
##ナー
テレビ
中心
193
試合
ライ
用い
一部
さらに
平成
いう
##ステ
開始
##ックス
記録
##まっ
##リーズ
25
大会
オー
ニュー
時間
参加
##at
関係
スタ
開催
ディ
フランス
##ーズン
明治
##かけ
登場
##ダー
ドイツ
一般
シーズン
21
##シャ
考え
にて
利用
生ま
##al
所属
##学校
以上
だけ
##オン
音楽
務め
鉄道
##がら
##es
フォ
192
リーグ
監督
##ブル
##ソン
##ナル
##ic
アルバ
必要
イギ
位置
イギリス
多い
シリーズ
国際
##ビュー
ゲーム
知ら
##クト
##ニー
社会
に関
世紀
##レイ
中国
なら
問題
スト
委員
22
##フィ
事業
優勝
かつ
ドラ
卒業
出演
##ロー
24
##ウェ
##ファ
バス
会社
行う
引き
##ッチ
に対して
タイ
##サー
設置
##ウン
##フォ
地方
せる
##まり
##ャー
##ベル
ほか
23
計画
結果
たり
##ウス
持つ
変更
影響
2010
都市
##レス
ウィ
202
サン
アルバム
##めて
##マン
##しく
アイ
一方
うち
##ともに
とともに
いく
##デル
これら
##クター
教育
通り
##フト
中央
グル
政府
##ンター
大阪
ながら
自身
##ヴィ
文化
担当
獲得
最初
アン
そして
##スタ
##わっ
##it
191
設立
生まれ
建設
ジョ
特に
とき
フェ
##ヴァ
##ンバー
女性
2011
スペ
異な
ただ
2009
26
##is
2008
選挙
当初
年間
##ーツ
28
##ーション
機関
情報
2012
2007
##ジア
27
事件
でも
##ジオ
##ンク
とも
同様
##った
##ングル
戦争
及び
##ータ
ジェ
政治
経済
意味
km
##ールド
##衆国
販売
##he
部分
2014
##ぞれ
それぞれ
ブラ
##ネル
##ーロ
ので
##ッカー
##会社
2013
サー
2015
就任
##ンタ
契約
主義
##わり
29
または
デビュー
2006
地区
2016
##ラス
##le
と共
と共に
以外
##キー
攻撃
ステ
発生
構成
##ステム
一つ
ものの
自分
アニ
グループ
技術
2017
コー
##合衆国
アメリカ合衆国
制作
こう
100
かつて
##パー
31
##la
##ころ
高等
決定
##わせ
にかけ
2000
歴史
2018
向け
##上げ
##ルス
株式
果た
2019
ほど
最も
状態
路線
施設
最終
終了
##イド
教授
に関する
シングル
公開
##ーター
##イス
航空
採用
にかけて
##ラム
場所
自動
##ion
##ロン
ウェ
##レン
##ディア
に対する
最後
##リング
しま
高校
製造
始め
2005
アニメ
##メント
ところ
組織
収録
マン
##デン
ブル
人口
##ro
与え
アー
車両
システム
##el
起こ
初めて
全国
##ジェ
##リスト
ただし
##フェ
メンバー
生産
野球
調査
選手権
受賞
ロシア
スポ
入り
実施
##スター
議員
##ートル
目的
##スク
シャ
企業
管理
大きな
機能
高い
マイ
といった
海軍
移籍
全て
##んど
最大
##カル
キャラ
##mp
勝利
190
挙げ
使わ
2020
##ビー
##タリア
京都
そこ
国内
列車
部隊
##シー
50
スター
##がっ
株式会社
##テン
運動
名称
続け
##ッシュ
##たる
リリー
##ou
##ッパ
##エル
ラン
##ケット
##ンガ
##re
ベル
ほと
##日本
ホーム
重要
最高
独立
モデル
発見
構造
含む
ヴァ
人物
ほとんど
道路
ショ
いっ
生活
イタリア
対応
成功
##ょう
活躍
同時
2004
##チャ
センター
通常
##ッツ
シュ
江戸
##ビア
自由
協会
##ンジン
少な
##ザー
チェ
マル
述べ
40
製作
サッカー
ヴィ
戦い
加え
評価
持っ
持ち
リリース
オリ
##as
##ビス
年度
##et
##ol
設計
デザ
ロー
##コン
以前
##il
名前
彼女
特別
基本
指定
科学
##クション
##ンプ
##わる
いわ
設定
編成
クラブ
戦闘
189
##出し
実際
内容
帝国
ドラマ
運営
時期
搭載
予定
様々
##イトル
##付け
出来
##海道
スー
専門
##らか
##アー
よる
結婚
提供
キャラクター
出版
再び
異なる
時点
飛行
連合
人間
000
ヨーロ
##たり
指導
導入
特徴
##am
ここ
新た
##us
小学校
##ンチ
ヨーロッパ
経営
##テル
運行
漫画
指揮
初期
事務
##リック
サイ
ローマ
国家
##リオ
##ac
記念
すべ
2003
##ーナ
対象
交通
認め
死去
連続
大きく
会議
に対し
パー
理由
労働
たい
クロ
すべて
タイトル
廃止
##いは
公式
運転
果たし
##ドル
団体
##アン
作曲
小説
##ピック
##タル
エンジン
英語
教会
共和
コミ
インター
多数
188
##ショ
##かり
##学部
##ing
インド
1990
完全
カー
しまう
人気
##ギー
表記
支援
ダイ
全体
展開
非常
以来
あるいは
入っ
女子
2002
デザイン
のち
##リンピック
彼ら
環境
ユニ
規模
トラ
マー
方法
ラジオ
##om
##ティー
##アル
##ンダ
ジョン
ジュ
周辺
##ュージ
##統領
大統領
ソフト
##ニング
結成
総合
大正
関連
陸軍
はじ
連邦
含ま
2001
同時に
主張
##入れ
187
警察
オースト
サービス
いず
完成
##クス
中学校
##ディング
北海道
レー
国民
##ッグ
引退
大戦
##タン
競技
バンド
由来
形式
支配
基づ
##チェ
共同
カル
ハイ
##えば
行い
バイ
もと
##ミー
##ーカー
ひと
宇宙
アナ
データ
##ch
いずれ
チャン
自ら
ウォ
舞台
建築
プレ
形成
自動車
撮影
オリンピック
変化
その他
##ウム
ほぼ
##まる
言わ
1980
ビル
ライブ
小さ
期間
演奏
整備
スペイン
##ッジ
##000
##セン
フリー
比較
自治
企画
トン
法人
##プリ
どう
##ヨーク
##ヤー
まま
スポーツ
amp
レコ
参照
ニューヨーク
公園
よく
##わら
バー
##けれ
状況
登録
学者
もっ
決勝
輸送
##ンパ
##ヴェ
付け
営業
程度
韓国
ティ
ドル
子供
丁目
表現
##ジャ
伴い
複数
べき
自然
制度
##じる
選出
組み
会長
作戦
##ter
裁判
対戦
新しい
##キング
試験
ミュージ
イベ
##ボール
そう
発展
##ed
行政
cm
報告
##マー
移動
続い
186
##バル
能力
JR
発行
##モン
グラ
レース
人々
プレイ
1999
オープ
経験
ユー
確認
文字
35
区間
美術
##nd
ネット
勝ち
表示
主要
プラ
##なっ
分類
合併
工場
しまっ
##スコ
##ジー
60
男性
1970
打ち
##ウンド
息子
支持
mm
運用
##id
イベント
##ネット
言語
部門
乗り
掲載
付近
以後
FC
##古屋
神社
装置
広島
行動
ブロ
写真
##リエ
なけれ
名古屋
相手
近く
トップ
ヴェ
ぶり
議会
アレ
アク
##ルフ
市立
言葉
スク
拡大
##ルム
はじめ
種類
批判
復帰
南部
強い
成立
ワールド
現代
よれ
産業
プレー
個人
##ation
##サン
平均
社長
スーパー
##os
ファン
1998
翌年
##らし
for
朝鮮
##ラル
方面
地下
##ントン
しば
モン
事故
##キシ
楽曲
反対
of
求め
##ad
入れ
CD
##ワー
合わせ
##プト
##げる
保護
電気
##ur
32
後半
アフ
イス
##ギュ
正式
効果
紹介
立ち
学生
有名
元年
を通
方式
病院
番号
配信
##ot
##ダル
劇場
##ンドン
##ジャー
高速
物語
1997
##ズム
##デュー
王国
民主
##ig
文学
地元
にと
取得
45
率い
##込ん
初代
同じく
政策
追加
ダム
入る
細胞
横浜
編集
作家
福岡
にとって
カリ
ボー
ハー
通信
1996
出し
工事
限定
増加
設け
##ティング
迎え
直接
協力
いくつ
含め
記述
開業
ロック
条件
##込み
司令
製品
ょう
メートル
##ER
示す
シェ
地球
パリ
使っ
##ブルク
##ow
動物
##ent
1995
進出
政権
ごと
カード
市内
##なわ
かか
##込ま
##イズ
ロンドン
成績
かけ
##テレビ
しよ
連載
##トル
The
俳優
St
不明
受ける
博士
カナ
過去
映像
仕事
##シャル
大臣
やす
スコ
例えば
##クロ
##ウェー
雑誌
流れ
##od
将軍
観光
作ら
##ガー
##ネス
エル
候補
アジア
##ッセ
方向
芸術
##せる
ゴール
事実
プロデュー
##ジナル
繰り
空港
テーマ
1994
得点
唯一
##なり
##AN
##シン
装備
NH
##mu
500
途中
レイ
目指
##ウト
00
家族
土地
軍事
取締
選ば
##曜日
1960
主人
##レーション
つつ
##パン
##ジェクト
##ちら
敗れ
1992
にわ
艦隊
競馬
住民
##タイ
オリジナル
王座
バル
明らか
近い
##ストン
研究所
台湾
説明
サイト
統合
市民
各地
系統
新聞
##議院
国立
##BS
誕生
特定
##放送
千葉
少年
36
植物
代目
天皇
女優
示し
銀行
に関して
従来
##ウィ
分野
1993
にあ
北部
##らく
##ールズ
##から
##イント
クラス
フロ
##がる
向か
規定
図書
言う
プログ
配置
##ゆる
残し
##デオ
大型
##んな
##iv
専用
1991
##まま
33
標準
##ーリー
##ッション
拠点
ベース
決め
ベスト
NHK
指摘
アンド
安全
##ーチ
##ルド
国道
##ir
離れ
フレ
##した
被害
もう
条約
事務所
戦後
市場
呼び
派遣
ター
一時
アカ
店舗
建物
1989
つけ
内閣
##ークス
所有
アラ
外国
クレ
業務
オブ
加入
貢献
##がり
80
描か
地上
防衛
本部
務める
##IN
近年
至る
ひとつ
##セス
選択
そのまま
ます
創設
革命
##ec
エン
原因
公演
記載
ギリ
なか
##AR
つい
思い
オープン
紀元
定義
##チュ
取締役
主演
ジャン
##なく
##ay
勢力
法律
ピア
伝統
##リーン
##ピュー
建て
障害
原作
工業
成長
切り
カン
理事
##リティ
系列
発電
電子
##かし
主人公
##ゲン
メーカー
進め
さん
普通
日本語
太平
購入
##mula
語っ
独自
所在
置か
残っ
メイン
すぐ
1988
少なく
実験
48
距離
II
実現
九州
破壊
同社
続く
それら
formula
##ランダ
商品
名誉
スタジオ
##um
##ゴン
##ルク
死亡
スカ
##メージ
ポー
維持
##ag
達成
ライン
レコード
パイ
70
##こう
185
##BC
バージ
精神
反応
作成
##ON
##AS
きっ
米国
くる
行為
理論
##ジュ
ツアー
追い
本社
民族
生物
カナダ
##st
スピ
ホール
1987
##ラリア
セル
入学
宗教
##ガン
フル
統一
##キャ
呼ぶ
比べ
38
直後
イング
要素
描い
住宅
電話
##ウェア
34
##ポート
作業
広く
##リート
カップ
##im
改正
ジョージ
##キュ
海外
##イク
継承
集め
##ウル
制御
減少
##ゅう
愛知
##ロス
中継
いい
##シング
あまり
役割
中華
同盟
##FA
ソ連
トレ
シン
プロジェクト
伝え
付き
キリスト
医療
##合わせ
電車
作り
速度
1986
ルー
##ia
競走
商業
1985
ステージ
紀元前
生き
投票
移転
昇格
報道
##ースト
貴族
記事
参戦
ガン
##なる
##じて
生まれる
神戸
クリス
集団
大学院
県立
書か
沖縄
##ラク
##ut
刊行
見せ
思わ
体制
組合
55
##ピオン
定め
高く
結ぶ
欧州
##ーネ
料理
オランダ
軌道
##ジション
ハン
形態
##ピー
現役
基地
##カップ
##リアム
##奈川
37
図書館
書き
観測
##ワード
古代
歌手
毎年
空間
##em
接続
##un
グラン
面積
##塁打
制限
##レット
ニュース
##たって
グレ
連盟
失敗
行き
the
オーストラリア
新潟
関東
1984
In
300
トラン
違い
要求
##oc
共通
アド
ブランド
機構
メディア
コンピュー
レギュ
終わっ
相当
##ライン
代わり
##ッケ
段階
フラ
1950
自体
##トロ
東北
##シェ
史上
指す
神奈川
##イア
です
太平洋
収め
首都
処理
始まっ
##ネルギー
##ブリ
90
スケ
改革
##ap
##スタン
原子
資料
基準
提案
##ュニ
Ch
2021
##VD
##AT
自治体
得る
ギャ
兄弟
上げ
##替え
ヒット
隣接
トリ
なさ
博物
継続
化学
イングランド
向上
皇帝
しばし
##合い
ユダ
トゥ
##and
太陽
おら
バラ
##ミア
指名
首相
日本人
起き
##しくは
男子
42
##ルー
限り
改造
到着
ポイント
タイプ
kg
##スティ
スタート
復活
解散
1983
分離
##返し
停止
タイム
予選
内部
1945
##メン
脚本
責任
アフリカ
展示
農業
食べ
メジャー
帰国
交換
ポジション
禁止
判断
基礎
通称
リン
幕府
レギュラー
単位
立て
フィリ
エネルギー
しばしば
ウィリアム
コース
投手
関西
##エン
訓練
前後
強化
##クラ
##ファー
1982
DVD
ヶ月
184
41
##ニュー
##ずか
##ガル
ユダヤ
##OR
本塁打
父親
番目
無い
そこで
チャンピオン
宣言
仕様
任命
分か
経由
コロ
##バイ
##つけ
当選
レベル
まだ
開幕
生徒
用いる
主催
デジ
1972
見る
##ub
近代
静岡
安定
##出す
ドライ
あれ
クリ
会員
##トラ
治療
ブリ
##ルコ
詳細
##ディー
長い
ビデオ
きっかけ
##ul
を通じて
つな
命令
向かっ
対立
44
備え
強く
##とめ
ポーランド
延長
建造
書い
少ない
パラ
交流
ミュージック
対策
イメージ
ゅう
##ハイ
更に
著作
1979
##フォル
##プロ
上記
富士
39
防御
本名
##ダム
セント
注目
もしくは
ガス
地名
博物館
機械
地震
ユニット
コーナー
1975
みな
##ッサ
困難
オス
ファイ
##ショナル
傾向
##太郎
##メラ
西部
通過
分け
ちな
属する
プリ
キー
不可
週間
1981
埼玉
##トリック
##バート
マーク
領域
##ナム
起用
さま
自己
わずか
長野
前年
##ンサー
43
##ーニ
登板
##ワーク
プログラム
動き
既に
落ち
保存
有する
供給
置く
憲法
推進
オール
読み
コンサ
郵便
言い
操作
ホテル
##続き
1973
発足
1978
意見
進学
##ri
IC
機体
##ルツ
感染
連絡
確保
入団
ちゃ
##ンズ
##ッフ
衆議院
判定
特殊
逮捕
改称
小さな
使う
起こし
資金
##ST
師団
##メートル
駆逐
後期
こうした
占領
学会
おお
モー
バック
兵庫
言っ
後継
度目
1976
比較的
つく
学科
貨物
##NA
周年
始める
本来
##らい
開設
市長
ライト
ルート
シーン
##ーフ
本人
南北
長官
任務
陸上
##ra
福島
異なり
計算
1974
1971
共産
CM
全日本
範囲
ブラジ
執筆
普及
学部
183
訪れ
声優
勤務
スパ
180
大陸
1968
作用
山口
フジ
##トン
天文
1969
東部
##ルン
地位
プロデューサー
更新
戻っ
ノー
##og
部長
コンピュータ
##立て
長崎
##ard
か月
いわゆる
##op
##ミング
46
エレ
##ニック
取引
##ビン
わけ
マク
##フォルニア
キロ
交渉
コード
もた
車体
命名
部屋
先発
負け
##込む
機器
##IC
##ツィ
現れ
中学
家庭
すれ
演じ
ヴォ
応じ
実行
長男
オペ
75
##トゥ
置き
##ッカ
##マス
小型
挑戦
1977
##BA
目標
カリフォルニア
アカデ
検討
##ハン
制定
オーストリア
トロ
中止
結ん
演出
概念
仙台
##ヴォ
移行
全く
物質
認定
交差
鹿児
思想
鹿児島
デジタル
改良
年生
機会
まず
コミュニ
球団
危険
感じ
インターネット
##切り
価格
エド
##掛け
殺害
バージョン
マイル
周囲
どの
振り
号線
再開
1000
合計
だが
分布
推定
課程
民間
作っ
後述
51
インタ
##ッキ
##AM
ソロ
##共和
ランキング
立場
47
フォン
1964
##共和国
消費
たら
期待
統治
資格
大量
少女
FI
##ざま
文書
名乗
##ers
進ん
売り
400
歴任
奈良
物理
向かう
好き
解説
in
ピアノ
岡山
まし
##ダン
##ミン
ストーリー
##OS
1967
ブラジル
##ベルク
##キシコ
##ーラ
使い
視聴
権利
アップ
スタイル
裁判所
在籍
すなわ
すなわち
イスラ
性能
##ケーション
52
市街
方針
前述
回転
東日本
##おり
撤退
アマ
準備
植民
目指し
##ライナ
温泉
##ak
戦車
哲学
意識
ずつ
残り
始まり
エア
結合
施行
プレイヤー
ビジ
##でも
54
連隊
本格
##ロット
設備
##レント
なし
##ce
##ティスト
パン
適用
デュ
加盟
属し
##EC
アイドル
##ニス
藩主
公立
前作
通算
ロード
ゲスト
一定
公共
##AC
プロレス
##ビエ
オン
率いる
##ov
フォー
児童
区別
対抗
トラック
今日
##イルランド
低い
アカデミー
マネ
##th
ルイ
##ゼル
弁護
分割
諸島
##アップ
引き継
停車
1965
##カン
出会
生じ
##ie
ダウン
##ウンサー
許可
##ストラ
スウェー
命じ
行く
65
スタッフ
かなり
定期
やすい
##ッキー
スコット
除く
ダイヤ
スウェーデン
友人
##づけ
結局
入社
##ザン
世代
押し
ヘン
##でに
熊本
練習
東海
アナウンサー
与える
表明
##ルタ
エリア
ミニ
##かい
良い
単独
ニコ
徳川
出力
1966
##ind
アト
試み
改善
すでに
1940
岐阜
亡く
1944
合流
学園
管轄
##イルス
長期
扱い
##OM
ほう
札幌
さまざま
ワン
分析
大きい
181
全員
##サス
日間
伴う
あら
ブレー
潜水
##出さ
##av
階級
前半
セット
パート
平和
遺伝
##メダル
理解
提出
多かっ
認識
##ab
編入
##人民
果たす
地点
略称
背景
##グラ
区域
キング
##さん
##レンジ
作る
呼称
進行
出来る
ペン
##がて
カール
やがて
デイ
##ラスト
伝説
持た
乗車
##ーンズ
いち
沿い
発言
##ボン
表す
##ノー
##ジアム
##かる
ジュニア
収容
結び
議論
固定
組み合わせ
解決
一覧
##換え
主題
解放
回復
1930
とり
アリ
##チン
メキシコ
##ドリ
##ブラ
論文
武器
香港
回戦
大使
##らす
形状
ミサ
##新聞
##スカ
処分
旅行
古い
国鉄
大半
だろ
エピ
低下
直前
取っ
##ピン
##ine
182
拡張
大幅
1963
##EN
##ジン
##IS
グリ
PC
鎌倉
過ぎ
##eb
相互
仲間
依頼
否定
講師
58
古墳
基づい
64
53
増え
始まる
##ミュ
保険
燃料
##バス
コーチ
承認
開通
空軍
##人民共和国
諸国
積極
会場
集落
不足
芸能
シー
崩壊
貿易
##ペン
インディア
上位
画家
##やか
シティ
拒否
移住
阪神
遺跡
人民
医師
1962
検査
無く
秋田
手法
信号
TBS
##シャン
民主党
新設
フランク
##ッピ
審査
健康
##AL
##ッハ
判決
録音
カトリック
出る
規制
アイルランド
生息
あたる
本拠
ワシ
調整
基づく
毎日
原則
歩兵
買収
北西
現象
電力
披露
医学
海岸
表面
かかわら
外交
金融
ポルト
ヒト
負傷
ブラック
侵攻
支払
##ill
衛星
翻訳
惑星
エリ
母親
価値
US
初頭
エジ
##est
レッド
元々
カメラ
カラー
執行
アーティスト
証明
前身
コム
##ーブ
打率
トンネル
工学
有効
##ct
巨大
至っ
##ノン
修道
##アイ
すぎ
次第
オル
記者
ネットワーク
56
1941
モード
1947
発射
ラテン
TV
ベルリン
##鉄道
ごろ
##バン
テキ
愛称
戦略
##ist
各種
de
##ケル
南西
つまり
1943
金属
1961
バン
リング
王者
キャン
新人
県内
##ロール
コンビ
ソフトウェア
リア
ポール
犯罪
どちら
必ず
生成
反乱
ボール
1942
達し
現地
ナイ
チャート
有し
ショー
学ん
投げ
ハード
投資
##ない
##とう
抵抗
伊勢
##ゼン
##組み
確立
変え
##AP
GP
##グル
高度
性格
サラ
アレク
##サル
朝日
コント
##ッテ
過ご
ヘル
49
62
かい
##ティン
患者
##ンタル
ソビエ
英国
過程
179
シンガ
求める
TO
危機
##ティブ
名義
##ティア
各国
##衛隊
ケース
航空機
##もの
カラ
ノル
ソビエト
従事
##ip
モスク
北東
ブルー
にあたる
##シック
開か
##ーブル
呼ん
置い
全米
1946
集合
注意
##テナ
1948
150
にわたって
コンサート
記さ
合成
作詞
田中
多様
ギター
##オフ
鈴木
けん
とっ
統計
Al
##ゼルス
合格
事態
##ラント
1959
##ティック
##セル
ワシントン
ワールドカップ
広告
サポート
##リアン
せい
57
1958
##くり
##デス
巻き
1949
残さ
1920
河川
居住
終わり
優れ
AT
称し
中間
東西
関数
同日
中世
ばかり
だい
十分
エイ
連れ
ブロック
グリーン
ダン
##シュタ
送り
ギリシャ
コレ
##ゴル
##ob
ルール
古く
##工業
やや
通っ
限ら
超える
消滅
##ビル
考える
フジテレビ
知っ
アシ
##調査
ウイルス
1955
ハンガ
話し
1956
長く
政党
創業
終え
教え
軍人
兵士
##ess
死後
見つ
マリ
##シス
発達
分子
##ゲーム
エジプト
収入
和歌
もら
手が
##FC
寺院
ちゃん
タン
##ブン
##フレ
用意
##ナイ
インタビュー
上昇
##ヌス
集中
##イヤ
リスト
ST
平方
もつ
地帯
満た
##ソード
##起こ
チャンネル
一緒
投入
財団
##マーク
##ジョン
61
宮城
国勢
##ども
小学
##AD
カバー
信仰
閉鎖
イオン
強制
##トリ
失っ
国王
スマ
トレー
##ターン
##天皇
ダンス
議長
世帯
ラグ
分の
用語
知識
##シップ
残る
グランプリ
国勢調査
改名
たと
クー
富山
まとめ
飛び
You
起こっ
キャリア
西側
初回
イラスト
##チュア
##取り
留学
現場
協議
空気
スイス
初め
##igh
末期
実業
昇進
遺産
名付け
常に
1952
見える
左右
青年
ブレ
##シャー
ランド
##ik
##民国
判明
学習
##ice
自転
##いに
##リコ
##ハー
希望
178
保有
あげ
##キン
旅客
走行
海上
テスト
傘下
続ける
藤原
守備
年齢
##ッター
に際
護衛
教師
1954
##リーム
##ッコ
##VE
食品
解釈
##イング
63
国境
様子
動画
再建
超え
思っ
輸入
##パス
ミサイル
##ながら
画面
知事
スペース
無料
体育
神経
財政
弁護士
機動
##HE
栽培
ジャパン
中部
##ell
ころ
##ーリ
再生
##トナム
##ーマン
サウンド
ひろ
身長
シャー
国会
送っ
エピソード
コマ
and
An
レス
##50
サイズ
吸収
アス
むら
同士
##ッタ
育成
要請
特急
予備
ハンガリー
具体
規格
##ボー
衝突
一族
業界
両方
中村
##キア
アプリ
##務省
ロサン
1953
楽し
取り上げ
仏教
毎週
受け入れ
ポルトガル
いき
協定
義務
1957
ロサンゼルス
沿岸
美術館
三菱
アウ
中華人民共和国
タレント
北京
SP
##距離
石川
下記
境界
##ok
争い
スペシャル
##ウェイ
個体
##ランス
##ポン
臨時
##レーター
あと
血液
引き続き
流行
サブ
##たっ
1939
手段
べく
合意
本線
上映
街道
IS
しまい
ソング
##ニュ
指示
兵器
携帯
サイド
##ワイト
共演
共に
1951
ページ
ダブル
ロボ
構想
##レート
捜査
悪化
##リーグ
オフ
申し
タウン
##ワイ
に従
職員
装甲
自宅
深夜
戦隊
話題
ビジネス
##チュー
##イオ
ユーザー
数学
##リュー
側面
コル
およそ
ドラフト
##ud
ベン
現実
##フォード
##モンド
有力
渡り
オート
Re
##もって
同一
ウェブ
##レル
ハリ
パス
資本
吉田
デン
放射
##がっこう
改修
南東
東京大学
Co
佐藤
フィン
地下鉄
箇所
そのもの
活用
##せん
知り
次第に
59
st
出現
##ベルト
##ントリー
オーディ
保守
あたり
業者
600
出さ
いか
##チャー
標高
類似
複雑
将来
二つ
##レッジ
正確
明確
トルコ
歌詞
動作
##プス
##ows
アム
こそ
爆発
テロ
Mar
興行
フライ
上陸
おこ
伸び
最多
現存
落と
##if
##ナン
構築
大分
マリア
##戦争
差し
続き
出す
分かれ
##ウント
レーベル
川崎
様式
ちょう
大和
子会社
売却
##ET
72
徐々
流れる
##リーナ
訪問
両者
授与
1937
徐々に
アクセス
しん
をもって
##ダクション
繰り返し
演劇
重ね
を通して
ヒュー
ファミ
進む
##ームズ
著名
数多
短期
かも
オペラ
チョ
徳島
177
交差点
興味
##コー
##ant
容易
武装
早く
Wind
転換
創立
即位
逃げ
翌日
区分
著書
武蔵
シカ
新宿
もっとも
##ルズ
離脱
不安
人員
規則
文庫
代理
##動車
文化財
ウク
若い
800
メモ
うえ
輸出
ディー
ドゥ
姉妹
##フル
モスクワ
イエ
やり
保持
自転車
##クソン
働き
締結
プレミア
とど
なん
渡っ
遠征
パーソ
Ar
ボク
シル
1936
古典
性質
公表
実質
主力
場面
一種
ミュ
##ジット
##セント
新型
ヘッド
混乱
パーク
##ne
盛ん
駅舎
##サイ
描く
ロバート
活性
心理
1938
##リウス
いつ
ファイル
免許
プライ
タンパ
ドア
##ID
弟子
##ピア
ホワイト
##チス
身体
改め
クライ
##立つ
やっ
付属
出走
殺人
##ッズ
遅れ
いえ
##ブレ
ベトナム
ダー
レコー
項目
割り
重量
とう
県道
少し
共産党
オーバー
アクション
補助
##ミニ
関与
一番
##たい
両親
##もなく
創刊
事情
趣味
あい
##けん
ギリシア
おか
##ge
観客
ヤマ
当たり
とおり
##ログ
三重
##ES
起源
マシン
かん
目指す
ロケット
重視
アメリカン
モンゴル
イスラエル
De
##議会
スロ
予算
はず
よい
予想
扱う
人類
住ん
極めて
青森
りつ
修正
交響
##セプト
遺伝子
評論
不可能
所在地
マラ
コメ
急行
戦死
敷地
##IT
費用
半島
学び
120
モノ
北側
th
シナ
在学
ゆう
書籍
テン
しかしながら
##優秀
ウクライナ
クル
そんな
文献
依存
最優秀
山形
スプ
軍団
移り
考慮
##コール
休止
ラー
歴代
コンク
テク
山本
##シル
スティー
参謀
関心
ヘンリー
測定
##ウォ
じゃ
##all
次元
体験
76
スコットランド
出馬
不動
大賞
週刊
まつ
##ive
コロン
##up
##フォーマ
見え
フィリピン
メル
完了
一軍
##ヴァー
戦国
解体
魔法
刑事
##稲田
襲撃
故障
ジェイ
称さ
Windows
午後
変換
専攻
描写
パワー
本拠地
Pro
生命
茨城
ブレーキ
主体
##フス
FM
敗北
広場
天正
伯爵
シリア
体重
顧問
手紙
##エスト
無線
##取っ
##幹線
進化
##ue
コムーネ
買い
模様
早稲田
局長
##レンス
消防
記し
半ば
東側
##ンスター
##io
戦線
##立っ
##クトル
掛け
絵画
こちら
プロデュース
松本
信頼
##フィア
先行
爆撃
くれ
1933
ミス
##ran
記憶
包囲
##テイン
伊藤
THE
批評
気候
次い
##ドゥ
未来
言及
占め
権力
知る
半分
措置
Sh
山田
160
もとも
スタジアム
もともと
除い
幅広
宮崎
単行
人工
天然
異なっ
アニメーション
##ンバ
利益
##ーバー
せん
##ミナル
PS
##ニン
まさ
##帝国
バレー
フィルム
西日本
象徴
エス
短い
戦艦
##入り
たく
子孫
一致
##スタント
北朝
マス
奴隷
アント
アッ
効率
SS
カタ
取材
称号
ポリ
生み
家臣
##チェンジ
##やし
住む
数多く
アウト
発着
当て
スキー
小田
ベイ
神話
##ミス
料金
1932
示さ
午前
##アジア
中期
警備
##デー
##チョ
Ne
##ort
進み
継い
##UR
ボス
平安
イー
高橋
##ヴァン
司会
再度
養子
コメント
得意
68
生涯
マグ
##ーナメント
滞在
テレ
劇団
よし
##サイト
修了
画像
##ベット
ナポ
単に
大字
祖父
ペル
守る
交代
引き起こ
公認
追放
沿っ
バレ
姿勢
gt
決まっ
コミック
1935
1934
81
変わっ
77
ポート
秘密
コミュニティ
##プレイ
東洋
レオ
防止
##AA
激しい
単純
ノース
##センス
太郎
外部
電動
証拠
ムー
温度
FIFA
助け
楽器
市街地
レコーディング
フェル
リーダー
##バンド
##art
74
福井
提携
守護
連結
99
たとえば
定着
深い
総督
フィールド
##リズム
しばらく
意図
ドラゴン
71
フォード
##ate
ジャンル
全長
東映
推薦
パル
生じる
##フィス
小さい
キュー
抑え
170
報じ
下部
##決勝
準決勝
メン
分解
##候補
申請
88
夫人
##OC
打撃
85
連携
グロー
差別
自衛隊
パイロット
シカゴ
聞い
##オス
改札
66
73
##バーグ
加工
ロング
経緯
出発
資源
兼ね
放映
タンパク
Sp
上部
##ニャ
清水
訴訟
復興
譲渡
##ルター
過ごし
##ルトン
打点
上海
次男
ジャズ
lt
1928
緊急
ジャック
選抜
プロダクション
下り
立候補
相続
恐れ
戻り
学ぶ
操縦
ゴルフ
武田
クロス
取り入れ
手術
BS
機種
86
イスラム
退団
ウィーン
数字
##カス
##ity
##ハウス
男女
##ian
議席
176
双方
ロボット
##フィック
次いで
辞任
病気
##エティ
違反
##ss
##フォーム
フランス語
伴っ
住居
格闘
乗っ
酸化
職業
攻め
聖書
##テム
1929
整理
負担
南側
同期
##っと
した
四国
##モア
コスト
Le
大将
95
ブラン
戦士
印刷
##OL
暮らし
地理
音声
援助
エク
ベルギー
1931
##半島
スクール
許さ
流通
Un
ボル
78
##ord
##ライト
サル
暗殺
##チア
人生
Th
帰還
メイ
需要
任じ
##ワン
材料
##かん
##衛門
分岐
トーナメント
##ブス
##ッス
ヤン
あろ
突き
日本テレビ
福祉
接触
ビッグ
しょ
合同
降伏
小林
ソウル
一環
##ry
商店
自社
バスケット
ジェームズ
メッセ
開い
ちなみ
確定
既存
ガー
優先
盛り
チュー
西武
##イロ
長年
##タウン
誘導
移民
ハウス
戻る
暴力
チャールズ
停留
大手
##民党
デモ
柔道
新規
ラグビー
デンマーク
グランド
群馬
騎士
かかる
##ッピング
失わ
一連
##ヘン
コンセプト
98
つき
##テッド
功績
##ich
来日
在住
到達
後方
##ノス
部品
##サンド
さい
当主
##ンチン
SF
作者
基づき
##ph
取る
退職
リス
転じ
発掘
シア
タンパク質
ロス
マイクロ
書記
##our
教皇
トーク
ファッション
災害
起こる
##ib
スキ
発揮
プラン
##ージェ
上演
##次郎
領土
収集
リード
##フィー
コピー
以内
最近
案内
一切
##クタ
訴え
加藤
ホイ
##かさ
1924
現れる
次々
##ウッド
##KO
強力
相談
通行
ビット
幹部
学術
##テインメント
##ミネ
順位
##マイ
戦時
同月
蒸気
##OW
に際して
家督
リチャ
推測
##ED
働い
線路
##しょ
ランク
安打
上回
占める
どこ
1927
子ども
ケン
##パート
提唱
酵素
国防
最低
ガラス
少将
保障
急速
##フェン
郊外
マスター
ブラウン
連覇
北朝鮮
勃発
アミ
投稿
問わ
屋根
脱出
ユーロ
入手
近郊
駅前
見解
後者
パーソナ
スケート
##ベス
司法
巨人
当該
##びに
ヒロ
##持ち
1923
##学院
##ドラ
##銀行
監視
イラン
印象
##ばし
抗議
振興
ミュージシャン
ハンド
国土
少なくとも
複合
##クル
ワイン
1925
伝承
修道院
直線
答え
インディアン
マイケル
カット
ユース
演技
ストリート
ナショナル
石油
テキサス
一家
##ight
少数
平日
インチ
##ロード
症状
自殺
代わっ
想定
##ドルフ
ディレ
早稲田大学
##ポール
原題
##te
組ん
資産
通る
相次
主導
チェコ
和歌山
共有
##朝日
台車
##ネシア
区画
##ートン
##US
ドン
解析
女王
ほん
渋谷
前期
ディズ
ポスト
トヨ
##民主
掲げ
越え
##ホール
促進
コラ
171
アート
代替
オープニング
アブ
取り扱
文学部
絶対
##リット
##テスト
支部
##ジョ
師事
158
ウル
175
又は
亡くなっ
MS
加わっ
のに
士官
トム
マイナー
ハル
敗退
審議
1918
該当
立っ
任意
山脈
82
モーター
大名
財産
##ドン
##lay
##カード
##越し
優秀
いえる
にく
死ん
##本線
エンディング
ウィル
期限
700
一帯
ポンド
観察
##教授
大隊
1919
雇用
アマチュア
着用
タッグ
##ステル
今後
シート
脱退
栃木
クラシック
参議院
##IM
池田
体系
月末
火災
修理
あき
ナイト
記号
とる
ジョー
スポンサー
エンター
アイテム
パフォーマ
八幡
##イセン
##アフ
終戦
##ガス
クイ
撤去
配備
井上
##らえ
並行
仕え
繁殖
損害
OS
PR
実績
##直し
##ツェ
吹き
次ぐ
往復
良く
Bl
アイス
処刑
##ットボール
トランス
ジャンプ
##se
AC
まち
助教授
きょう
事例
キリスト教
付い
山梨
UE
社名
もち
キン
方言
マレー
喫し
ポル
1926
後任
終わる
##end
トレード
91
国外
ロゴ
##ニスト
##ect
手がけ
捕虜
スイ
王朝
96
ウルト
破り
ローカル
広い
ボーカル
ライセンス
フィンランド
上下
慶長
シュー
攻略
王子
岩手
うる
佐賀
分裂
67
船団
侵入
250
渡辺
Am
戦前
バスケットボール
##ナルド
競争
##フラン
出来事
診断
##分け
先端
解消
せよ
約束
あらゆる
出席
ソー
1922
ホー
総称
##イラー
殺し
##洋艦
巡洋艦
駆動
用途
気象
主流
やって
言え
挙げる
相撲
日常
##イナー
コンス
行なっ
##ウルス
92
原子力
試作
独特
##ージュ
根拠
AV
続編
##震災
フリ
##PG
固有
サム
深く
##pp
168
上野
移っ
リチャード
##ティス
ML
爆弾
近隣
宣伝
リュ
当局
##UN
##ーレ
##プラ
##やく
メール
中山
アルゼ
送ら
証言
竣工
通う
##セット
さえ
経路
もし
ネタ
軍隊
行なわ
開拓
西洋
学院
魚雷
言える
ヒル
##ッセル
5000
##スラ
学区
例外
トヨタ
題材
及ぶ
高知
手掛け
直通
異常
要因
オスマン
跡地
短編
##ージー
座席
足利
死刑
除き
簡単
##まら
相対
プラス
##エフ
騎兵
特性
台風
UEFA
成果
非難
はる
##one
デル
##わし
プロイセン
##システム
見な
Go
損傷
指し
メッセージ
黄色
クリア
SC
##ert
##ろし
##ソー
##ストロ
リンク
ざる
ドライバー
圧力
モチ
たび
ジャケット
1921
授業
都道
離婚
大佐
決意
##ッティ
ノルウェー
取り組
アルゼンチン
##ff
示唆
水素
セレ
証券
戦う
##もり
再編
おそ
ウルトラ
月刊
##ドロ
##しろ
##ボル
別名
選定
連勝
解除
マッチ
ホル
157
圧倒
ハワイ
全域
無かっ
ディズニー
地形
走る
入力
##II
させ
提示
それでも
83
自民党
##ライズ
図る
##AG
銀河
シャル
プラット
高級
発明
##ンパス
犠牲
##てる
享年
パフォーマンス
こうして
カレッジ
161
上流
実用
退任
84
センチ
戦力
応援
再現
エース
三振
##ain
打ち上げ
174
世界中
権限
附属
北条
詩人
金沢
##ネマ
ボード
信じ
評し
流域
森林
##シティ
フィリップ
キャッチ
募集
オンライン
##レース
ミッド
射撃
扱わ
マスコ
紛争
クレジット
球場
159
基盤
委託
スラ
3000
172
##として
##チャン
折り
端末
ボタン
質量
海洋
聖堂
全面
##っき
寄せ
一員
明る
漢字
聞き
教員
コンパ
ソニー
したが
パートナー
課題
本土
1914
87
アレクサンド
SH
降格
ジム
ロン
ところが
1917
取り付け
文明
疾患
派生
##ハム
先頭
特許
##アス
エディ
頭部
110
応用
って
##ンジャ
違う
GT
食べる
突然
突破
経過
戦っ
不詳
北米
##ケン
会見
##メル
FA
社員
男爵
ちなみに
トライ
オーディション
##シスコ
##リダ
##az
中将
難しい
幼少
市町
ミリ
商人
テレビ朝日
##ft
ドキュ
かた
並ん
##自動車
##ストラン
打者
NP
接近
本体
##一郎
CP
##イラ
1912
ミッション
##須賀
##WA
意思
運航
検出
不満
君主
コス
存続
##ah
サウス
ピエ
人種
成分
##RE
ついに
私立
コレクション
スピード
上り
有限
##府県
前方
実装
埋め
反発
埋葬
##違い
空母
キャンパス
69
Con
遺体
クリー
空襲
防ぐ
建立
反映
当日
事前
##ウェル
リニュー
01
##ナス
表し
マネージ
しれ
ジャー
止め
町名
1900
##ver
現行
表彰
したがって
回数
駐車
売上
感情
移管
にわたり
ワイド
ヴェル
当たる
苦し
ラム
移し
93
##マル
1910
##受け
伝える
出資
武将
署名
リニューアル
歌っ
##バラ
向かい
ゴールド
ピーター
##ブロ
セルビア
97
関わっ
##合っ
164
NT
官僚
173
##プル
史料
火山
##ツァ
同名
発音
航海
数々
ワー
織田
文部
##ノール
秀吉
バラエティ
ファンタ
調べ
##ーマー
##規模
パソ
IB
ファミリー
パターン
宝塚
広がっ
##ボード
参考
アラブ
無人
##ッケージ
パーソナリティ
ボン
亡命
ディスク
ごく
##くま
プリン
##アフリカ
めぐ
制し
ブライ
未満
##プター
ちなん
一貫
怪我
メロ
##FL
##ロジー
AS
トー
モル
接し
マガ
コロナ
殺さ
敗戦
ヤング
触れ
評議
##bo
一旦
終結
厚生
送信
支え
##クセン
##IL
156
低く
##ゲル
次に
モチーフ
愛媛
ポップ
乗客
家康
##ンジェ
フロント
若手
厳しい
読売
##リル
放棄
旅団
ライフ
密度
マルチ
アダ
166
ボディ
北方
寄り
最新
校舎
イラク
要塞
BO
信長
語り
人形
けい
鳥取
削減
疑問
NE
##クシー
塗装
夜間
主題歌
破っ
請求
##ang
屋敷
借り
##ネーム
インターチェンジ
一体
フリードリ
キャンプ
素材
バンク
ヴィル
##oh
##シュタイン
新幹線
ロイヤ
避難
##オー
入れる
本編
演じる
##レオン
選ん
ゴールデン
農民
制覇
##文字
晩年
バイパス
##アリー
169
コンテン
割合
来る
##チル
162
ウェスト
もたらし
オプ
小さく
89
スミス
やすく
冒険
オーケ
##ジュール
おそらく
暫定
##なう
創作
グロ
##カロ
エリザ
##ハイム
回避
##タイム
余儀
自主
天体
##どり
ケーブル
ファースト
大人
ラウンド
王位
周波
ヤード
落とし
出土
ディレクター
合唱
##ベン
この間
向き
##ase
レストラン
振る
##惑星
小惑星
##モーション
にあたり
KO
養成
コート
79
プロセス
En
課長
##ミック
101
ともに
教室
##イレ
食事
ベー
Be
ゼロ
造船
教徒
転向
##ライダー
##しも
受験
読者
がん
ルイス
売り上げ
粒子
ボストン
シナリオ
仮面
接する
##ッシ
補給
観点
かかっ
##IR
松平
関わら
関わる
頻繁
163
##ーナス
人数
若者
高松
地中
パッケージ
リオ
正規
気温
満州
コア
大西
飼育
従業
架空
浴び
短縮
陥落
初演
##EL
ゲート
図っ
リスク
祭り
##ベニア
パソコン
シンガポール
競輪
放出
##ore
##アウト
余儀なく
大韓
##んじ
甲板
バトル
アプリケーション
思う
滋賀
甲子
不動産
十字
##ベース
船舶
宮殿
認知
前提
##ld
##ネー
奏者
縮小
故郷
法学部
鉱山
ないし
受け継
抱え
通じ
彫刻
アトラン
岡田
##uc
役員
エドワード
スマート
高齢
トレーニング
1911
近鉄
1913
勲章
すら
バイエル
移植
のり
プロテ
三角
##ドリー
##ドイツ
取ら
悪い
##ION
探し
##ジーランド
##サウルス
Play
修士
室町
ウェイ
165
ニュージーランド
描き
日記
つける
##シリーズ
音源
##下げ
たる
##プレ
抜け
装飾
化合
終盤
##IG
都道府県
配給
いけ
フリードリヒ
##ast
130
SU
ターミナル
III
上院
回収
##メンタ
助手
装着
部族
インディ
先駆
インス
ハート
ナチス
##キスタン
ナンバー
##立ち
##止め
コラボ
欧米
予測
##つい
強調
校長
いた
働く
併せ
大気
号機
管区
##テーション
本当
ライバル
成り
出会い
黒人
##入れる
オフィス
担っ
排除
地図
カテ
小規模
白い
逆転
コール
落語
国連
レーダー
タンク
意向
マサ
##ナショナル
編曲
MC
94
千代
モンスター
後ろ
集まっ
琉球
##かす
レン
##ube
テニス
##ゾン
学位
たま
開館
スタン
レンタル
ジャーナ
司馬
ませ
エレクト
##ug
ラス
##ハウ
動員
##コーチ
##リム
##ヨン
##らさ
ヴァイオ
勧め
##ーマス
総務
MLB
Te
迎える
##ミル
フロリダ
焼き
香川
##ide
別に
##カイ
太平洋戦争
セイ
瀬戸
おも
デー
おく
1915
あくま
数え
ドライブ
##レム
ねん
若干
市町村
夫婦
##IP
##GM
恋愛
バレエ
作中
豊富
##なた
##sh
英雄
##OT
ドラム
ミュージカル
引っ
167
確率
てん
積み
赤い
ようやく
うま
メダル
##モデル
飾っ
##当て
##ire
ニッ
ヨー
艦長
スル
##ure
会計
航路
イェ
平野
賞金
説得
フィギュ
ブーム
##ヒー
下し
業績
インドネシア
起こす
アテ
He
さく
##ペーン
上京
学名
##man
ステーション
とら
宮廷
時計
東方
DNA
失点
逃れ
ピン
騎手
##NS
その間
フー
下院
キロメートル
甲子園
セミ
栄養
起こり
含ん
ミシ
国有
位置づけ
ヒー
決議
ヴァン
##リヒ
中華民国
cc
##ウィン
とく
ラテン語
決める
YouT
電波
駆け
回路
メトロ
行事
##知事
乾燥
支店
海戦
バレーボール
ラブ
中断
楽団
AM
周波数
当地
##ix
##々木
衝撃
##テス
に従って
態度
サンタ
天保
ヒトラー
リト
述べる
編纂
##コス
土曜
登山
美しい
白人
避け
##バック
カイ
オーク
中日
酸素
ケイ
考案
太田
量産
##wit
配属
宇都
混合
変動
引用
ノン
TR
##アニア
濃度
山地
原理
墓地
##ラノ
##qu
周り
衛生
ローマ帝国
大公
起点
近畿
風景
適切
毛利
ファイナル
運賃
ゆき
##メイト
廃車
ポン
数値
オーケストラ
ゲル
フィギュア
##らかの
直径
スリー
送る
ボクシング
##ミネート
受信
##はり
ジェット
##ージャ
こく
ブレイ
ふく
ナポレオン
CS
囲ま
征服
コンテンツ
ガル
キャスト
独占
総理
Se
招待
築い
##エー
マニ
工作
芸人
研修
創造
Ex
入賞
##ies
バイエルン
1908
フレーム
ベンチ
##ールス
アルファ
領主
やはり
生存
論理
豊か
いま
融合
むしろ
ニュ
##まえ
落選
##まれ
奪わ
メガ
法案
物資
つか
カウン
ユニバー
##ダイ
SM
##ly
飛行機
##フォン
##ING
互いに
1907
置き換え
リアル
快速
通貨
マリー
水戸
イリ
上がっ
広域
スパイ
尽力
正面
ゆえ
キュ
フォーク
横須賀
サンフラン
##レオ
中隊
任期
会館
コロンビア
ワーク
##っきり
##テク
種目
トラブル
##さい
併設
東大
逃亡
ブログ
あわせ
##ほど
中野
サンフランシスコ
搭乗
才能
保管
ミュン
スカイ
南海
挿入
多摩
薩摩
##リウム
##iz
今回
寄付
横断
衰退
1916
講談
国籍
ノミネート
両国
加速
DS
同意
東宝
歌う
死者
努力
カス
兼任
認可
在位
##義塾
対決
抑制
首位
らしい
##エンジン
ウッド
結ば
庭園
##エア
停留所
##メンタリー
講演
施さ
奉行
引き継い
##切っ
##ラリー
化石
典型
##フラ
書く
カンパ
##たま
金メダル
懸念
周期
学問
##EM
恒星
論争
品種
就職
##マド
親し
##たび
無視
コメディ
結論
マイク
降り
将棋
##ens
徹底
ベネ
名乗っ
延期
てる
後に
シド
夫妻
##ーノ
マガジン
修復
なぜ
大衆
##ミックス
有機
なくなっ
##バンク
容疑
総裁
まと
控え
##笑い
総会
避ける
不正
運河
フィル
療法
達する
##ack
アンダー
##バイス
公国
トーマス
行列
回り
松山
まる
あなた
CO
ひとり
応募
必ずしも
増大
ディーゼル
走り
宇都宮
##ock
保安
ガイド
##ナイテッド
##うち
##ーマニア
気筒
155
団地
渡る
着手
激しく
シンガー
立地
大震災
ドロ
管弦
##St
文章
戦術
につれ
ダニ
相模
容量
活発
##チック
##セロ
相次い
開放
室内
偵察
##ヴィッド
確実
MV
認める
黄金
クイズ
並ぶ
##ちゃ
半年
##合わ
##ust
ツール
考え方
##カラ
実践
##IA
法学
インターナショナル
ウラ
限界
繰り広
盗塁
上杉
番線
##三郎
東海道
内戦
トル
##付ける
飛行場
に当
生放送
訪れる
育て
単行本
Ph
##シオ
1889
共和党
##ークル
ベルト
管弦楽
ルーマニア
開校
公爵
看護
##ッソ
##oy
牽引
##ong
LI
親王
刺激
上級
配布
ヤク
南方
ショート
##つき
プレーオフ
道具
木村
##イルド
##ment
日曜
長編
北陸
成人
最小
法的
##しゃ
IT
車線
Web
##AY
町村
感覚
信用
Sy
エー
主宰
品質
ヒロイン
ブルース
エクス
視点
##書き
三井
調達
質問
##グループ
出産
前者
称する
皇后
ボックス
面し
1905
見せる
陥っ
to
隠し
軽量
##民主党
怒り
前面
ゲイ
フィート
##コース
ボート
選考
キャンペーン
阻止
医薬
##ディングス
武士
司教
WW
師範
オプション
循環
アレンジ
車内
第一
##ational
NBA
##なし
前田
##合う
メカ
突入
##ial
たけ
探偵
##かく
##エラ
悪魔
##ニオ
勝負
従軍
125
慶應
慶應義塾
##向き
AP
cod
取り戻
山岳
支流
救助
終点
魅力
上げる
運輸
##取る
外観
##ターズ
同人
ジャクソン
名乗る
メモリ
スリ
##ッパー
1906
下流
保証
うた
か所
ガリ
境内
##ドウ
1909
ソース
オリコン
みなさ
去っ
##じめ
南アフリカ
##渡し
##age
ドキュメンタリー
検察
##ith
動力
最古
定める
外側
ドー
Br
ウェブサイト
闘争
にあたって
マジ
見つけ
##シュー
AAA
##ヴィル
##tern
デザイナー
ニッポン
変身
後年
立つ
最中
ユナイテッド
##セイ
Pr
特典
比例
Com
構内
長距離
ネイ
re
ショップ
##ガリア
マルクス
##ファン
##ジラ
##ニズム
がっ
交易
##ポーター
##ツィア
##トラック
恋人
くらい
黒い
広がる
##ライター
お笑い
140
かね
ジャイ
カム
小野
アラビア
Ad
フィラ
大韓民国
阪急
何らかの
チャレンジ
La
山頂
顧客
牡馬
不良
液体
没年
解雇
##ろう
日々
No
修行
ショッピング
有料
##スティバル
##ッキング
##ond
##バッハ
02
入院
幅広い
改装
AR
圧縮
実力
衣装
ジョージア
##リフ
深刻
出撃
挟ん
##ウロ
##シナ
ブック
時刻
人権
改編
演説
グレイ
騒動
ウォー
##都市
##リャ
##チナ
町内
水域
ジャーナリスト
##ゴー
朝廷
Cl
電源
漁業
ペア
新田
##ペル
にくい
就い
青山
会話
ディス
犯人
部下
##ica
配列
海峡
##ニエ
改めて
所蔵
ジョンソン
事項
ビー
絶滅
##ットー
ダウンロード
ミル
建国
##番号
##ary
ヘビー
モンテ
ゴー
空中
はっきり
救援
AN
後部
冒頭
ストライ
##時間
Sch
ヴェネ
キャプ
繰り返
歌唱
福音
甲斐
秘書
高校生
##フスキー
敷設
##どう
##ビジョン
バージニア
DC
教科
警戒
乗降
ウィン
春日
長らく
クリスマス
ヒーロー
##旅客
にわたる
定数
東南
理想
##程式
王立
##ネン
方程式
入門
##旅客鉄道
Me
codice
プール
アルコール
Sc
##ソフト
ミュンヘン
削除
リバ
チベット
砲撃
##ケード
##フィールド
時に
駐屯
エリザベス
タクシー
レジ
保健
日曜日
##上げる
神宮
変わら
ワイ
捨て
##太子
間隔
ブルガリア
##われ
ミネ
補佐
通勤
##テイ
水上
キック
152
##住民
圧倒的
メス
##AK
統制
じん
でん
伝わる
哨戒
##ick
先生
オレ
衛門
隊員
##ファイ
Wor
##役所
##っくり
##ナイト
高架
##クトリア
合戦
参入
臨床
刑務
階段
河口
パナ
創建
土曜日
路面
イル
分かっ
##程度
ある程度
初戦
1904
天文学
##OP
乗り入れ
##なか
将校
IP
##デア
踏み
1890
ハイン
プロモーション
珍しい
学長
在任
帰っ
コマンド
探検
着陸
プログラ
##ーニャ
行方
##ber
審判
##EE
##リンズ
##ish
丘陵
美濃
山陽
昆虫
日立
App
後退
介し
##int
ドーム
人事
学年
##ヘルム
おい
個別
進める
クロア
扱っ
炭素
Op
トイレ
レール
グア
スーパ
中島
##ach
内側
細菌
入場
DJ
雰囲
雰囲気
介入
コミュニケーション
城主
同国
先輩
経済学部
爵位
開き
考古
ゆく
コントロール
##モス
左翼
アベ
分散
##九州
要望
僅か
しゃ
熱帯
サス
配慮
寛永
総長
com
薬物
身分
##ux
##トー
勉強
余り
08
##東京
And
財務
ボーナス
実は
洪水
みんな
##ンジニア
著者
張り
AK
叔父
特集
函館
宿泊
近江
リベ
気持ち
カテゴ
テル
プロト
旧制
##ソング
##上がっ
##づい
YouTube
民営
154
ライオン
主任
閉じ
儀式
忘れ
アシスタント
変形
中核
及ぼ
##TR
900
ロマン
選ぶ
ステップ
アダム
伊達
三島
冬季
辞職
食料
##之助
性的
会談
条例
あの
ロイヤル
満たす
正教
定理
##アント
スコア
地中海
ファー
車種
併合
贈ら
チェーン
上田
調教
かける
##バーン
オーナー
##エット
HD
五輪
背番号
心臓
UN
同僚
ジョーンズ
解任
1903
語る
バード
船体
New
ミドル
担う
構え
元禄
スロー
ペンシル
##ムズ
緩和
アナログ
振動
番台
間もなく
##ワール
同等
返還
三郎
講談社
日産
流し
岡崎
##KY
前日
樹立
金曜日
長女
北九州
##ite
入植
そのうち
社会党
オールスター
高め
クロアチア
村上
全線
##ムス
模型
走っ
抗争
推移
文芸
まもなく
高山
プラットフォーム
技法
ヨハン
アプ
##LE
バランス
乗せ
つながっ
入口
##女子
小倉
##チェスター
アタ
アポ
比率
結晶
実在
切れ
成田
ヘリコ
マネージャー
定年
ローズ
##BO
コンクール
倒れ
##ラト
##ゼフ
##ースター
##ドリード
キューバ
変わる
サウ
##科大学
発し
付与
##ロック
##ガイ
ロケ
待ち
口径
Ed
権威
とて
タワー
受章
IN
低迷
市議会
留まっ
幕末
有利
期生
##ヴェン
##ニオン
藩士
主役
兵衛
携わっ
ならびに
進歩
レビュー
中退
刑務所
別れ
##フィン
退社
マラソン
##ガース
幼稚
外野
検索
皮膚
至ら
会津
港湾
TKO
##ath
115
見つかっ
カフェ
放っ
##カンド
沈没
##学院大学
もっと
##コフ
騎乗
州立
歌舞
失い
広げ
##リオン
##貨店
我々
市川
##pe
広範
みる
ヴィルヘルム
出入
繊維
ch
##ローズ
セン
##ノイ
標本
1500
ファンタジー
残留
テープ
タイヤ
リトアニア
焼失
目撃
顕著
##バイル
ジャイアン
対照
まった
延伸
捕手
##リク
所長
滅亡
受容
松竹
##ガニ
##DS
橋本
信濃
ロックバンド
公務
大宮
1902
命中
##ノフ
航行
原料
恐怖
しかも
Mus
重力
##TC
戦場
発覚
##通り
##ロニ
テクノ
おき
小川
ネーム
やま
##ッシャー
##ッセン
大橋
法則
出生
協同
個々
##Station
くれる
民衆
##べる
##ねる
プレート
水平
味方
スカウト
バイオ
手続き
所持
賠償
緑色
ヘリコプター
##バキア
153
電化
##かける
撃破
適し
夕方
フェア
コネ
施工
人材
バルセロ
EX
要する
コンテスト
海賊
対処
東急
残す
118
踊り
05
Car
断念
##セッツ
医薬品
石炭
バルセロナ
##ヴェル
まったく
##の子
重複
曲線
フェスティバル
ヴァイオリン
取り組み
三男
講義
願い
大使館
大西洋
##ずる
沿線
グレート
ステークス
イスラーム
幼い
##TA
##ギス
排気
マサチュー
##もん
パーセント
支払い
シャルル
客車
マサチューセッツ
暗号
##エム
予約
##ロウ
##デルフィア
簡易
筆頭
プレス
##iss
釣り
##ンタテインメント
観音
順次
賛成
##じょう
取り組ん
##ショー
##ニョ
監査
変える
島津
##レード
シェア
上回る
##グラム
##ier
とても
厳密
近衛
##兵衛
和田
高原
史跡
発注
フィラデルフィア
ガソ
##ナント
##ame
タッチ
##寄り
セーブ
ラウ
##コロ
##ve
海水
変わり
招集
ニック
##公園
傍ら
幾つ
PlayStation
##メイン
レスリング
集会
マックス
中川
一度
##気に
退役
遊び
##ベリー
金曜
##VA
スピン
固め
マドリード
##oft
互換
##ビュ
全般
##ューン
クレイ
作画
そうした
グレード
CR
大島
サークル
短く
単語
細川
評判
アラン
環状
1898
早期
季節
マツ
スロバキア
神学
みち
海域
キル
CH
セー
紋章
ダル
滑走
シャン
大野
外れ
不能
唱え
併用
ハリウッド
チリ
切っ
覆わ
ムス
株主
専念
所領
佐々木
地質
老朽
予防
飲食
フットボール
招い
金額
語ら
力士
カンパニー
シドニー
鎮圧
褐色
##EST
豊臣
##レア
警視
##マラ
肖像
##hy
1901
##ッスル
発症
妊娠
歌舞伎
長谷
講座
AL
オレンジ
もたらす
##ッヒ
##電力
不振
##ザス
実況
勤め
純粋
移さ
一時期
感謝
短期間
ストック
03
##ちに
実家
海兵
引き継が
大変
モニ
水準
山城
ポケ
行使
捜索
判事
復元
マンション
電鉄
治安
妨害
幼稚園
平面
ドクター
カロ
レーシング
##大臣
ふる
##ゾート
##わけ
当然
見なさ
並び
##MA
殆ど
汚染
医学部
但し
##ory
吉野
04
##リアル
省略
##ニックス
撃墜
##やす
山崎
討ち
##メディア
新作
なれ
都合
ライター
正しい
回答
告げ
##witter
ラリー
ビール
モハ
同級
Man
##回り
##ディス
立体
ストーン
県知事
##タイプ
首長
調理
WBC
侵略
##カリ
芸名
通路
高田
投与
公的
没し
契機
大尉
##タリスト
##ビング
偶然
ゾーン
公社
ラスト
水道
##aw
##グラス
キャプテン
景観
Joh
イースト
SE
牧場
競合
カプ
に従い
アルゴ
特技
09
同行
下旬
替え
木造
立法
##ke
##ace
ヴァル
抜擢
##ブランド
##インズ
1897
早い
浜松
職人
通学
出店
バーン
いれ
##ポリス
符号
##グロ
被災
ダブルス
成し
##ile
1896
阻害
SD
いろ
西方
楽章
不安定
捕らえ
統括
シネマ
乗務
##久保
シンボル
##モニー
上述
度々
大いに
ユニバーサル
看板
壊滅
大蔵
割り当て
##ical
ダイヤモンド
フロー
ブロード
三浦
マレーシア
エンド
抱い
乗員
拘束
話す
脂肪
貴重
近世
検証
脅威
##ンガー
NTT
本国
商標
本店
アルメ
生かし
電圧
##ミット
メタ
広大
ルネ
所得
京都大
づくり
負っ
とりわけ
エンジニア
##リエーション
al
前回
ヨハ
Lin
##いう
##ろん
LO
ON
キャスター
Gr
##デター
小山
伊豆
確か
奪取
##パーク
毎回
瞬間
エキ
城下
##ove
スポット
転用
クロー
休日
加わり
##ヴィス
##ラブ
1899
##フリー
クルー
起訴
遭遇
##ダウン
ターボ
施し
豊田
出会っ
伝達
##ロフ
表さ
バッ
狭い
専属
特異
イエス
##ern
石井
リズム
庁舎
込め
礼拝
生き残
メアリー
##apan
稼働
庶民
住み
被告
公益
##しん
##ページ
諏訪
##なら
艦艇
野生
##ポリ
Ser
広報
##ヴィチ
ギタリスト
BM
奨励
消え
牧師
安倍
社団
ローン
##高等
博多
不定
正義
決して
大都市
市営
ピンク
要件
ほしい
モント
南極
集める
ジャイアンツ
幹線
殿堂
コンスタン
充実
マスク
##酸化
レンズ
##バード
ネオ
土佐
朝日新聞
##ワーズ
捉え
果実
##ii
歩行
斎藤
つもり
ツー
##PS
仕組み
##しかっ
##ヴィン
反射
生態
女神
ガード
種子
ロマ
概ね
ホールディングス
造ら
##キット
悪く
水中
チャンピオンズ
育っ
モール
ロッテ
各社
現状
法令
ミステ
もらう
記す
コンクリート
EC
##オル
##スポ
山下
ケンタ
##ence
テーブル
##TS
表紙
損失
評さ
インスト
##コモ
##ドール
教養
野村
上がり
スプリング
##ium
アダルト
準々
違法
神聖
フェリー
06
加賀
声明
パネル
##フィール
くん
疑い
グラフィック
ABC
無限
ペット
抜き
流用
策定
浮上
ビーチ
債務
内陸
強度
河内
島根
113
ボラン
ギル
コンテナ
はるか
スイッチ
きれ
Comp
コーヒー
白色
ガイ
セントラル
消し
##シオン
満足
天使
小学生
変数
尽く
常務
合衆国
飲み
##デイ
切り替え
##掛ける
ミズ
ハム
テレビ東京
##ュル
正教会
仕掛け
アサ
マスコミ
国軍
##リエイ
わかっ
##コル
ウェールズ
喪失
役者
因ん
151
除去
恵まれ
技師
垂直
就役
牝馬
宣教
用水
空手
##カロライナ
貨幣
シミュ
輩出
馬場
EU
##がし
官位
さくら
すぎる
内蔵
モバイル
##ッラ
##ron
MF
カ国
守り
Col
土壌
代行
##OD
JAP
プル
ふじ
野菜
ピク
Twitter
##TV
##ズル
##わさ
やる
領地
Or
冷却
覚え
##ook
ティー
治世
燃焼
ソフトバンク
土木
付加
##ベーター
ユーゴ
平行
##ナウ
ミュー
制約
ヴェネツィア
熱心
開局
##ザーズ
謝罪
シアター
遂げ
尾張
##たし
わかる
##son
最下
全部
通し
それから
伸ばし
農林
ウィリアムズ
新しく
##ンプル
ネル
##チオ
##MS
1880
07
ドリーム
RPG
兵力
甲府
筑波
農村
隊長
量子
##立大学
高野
ペンシルベニア
ベクトル
番手
死ぬ
##学園
巻き込ま
虐殺
パイプ
小松
パレス
弱い
うまく
貧困
##シウム
ガール
どれ
排出
チェック
パロ
##シエ
ボリ
単一
国民党
アグ
グラス
チップ
カート
105
努め
##せい
111
読ん
##Hz
今度
教区
##シェル
アリス
メソ
ラッシュ
クーデター
他社
112
見方
##stem
##ンスク
UFC
##ペラ
##ヴィア
##ャン
##pt
執政
水系
##ヴィヒ
呼びかけ
下位
nd
##空港
1895
照明
市役所
ニン
高まっ
プロテスタント
陣営
仮説
##高等学校
最適
著し
スズ
##電鉄
適応
田村
##だい
流出
救出
たか
1870
降板
##ost
正当
繰り広げ
BL
1871
分間
102
摂取
アキ
見舞
題し
職務
弾薬
東芝
日本海
350
##づく
使者
無効
##ンドー
##切ら
##ナップ
ダニエル
中盤
つながる
怪獣
重大
呼吸
収益
##セフ
ょうがっこう
##ハルト
103
済み
##楽部
安政
##amp
##センター
歌い
読む
ちょ
定員
IBM
敵対
日光
アシスト
少佐
Mac
先住民
食い
討伐
##ゥー
##IX
前線
慶応
渡し
##ool
アーケード
オオ
完結
パーツ
葬儀
シングルス
倶楽部
神殿
号車
寄与
マップ
##揚げ
たびたび
##ime
因子
天井
頂点
いつも
熊野
落下
##エゴ
鹿島
革新
##ass
幹事
退官
フォル
発信
プレゼ
識別
BGM
不要
信者
習慣
##ハイオ
DF
My
原型
警告
体育館
狙っ
MA
MP
隠れ
##レスト
広がり
皇太子
満了
徒歩
代数
##ann
かく
JAPAN
##らしい
組み込ま
スティーヴ
Japan
推奨
気圧
同地
トウ
##バム
開く
させる
倒し
パック
過剰
##are
会合
Rec
流入
##ハラ
あくまで
エミ
客員
気付
##裁判
望遠
加える
日野
再会
日本国
米ドル
民俗
銅メダル
USS
格闘技
オハイオ
ミラー
和解
飾り
詰め
ユーゴスラ
明け
Tr
傾斜
得票
リゾート
スティ
長岡
ハーフ
Ma
都心
##裁判所
ニー
リッチ
州都
とどまっ
三河
##DA
国務
チュ
反撃
親交
倫理
グローバル
誇る
増し
天文台
母音
還元
CPU
##ローチ
改訂
元素
ゴル
三つ
つとめ
表題
スタンド
歌劇
開け
歌謡
精度
電池
もらっ
##ブリン
学士
後世
もうけ
##セラー
##ンチャー
あたっ
京阪
右翼
同志
銀メダル
マケ
耐え
違っ
##oo
多用
打席
面白
ヨーク
##そう
ショック
##ros
1868
##OK
コミューン
太子
##リアス
倉庫
ヴァイ
降下
小田原
テキスト
推理
墜落
藤田
部位
##タール
ゴム
同性
集まり
on
##DP
##ステークス
##rom
ビン
視覚
運命
染色
免疫
109
##ジェリア
データベース
官房
センチメートル
登記
検定
メタル
##バマ
##ヤン
貸し
中学生
ピーク
##ベック
山中
申し出
道場
ヘイ
書店
法廷
ブライアン
ペイ
GI
浦和
標的
予告
備える
128
チン
##シュタット
骨折
後藤
##ッポ
ピット
撃沈
百貨店
##ee
出品
肉体
角度
133
勝っ
知名
楕円
##張り
小笠
チャンピオンシップ
知的
##シスト
##思議
あん
窓口
総額
##モリ
パーティー
アトランタ
リレー
繁栄
LIVE
東南アジア
##nt
モロ
ムスリム
初年
公務員
青春
全身
##ジメント
ブー
良好
海底
ミラノ
関わり
##ハンマド
市販
優位
認証
135
主として
アウグ
ガソリン
##ビリ
##ボーン
Par
同型
##ブール
##ニル
及ん
市域
##主義
やってき
上がる
サイン
基金
上場
正体
演習
一人
情勢
採択
無事
ハミ
カーブ
増強
ポケモン
老人
デス
家系
チャイ
アーサー
奪い
外務省
就航
そば
ウォーター
外見
Su
切断
122
番地
##ンダイ
##orm
ライダー
先進
極端
114
把握
浅草
ダイナ
GM
付ける
開戦
もちろん
##ビデオ
##isc
技能
高める
セカンド
大坂
エフ
水産
三木
ハウ
取扱
配下
##ton
ダーク
サーバ
コラボレーション
力学
焦点
閲覧
ビス
貫通
近藤
ドメイン
交戦
ダービー
##カット
##ドニア
レーザー
出荷
##ージェント
中立
地獄
チームメイト
RC
##ラド
##よう
神田
作風
小屋
EM
World
ボブ
##バース
物体
##ハウゼン
##奏曲
Dr
安価
##だん
みや
軍勢
あまりに
DD
鳥類
##アミ
1894
##UT
中東
当たっ
望ま
親友
##諸島
##つける
ユーゴスラビア
##ンガム
厳しく
用地
NAS
もん
セッション
CL
##ンスキー
ブルック
##ッペ
家老
誤っ
刺史
1873
360
党員
最下位
ストロ
間違
##oci
従って
##ヴィー
中旬
序盤
知名度
党首
ライヴ
kW
遠く
警察官
釈放
年金
診療
未だ
116
単なる
ハロ
死体
望遠鏡
演算
踏襲
ゲー
水力
売れ
##IV
ドレス
著しく
締め
木材
逃し
シベ
1872
太字
自由民主党
左衛門
坂本
禁じ
アイヌ
117
蜂起
赤色
野田
電流
Blu
隠居
なき
##act
アイデア
ダメージ
##NN
友好
急激
週末
同校
##ヒト
問い
##ツィオ
108
##ogle
繋がっ
発動
##上がり
##ープル
シード
再婚
合理
ワル
福田
懲役
##えもん
噴火
##ジウム
電磁
普段
##リティー
比べる
廃棄
公募
農家
##ブリッジ
封じ
天王
無理
EP
##ライド
報酬
##ベート
非公
##っかり
アーム
トマス
##ディン
出港
支給
科目
立憲
排水
氏族
##ニコ
一郎
磁気
博し
ストップ
住友
発祥
##プレス
遅く
さいたま
うつ
赴任
真珠
バーク
広まっ
入居
正月
##マッチ
盛岡
ホラー
対空
経歴
##ょく
同級生
##クラブ
巡っ
クラン
望ん
野党
##ジャン
姫路
##しょう
がち
なす
##ンドラ
123
##フルト
アピ
背後
幾何
ポケット
クイーン
1893
##メイ
乗組
最年
1884
小笠原
セガ
とくに
中等
擁立
夏季
妖怪
りん
農場
月曜
特撮
ランプ
リトル
楽天
##リュ
毎月
##ウンス
誤り
クリスト
砲兵
越後
吉本
捕獲
工学部
津波
閉店
Google
砂漠
ピエール
胴体
はら
師匠
着工
鑑賞
福山
王妃
##ゲット
##セッサ
調節
高層
マーティン
とか
水雷
##ヌー
##ッセイ
独裁
買っ
ギア
阿部
CF
Wh
南朝
役職
##ナーズ
土器
チャンス
いし
初日
##カーン
##ディアン
バルト
勢い
IV
最強
##EO
千代田
政務
##UM
##ディオ
個性
##えん
成る
1891
##ox
救済
ペルー
##tt
##ear
久保
教科書
カウ
##打ち
勾配
欠場
人組
##ネラル
##ina
1600
プログラミング
引き起こす
##ck
1888
関節
##ivers
太守
赤字
##KYO
##日市
寛政
慕容
銀座
1885
商工
キハ
##ニウム
文政
母体
##しき
保全
陸地
トニー
CG
回想
軽減
ずっと
エスト
バス停
コミックス
121
##ギン
119
滅ぼ
ストレート
どんな
##サイド
##ッシー
本質
サウンドトラック
残存
ピアニスト
Apple
門下
##取ら
展望
クラーク
##ズミ
アルメニア
出雲
触媒
104
再選
106
キーボード
採掘
げん
##リラ
金銭
引き起こし
見直し
ミー
マクロ
##ps
ムハンマド
探査
1886
テネ
##リンク
リク
1892
アプローチ
高崎
厩舎
前進
外科
交際
台頭
サンディ
グラウンド
ザクセン
根本
論じ
##ムシ
志願
代々
アパ
投球
名づけ
辞退
##old
賃金
##ホン
Intern
仮想
or
告白
サーキット
生み出し
上手
指令
実戦
頻度
アリーナ
内野
##ベイ
追跡
位相
決戦
招き
光学
##トレ
南京
##モント
失う
ウイ
##ドー
朝鮮半島
ターン
##ケート
キム
フェラー
自動的
ビュー
掲示
##ジュアル
微分
西ドイツ
多大
管制
払い
Mic
他人
勧告
塗り
きゅう
親子
重点
John
ラップ
につき
ID
冠し
大山
真実
譲り
矛盾
きん
郷土
メニュー
府立
不定期
突撃
ヶ所
干渉
名目
症候
スキャ
ロータ
144
ループ
##uct
MVP
カントリー
引き上げ
地方裁判所
Ste
クラウ
使える
NS
療養
ノベル
幅広く
AA
語源
進展
##ゥス
農地
恐竜
プレミアム
ベッド
ワンマン
アンナ
大井
パシ
音響
エレベーター
好評
堆積
スクリーン
マイン
1887
マリオ
##ピュ
オイル
カップリング
アバ
加わる
格納
招聘
玩具
交通省
##タミン
##渡さ
シェル
ロール
##ベンチャー
テレビ局
ポルノ
芝居
水路
##外線
シュート
年末
出口
ホンダ
ドラえもん
運搬
並べ
##les
ノート
##ai
##詰め
不利
##メット
ラーメン
最上
受け取っ
セブン
##レッド
皮切り
国産
寄贈
出張
ブドウ
りょう
アール
括弧
##ッピー
中佐
支社
##ott
陸奥
日程
機材
シニア
化粧
ニュージャ
セキュ
台北
正常
補強
車庫
##メイク
JC
出会う
捕食
依然
TOKYO
工程
薬剤
##クチン
可決
角川
同市
親衛隊
ハリー
ペース
詳しく
ぶん
創始
アテネ
邸宅
こだ
AD
東武
珍しく
##エイ
マンガ
##わい
理念
鉱物
ベア
ルーム
和平
JA
149
ヴォー
ハーン
バリ
ブリッジ
ジン
制服
大田
改築
透明
本当に
外務
ペルシア
エコ
天下
菓子
狩猟
支線
一気に
裁判官
据え
定住
食用
憧れ
集積
Ge
地面
BBC
小売
大日本
後日
ケンタッキー
助言
不思議
か国
子爵
荒川
コック
ジュー
ダンサー
グラフ
ビーム
ピッチ
OF
右側
砲塔
見送
他方
体調
ケル
許し
対称
メリー
上空
AFC
食糧
セリエ
異動
追わ
大津
シグ
リスナー
通商
好ま
パキスタン
マカ
アルゴリズム
##タゴ
##キュー
##王子
明るい
mi
フォワード
大谷
Vol
分かる
生育
1869
ドミニ
写本
首席
中でも
ユニオン
##IO
オックス
加熱
浸透
127
パンチ
##ケー
育ち
タイムズ
下げ
##レール
習得
アンリ
ファル
えん
源氏
退学
なかなか
ロビン
1878
アナウンス
名乗り
町立
##はや
147
半径
棋士
みつ
ケー
##ッシング
クール
コンパクト
##ドラマ
インテ
浮か
聞く
##女子大学
踏まえ
##しみ
148
起きる
##ケティング
##タス
再興
告知
消化
載せ
サント
ナン
利点
124
品川
書簡
ヤマト
チェル
投下
##ose
連動
クリエイ
がく
##エス
シフト
##エンス
##ガンダ
早朝
WBA
函数
SL
市電
##サンダー
スケール
孤立
ヴォル
ぜん
過激
ニュージャージー
ケネ
デバイス
押さ
チェンジ
擁護
そも
救急
##ラーズ
制圧
##アメ
造り
##ージョン
##まさ
有罪
手伝
##レコ
実態
伝わっ
債権
馬力
多発
##ラスカ
西暦
##ビッド
##そも
撃退
自国
進軍
アンティ
天神
台詞
渓谷
そもそも
バット
##ウイ
合う
望む
栄え
ブリュ
まつり
日本一
実証
##ヴァル
都内
##とか
カルロス
145
手前
##引き
ボランティア
直轄
##iel
引く
マーケット
ヘー
防災
高まり
ふた
##塁手
くだ
グッド
皇族
##ペット
伏見
増やし
手続
工芸
破綻
帯び
誤解
Met
無し
用品
シルバー
洞窟
System
ホイール
##チーム
入隊
##がい
おう
ノイ
こん
上方
次郎
宇宙船
守っ
略奪
HP
起動
京王
閣僚
Ab
##ェン
巡る
フォーマ
先駆け
倒産
中小
ソル
横綱
アフガニ
ウルトラマン
告発
任さ
現職
1860
##エンタテインメント
##ョウ
ゅうがっこう
有数
SO
薄い
##ネイ
協奏曲
家屋
##リッツ
南米
##ラフ
秩序
長谷川
左側
補償
##ナミ
テイラー
##込め
##ork
りゅう
差異
飯田
旗艦
##ドーム
サンド
忠実
武蔵野
仮面ライダー
アフガニスタン
耐久
ハインリヒ
ゲージ
##ベール
バグ
##ound
仮定
まい
世間
司祭
プレゼント
PL
タブ
好み
アンドレ
アドレス
ES
##世保
ニーズ
探索
一塁
作動
難民
工夫
自由党
シチ
##land
NFL
ボーイング
遺構
生前
軍用
カスタ
##切る
##ワース
Qu
出入口
黒田
##ゾナ
##グアイ
サイクル
列島
水泳
##抜き
図ら
動機
最寄り
大日本帝国
佐世保
八王子
緊張
##olog
過ごす
ウィルソン
北上
測量
敗れる
1882
1876
ヤクルト
特有
メロディ
愛好
産地
フランツ
祖先
ED
107
##デリック
##リッジ
ブラッド
FW
途上
サンデー
並びに
エリック
分かれる
攻勢
必須
大切
活かし
##ッテル
##たら
相違
バイク
##ゅん
##ーパー
川口
本尊
TD
標識
届け
##あい
飲料
松田
ボーイ
ロイ
旗本
##ロコ
##01
位置付け
ぎょ
中国人
アンテナ
政界
教団
陰謀
混同
インディアナ
ボクサー
彗星
題名
全車
##au
兼務
出入り
侵害
4000
橋梁
一門
##立た
プリンス
ミン
コウ
弾圧
斜面
破産
青木
注文
越前
高温
警視庁
順調
メダ
高木
トロント
マンチェスター
Fran
法務
TS
くじ
本数
ホット
一揆
好ん
先代
##ood
拳銃
##ae
##ラート
146
重い
1800
聖職
1879
盆地
婦人
月曜日
##テイメント
テオ
供用
掌握
126
症候群
欲しい
くら
ナレーション
首脳
親善
##マール
明かし
運ば
ヴィクトリア
##まい
##ソングライター
連敗
##アイランド
それほど
##アナ
めぐる
ハリス
ホームページ
従う
書類
##寄せ
マネジメント
持続
マウス
136
ビートル
付随
##ords
不在
襲わ
抱き
##ロイド
El
欠点
カウント
ディスプレイ
##デント
##ヒル
急遽
レディ
細長
交付
スキル
大内
##ソル
##電機
決断
筋肉
月頃
貨車
##WS
太陽系
##HS
##HC
##互い
お互い
6000
ルーキー
意志
異例
露出
##ダンス
復旧
無関
主砲
ろう
抽選
1881
オファー
難しく
##ank
##att
##っぽ
##RC
気動車
抑える
##大陸
シンガーソングライター
自作
ノーベル
名所
待っ
両側
楽しむ
後輩
##ジャース
1874
アリゾナ
客室
真っ
イリノイ
##いち
##パール
歌わ
シミュレーション
##五郎
台地
間接
バク
原稿
##着い
##ild
反論
プロレスラー
##ont
自称
浄土
けど
復讐
##ッタン
リンカーン
太夫
箱根
手がける
奪っ
##モー
放射線
移る
タル
ha
越える
明石
住人
セグ
暮らす
コーン
ハードウェア
デラ
##用車
一角
遊撃
##テンベルク
##ストア
与党
##電気
まん
やめ
介護
For
参事
係数
偉大
強豪
順序
カンザス
側近
サクラ
累計
スペクトル
##グラフ
京成
結婚式
主教
東アジア
含める
##ェル
Love
##落と
スターリン
マケドニア
はん
火力
ちょうど
蓄積
Linux
直ちに
##ームス
もはや
タバ
導い
式典
ネー
伊東
便宜
計測
##lect
支える
国内外
シロ
Mk
感じる
背中
1875
掘り
追求
Pl
カジ
円形
整数
営利
##und
##ail
##ree
重傷
功労
赤軍
##トリー
音楽家
GR
チケット
寿命
コーポ
松井
無関係
住所
##ome
歩道
##EG
アーチ
##ンジャー
##ショップ
マット
婚約
悲劇
Cor
体内
##PER
##フットボール
英文
間違い
##トリウム
打っ
素晴
倒す
##国際
体操
143
に当たる
1877
保育
COM
##プライズ
植え
オートバイ
ダグラス
トランプ
レク
生きる
##gr
ジョル
##ATO
SA
開店
任官
社内
降水
維新
媒体
フェリ
ハド
ぐち
##ダス
安田
##ML
AB
ハンター
中京
決定的
淡路
輝い
魔女
本州
##とり
134
Music
変異
シベリア
##ーシ
内務
##願寺
心配
拒絶
あて
クリスティ
伝記
断層
火星
起工
ラジ
名人
内務省
基幹
##モール
絵本
マジック
下関
##所属
142
公布
シェイ
フッ
視察
##per
バート
モジュール
青い
オブジェクト
ブッシュ
##ホー
##ロド
スタンダ
世話
名鉄
発現
ガーデン
##yn
醸造
リメイク
ハミルトン
PV
新興
##フェル
マキ
頼朝
レオン
小泉
生年
各駅
囲碁
##道館
##ッサー
コラム
数少
##ナンド
車輪
##ロル
ドコモ
入れ替
王室
フランソ
主権
ターゲット
ウエ
ぶつ
##ネイロ
集まる
##まし
国分
バブル
ライナー
##ピオ
無所属
小島
につれて
紙幣
##uk
オックスフォード
ぐん
挨拶
パーティ
132
最長
##サービス
和名
##テー
従兄
##えて
指数
流さ
色彩
ダート
高地
アーキ
クリスチャン
鎮守
##ale
カザ
パレスチナ
フェラーリ
売買
ケネディ
1883
アレクサンドル
全土
多少
ナポリ
想像
気に
##むね
##ホテル
アパート
##ローラ
フランクフルト
バスク
MBS
温暖
種別
##ノキ
に際し
人文
荷物
##さま
徴収
県庁
ワイルド
長州
食堂
##yl
タイミング
ランダム
RA
##リヤ
東山
まれ
##ere
おおむね
検事
つながり
戻し
現金
グラビア
グレー
基部
イチ
##納言
##ult
増える
マーケティング
ヒューストン
1200
iP
ワーナー
旅館
##じん
ルートヴィヒ
1864
##ames
解明
転写
卒業生
代謝
新生
おこなっ
キエフ
援軍
Net
考古学
目立つ
道徳
奪還
引い
コイン
運び
メー
軍艦
生理
収穫
産出
##サイク
大敗
カタル
胞子
##マト
名声
##ung
テネシー
138
##INE
繰り返す
##ode
JST
めい
冷房
アルミ
セキュリティ
ツイ
##育大学
馬身
##テルブルク
##ちゃん
増設
仲介
伝道
戯曲
##ower
ひろし
##ンダー
##ツォ
##換える
等級
オリックス
人格
愛し
レシ
動く
##大阪
##アメリカ
アントニオ
##ウザ
慣習
バンダイ
チェロ
平等
講和
1862
叩き
VS
寄生
佐野
直接的
展覧
正統
わから
##ise
突如
公衆
上旬
犯行
明治大学
動詞
同局
民事
親しま
階層
永久
GO
いった
サト
在来
数少ない
すると
短期大学
ポンプ
出向
特攻
高かっ
振り返
動向
投じ
しゅう
リム
世論
大久保
パシフィック
##十分
不十分
ポスター
ムーン
##ward
親族
137
アルバイト
##ics
ショット
##HO
大夫
系図
##レージ
藤井
帰り
窒素
聞か
クモ
Live
回っ
労働党
でしょ
主席
MO
家畜
浅野
血管
リース
##わしい
##アルバム
思考
町長
ビートルズ
コンスタンティ
元帥
バッテ
スケジュール
朝日放送
ジー
##ッダ
祖母
##英社
ウー
常陸
人質
硫黄
逸話
当事
集英社
NC
艦船
##フォーク
デトロ
レイン
##ition
分から
在日
エッセイ
139
後楽
哺乳
自立
もり
フェイス
組ま
##af
PK
単式
en
地上波
AKB
##ピング
##トロン
ギャグ
継ぐ
有無
カテゴリー
迫っ
あや
セールス
ブン
実務
アピール
少尉
採取
エンターテインメント
瀬戸内
湘南
##ict
容器
##anc
体力
行なう
ばら
ビリー
豪華
後援
縄文
行進
CA
##フェンス
漫才
襲名
歯科
保っ
もたらさ
ウエスト
携わる
141
控訴
トリノ
都立
##sk
半数
渋滞
デトロイト
嫡男
##UE
##キンス
洗礼
内外
##ケイ
RS
吉川
##ディーン
代官
入会
国体
絶え
墓所
アレン
もらい
密接
左派
通知
かかり
デュー
決着
##フェルト
つと
大河
アドベンチャー
木製
ミシガン
武力
田園
大塚
みどり
名詞
ジェフ
コロラド
##新聞社
イラストレーター
広義
考察
高価
##リッシュ
割引
弦楽
大王
##ナラ
##ake
##ava
尋常
広東
##pr
元老
日活
進水
借金
公民
博覧
##ミュラ
Is
ふさ
コンピューター
水源
専務
旭川
Open
招か
暴動
模索
メディ
馬車
石垣
所管
##早く
バスター
##動物
丹波
永遠
##iam
後楽園
マニュ
放つ
##ソウ
##リオール
諸説
フランシス
##ファレンス
Ass
合っ
実写
ヘッセン
主将
利根
天気
##ニウス
ミシシ
中型
安芸
付く
イノ
1863
えい
129
コーラス
近接
##ley
マルコ
多額
特権
陣地
パウ
川越
##スパ
旧姓
ブリー
DR
##キース
##切れ
稽古
ray
##GP
指標
ディオ
取れ
婚姻
さき
領有
賞賛
マスコット
ツァ
Gro
追撃
除外
築か
先祖
BOX
造営
##ance
皇子
ファンク
曰く
##ハッタン
膨大
菊池
##ject
CC
パロディ
砂糖
キット
見学
院長
追い込ま
##ンタム
使え
ガラ
同誌
タービン
##ラルド
県議会
豊橋
##ます
##ソタ
131
##ニカ
原田
文法
よって
中性
使節
僧侶
見舞わ
バナ
フォーマット
横山
発する
従っ
プラスチック
教官
##ズマ
##LD
エントリー
刻ま
JRA
プレーヤー
原始
書物
目覚
MT
少なかっ
##デジャ
DE
##マックス
危惧
執り
サード
プラハ
ギャラリー
バリエーション
選び
##me
GK
特筆
笑い
でし
FR
休養
船橋
チーフ
住吉
柴田
マンハッタン
バルブ
広範囲
生え
就く
真言
踏切
##ボルン
##ンドウ
##ナタ
ばん
スプリ
リオデジャ
ドナルド
乗る
UC
リオデジャネイロ
カメ
山内
日向
8000
超人
##生物
トルク
##ほう
グレゴ
地盤
樹木
紅白
府中
ジェリー
ぞう
##ナール
Gre
##モーター
Gu
中尉
代わる
小学館
パブ
神道
##サンス
取り扱い
逃走
迎撃
誘い
女の子
All
見事
Ac
抽出
Sm
##HI
1867
各々
高額
王女
##リーガ
阿波
組み立て
7000
らしく
遂行
だり
熊谷
毎日放送
カエ
遺族
Bill
播磨
石原
##ホーム
ブロー
水田
有馬
川上
ジョセフ
フォーミュラ
##ラード
たかっ
通告
エウ
##ッリ
パンク
シリン
上限
弥生
対岸
追悼
免除
立川
##新幹線
複製
##itt
バッテリー
##イー
出家
捧げ
留まり
##レイク
ボルト
##書店
Will
合体
今川
没収
狩り
きわ
好調
シチリア
造成
母艦
合金
断絶
訪ね
高麗
麻薬
たた
##田谷
昼間
##産物
ぼう
クハ
放置
##アド
##ソール
##ラリ
支払う
##ダース
ミネソタ
駅名
移設
ハイド
グッズ
西南
志向
満点
南北戦争
争っ
挿絵
##ッケー
ヘリ
サロン
授け
いったん
のぼ
変遷
我が
骨格
Bar
太鼓
実体
寛文
紀伊
##プール
入れ替え
##ンダル
チョコ
Tom
牧野
##づき
an
オマ
改組
明日
想い
意義
##クトリー
1861
ケンブリッジ
佐久
聞こ
誘拐
ティム
引き分け
LP
一行
成熟
##化学
##レータ
カタルーニャ
石田
##めぐ
行える
ムーア
##抜け
聖母
ドラマー
防空
サンディエゴ
右手
決まり
取り戻し
RE
改定
趣旨
適合
駿河
属性
苦戦
##edia
侯爵
##デザ
ヘルツ
ミシシッピ
硬貨
##ノコ
パラメ
狙い
商船
##メール
八戸
部員
グレン
##ous
オース
撤回
アムステル
ワクチン
名門
監修
レバ
通い
##ミュージ
##つく
労働省
慢性
##工業大学
ナチ
日付
NASA
旋回
肯定
水野
ヤンキース
モナ
背負
OP
##共産
激怒
西村
中国共産
中国共産党
ディフェン
公使
多岐
鑑定
ホセ
南端
東亜
世田谷
尊敬
破損
pro
大砲
木曽
離れる
カレー
交わし
前橋
氷河
区内
条項
水面
宇治
ハンス
国旗
入り口
アロ
ロープ
全集
ウズ
##デラ
アルフレ
駆使
モーニング
振る舞
木曜
藤沢
ストラ
待機
##ソース
##irl
きり
喜び
さらなる
痛み
天才
自衛
##rans
羽田
LED
処置
WWE
ヘッドコーチ
デルタ
ビート
野外
所要
セントル
エヴァ
一斉
国営
他国
冷戦
三好
積ん
アンソ
キリ
威力
1865
元気
##シカ
オットー
ラインナップ
飾る
アルミニ
たん
免れ
##コミ
あさ
転落
ディビ
ヤマハ
運送
舞踊
真空
##フェース
歓迎
ブロードウェイ
Sup
内装
進撃
スタンダード
岡本
女学校
をめぐ
魚類
をめぐって
シンプル
封鎖
満たし
予報
拡散
砲弾
ウォール
##own
ニコラ
アウグスト
アシュ
玄関
西口
外来
強盗
フランソワ
スラム
宗家
アルファベット
巡回
サマー
集約
##ERO
##スポーツ
幼児
麻雀
##天堂
##oth
Rob
強め
組成
最速
話者
天国
救う
虐待
初年度
別々
##グリ
##ダーズ
カレン
##オニア
再発
管内
##わす
包括
没後
亡くなる
要し
大地
本物
途絶
遡る
NPB
UF
##able
天平
液晶
1866
理学
##チェン
製鉄
ビジョン
宮内
第三
裕福
正しく
ニコライ
##捨て
難易
有人
生体
武家
起因
辞典
##ヴィッチ
##術大学
薬師
##リーニ
##ムル
聖人
OVA
タラ
プエ
原産
##フォー
デッキ
極東
特番
諸侯
かみ
必殺
##ナード
がた
選択肢
分ける
占拠
遠藤
一橋
##よし
サンクト
##ゴス
友達
目立っ
##明け
##親王
三田
秩父
伊予
会派
屋外
特色
##維新
明治維新
ラヴ
男優
##ys
取り扱う
CEO
Ver
##物語
パレード
娯楽
手掛ける
フット
読書
王家
積分
誘致
##メタル
##ばす
日蓮
バレン
機銃
決まる
##デール
同性愛
腫瘍
ナイター
ドラゴンズ
国語
桃山
##いん
##コンピュー
ミステリー
連立
宣教師
爆破
##enn
##ロメ
当事者
おん
すけ
マウント
獅子
スーツ
##デンブルク
大関
ピラ
あらか
##ペンション
教諭
アムステルダム
和泉
標準時
シアトル
バカ
ラッセル
ナトリウム
アンドリュー
EN
最年少
形容
本田
##ニク
マイアミ
GS
探す
保つ
深め
##ブライ
マイクロソフト
布告
##ash
長期間
公職
増殖
築城
那覇
片側
フィルハー
駅伝
##イム
##ザード
SK
セルフ
勝手
##マネ
召集
文部省
減らし
成し遂
設ける
##通し
ベルク
反面
##セラ
ニコニコ
プライベート
##ガメ
エチオ
アスレ
ウラン
石灰
電灯
ノット
内田
アーク
セラ
1850
##右衛門
##菓子
穀物
好意
称賛
##ッチャー
フォックス
##BI
##当たり
津軽
源流
##mer
知れ
##バリー
##ータル
双子
NG
混ぜ
##作用
##少年
##ART
フォーラム
アーキテク
てつ
グリー
元和
出航
暴行
ムービー
スタメン
非常勤
##ade
カリブ
警官
##ans
戻さ
減っ
等しい
##ラーゼ
Records
古巣
見出し
寄稿
愛国
大友
煙突
電撃
リタイ
##ream
直営
新曲
アミノ
エチオピア
信徒
As
ワークス
エクスプレス
小沢
譲っ
インディーズ
低減
型式
左岸
風俗
##ブリー
オーディオ
法政
ゴジラ
擁する
遅延
マニラ
遺物
破棄
親会社
ボスニア
樹脂
混雑
キャッシュ
NET
単体
##box
あらかじめ
スティーブ
##チョウ
キス
順番
マーシャル
下野
摂政
頭文字
デヴィッド
固体
日系
役人
発車
回線
ボイス
酒井
##ign
##導体
ハンドル
アルミニウム
メダリスト
エマ
代議
改宗
Java
祝日
系譜
750
コンポ
湿地
##サレム
##ンジュ
五十
負荷
くに
高性
高性能
Fl
アルバニア
ブレイク
らい
##ブリッド
##ator
DO
塩基
予言
工科
民法
目黒
知り合い
ツイン
元来
始動
##ons
急性
ハワード
お前
奇妙
射程
##ual
##トリア
会っ
##ata
NO
向い
宰相
ロードレース
##キル
ステン
##まつ
発作
##ブック
以南
痕跡
魔術
アレクサンダー
疑惑
##hel
出典
集結
指向
警報
##相撲
一等
誇っ
町田
進路
大学生
帰る
優勢
炭鉱
西宮
##払い
合わせる
互い
花火
西鉄
凍結
幕下
よば
写像
半導体
チャーチ
依然として
カーン
多彩
ISO
##マンド
##ートー
##ark
タバコ
湾岸
##まち
ストレス
ステレオ
au
応答
##リントン
たくさん
モントリオール
換装
平地
課税
アルプス
##リューション
白河
きち
ノースカロライナ
Bla
運ぶ
宣告
バッハ
三条
五郎
仮名
専修
##rit
ファイト
土俵
直面
ショウ
ボウ
当社
取り除
主翼
精力
##重工業
文久
MUS
奇跡
ルーズ
余裕
本堂
見つける
アベニュー
先述
種族
リモ
##アンス
巡礼
無償
伸びる
バイト
リヒ
セックス
アルト
最盛
郵政
円盤
線形
講習
Gen
鋳造
トス
ホスト
ユーザ
ルネサンス
推し
育つ
##RA
中原
断っ
右岸
幸せ
##ディスク
##roid
##ニアン
##UB
ケルン
器具
取り消
NPO
オム
汎用
センサー
AG
俳句
IM
##ount
バンタム
##ドア
現在地
Jr
##プリング
##port
続行
##AND
International
公正
公安
長時間
公会
揃っ
じゅう
はじめて
カッ
臨ん
450
さか
クス
スウィ
サンクトペ
徴兵
##コク
##和田
受け継が
のび
エロ
ミズーリ
平原
転送
置換
融資
##ラビア
築き
連装
こい
ニンテ
小中
抽象
組む
##ジャパン
Hot
領内
マーガ
小児
点在
SN
ボイ
基調
白石
意欲
柔軟
##ポイント
ゲリラ
摂津
##ックル
##ードン
伊賀
厳格
##なす
かぶ
サンクトペテルブルク
安藤
添加
灰色
中毒
##ノム
##水道
ジェイムズ
青色
ジョニー
収める
戦果
アイスランド
SUPER
ソナタ
参画
##パル
マクド
##フィールダー
暴走
射殺
##オール
Inc
南下
##ERS
アカウント
副作用
Art
セントルイス
重臣
##替える
抹消
平方メートル
しろ
アドルフ
##文書
ぼく
トリオ
休暇
ラト
迫る
##ler
本書
久留
On
喜劇
荒廃
要員
LOVE
分配
##回っ
##サギ
ラバ
##ズエラ
エレクトリック
One
激化
##チャーズ
たとえ
Micros
辺境
駐在
##きょう
樺太
1848
無罪
常任
民放
##rist
らん
分泌
券売
##スティング
HT
旋律
香り
ルーツ
座標
対話
中枢
突起
公転
奨学
好む
##ari
増やす
遮断
ジェネ
年俸
ディビシオン
堤防
不調
受託
小田急
WOR
生殖
通報
##KA
悩まさ
##ヨー
TC
グラム
インテル
西海
Per
喧嘩
OB
繋がる
220
曹操
##ヴィエ
AI
テクノロジー
##ラシ
通じる
収束
役場
過半
##デート
乗用車
くま
##ヶ原
クビ
ビクター
工房
封入
##航空
フロア
改題
学派
フェザー
一橋大学
団長
##HT
佐竹
賭け
##回る
リバー
出羽
##de
##ザール
納入
行か
東ドイツ
クイーンズ
おと
ココ
##オケ
台数
分断
曖昧
未明
ソックス
ハマ
##書紀
日本書紀
生ん
ニックネーム
##サイクル
歩い
古来
リアルタイム
次官
バビ
母方
異名
表彰台
ヵ月
大輔
田舎
##ーツァ
哺乳類
一説
那須
##グマ
ピッツ
大社
##ッケン
河野
確信
ルノー
ミックス
##ンジャーズ
島田
直流
駐留
サマ
応え
カンボ
グローブ
会い
大神
クォ
フード
##ink
連ね
##gen
及ば
議事
##ax
##トス
##ato
カ月
メリット
城壁
##カーズ
##ife
不可欠
面会
##キロ
FS
まんが
原爆
誇り
ゼネラル
失脚
嫌い
争う
属す
ビルマ
##デュ
##つか
採集
辞め
BC
Mi
だし
船長
##LS
調子
詐欺
握っ
中頃
四つ
改変
於い
春季
##トラー
バッファ
稲荷
##ルカ
時には
体長
教職
専任
古河
立案
豊島
ミッドフィールダー
アイン
公示
北極
反し
木曜日
柔らか
HE
有用
Microsoft
with
せき
収蔵
道中
##デンス
これから
ピカ
井戸
宝石
工廠
##テラン
カウンター
##リンゲン
しき
殺す
十字軍
##ーロン
NATO
こなし
官職
失業
幾度
打た
歌人
蔵書
アビ
封印
凱旋
##ンドル
アセ
ロウ
交え
儀礼
抱える
狙う
ベネズエラ
しょう
ゆかり
オフィ
待つ
病死
##ピレーション
##れん
DM
こんな
継ぎ
総統
##ype
##ホルム
幼虫
真珠湾
フレデリック
御所
##IE
##ランカ
複素
##グナー
あいだ
Ind
ばね
拠れ
直結
##CE
川内
年版
##ルティング
オレゴン
フレン
資材
赤坂
小銃
大江
##シミ
##ACK
全曲
左手
##ばさ
##ワット
School
うけ
まり
下さ
##チド
##クサ
苦労
取り壊
佐伯
断片
ref
去る
##っこ
ナビ
ハンブルク
プロセッサ
##クタール
二酸化
くり
小麦
パナマ
解剖
大相撲
##休み
##ンジェル
アンダーソン
サスペンション
ユニフォーム
調和
エストニア
たどり
不法
急増
アーキテクチャ
モリ
負う
##キャラ
給与
ウィキ
製作所
明記
館長
##美子
ウズベ
剥奪
##orn
シャトル
慎重
池袋
西欧
留学生
カンボジア
公卿
宮本
水分
崩れ
戸田
原発
SR
##ソス
クエスト
営む
ヨーゼフ
若年
##ンジー
移り住
王族
交互
全権
大国
##lass
細かい
上回っ
中西
対外
テナント
エルサレム
地表
退却
ケリー
ベラ
リヴァ
造形
##ぱい
コンゴ
思い出
地主
##エンド
ネコ
景気
長老
Mo
平坦
カザフ
Res
中央大学
##board
リュー
ヘクタール
皇室
送電
##リッド
ベースボール
任せ
レジスタ
公明
ニュータウン
プラザ
アイオ
##フォース
挟ま
Air
##グレ
Char
##チンコ
補充
局所
##ンプソン
フォート
気に入
安土
やら
平定
FF
##映画
ヒンド
マネー
Bro
MR
東口
芸能人
追う
MHz
中津
##we
Inst
取り組む
We
マッカー
住職
御殿
帽子
消失
県民
止める
進入
##司教
前部
Pa
イカ
大司教
クライアント
プロトコル
アリー
参拝
いかなる
幻想
ツェ
周回
わが
乗り換え
レスラー
いとう
##GB
内藤
##ネスコ
##GA
歌合
カタログ
正解
##がく
倉敷
荘園
間に
アクセント
大森
徹底的
一新
PP
恐慌
モロッコ
日本橋
やって来
ブルックリン
わら
整え
派閥
ニンテンドー
本多
##リッヒ
##red
デイヴィッド
オルガン
宛て
##ットル
民兵
繋がり
返り
##ンプトン
仕上げ
山間
次長
死に
自信
ディア
国々
タカ
尽くし
素晴らしい
エール
罰金
銃撃
きわめて
区立
ヒップ
塩化
梅田
観戦
下ろし
常設
教える
テー
鈴鹿
##ツィヒ
ひがし
退い
ウェア
尊重
シュタ
腹部
アデ
##コム
サハ
スロット
##レク
バリア
モーツァ
ラマ
視野
及ぼす
星野
政令
普遍
退け
240
つる
着任
##lex
食材
Mag
フラッシュ
家具
小隊
居城
ミハ
意味合い
地裁
始発
尚書
ライプ
祈り
称え
低地
##osh
すす
休刊
エアロ
弘前
Android
##クール
次期
飛車
触れる
グラント
rd
ブロン
大石
##タイトル
経費
##co
##名詞
エリー
聴取
おこなわ
アトラ
ビタミン
タイアップ
ベリー
最高裁
忠誠
釈迦
ヴェスト
中国語
停車場
マッカ
奉納
メイク
金子
rp
松尾
リハ
留守
ライアン
自家
##くる
しっかり
園芸
知らせ
1830
一宮
減らす
菩薩
エビ
ギャング
離陸
マント
詳しい
クリーブランド
Wii
遂に
青少年
リマ
出陣
手順
フェルディ
ガールズ
##方形
激減
崩御
##ショウ
いかに
##ニティ
##少女
美少女
適当
##レーン
アジ
##チャル
正室
ネパール
総数
桜井
美容
怪物
社殿
三国
キャップ
単発
中田
静か
##上がる
インフラ
異母
タイガース
名残
入国
##ゴール
木星
リリーフ
クルーズ
大洋
合法
特例
返し
鳥居
シンク
ホリ
天明
ベテラン
撃ち
富田
織り
部数
##自治
おかげ
CB
対馬
弾き
時折
黒色
カラオケ
四方
奥州
私鉄
大きかっ
しの
イザ
挑む
松下
##ナート
##ヘッド
ライフル
ストローク
オタ
代役
商用
急死
##シート
役目
採っ
白山
規約
##かせ
楽しめる
サク
鶴見
遅い
事典
放ち
ナッシュ
郡山
加算
##ニール
密か
かえ
山麓
本家
群れ
いと
受け継い
##ミュージック
を以
ゴシック
##リップ
を以て
ハナ
上層
母国
秋山
除け
##バレー
吹奏
法政大学
祭神
##ma
みなみ
律令
空き
調停
寄進
準拠
火薬
やむ
助ける
ハドソン
枚数
非公式
レート
葬ら
ROM
筑波大学
モデ
##ンジョン
導く
迅速
奪う
狙撃
背面
過半数
任天堂
ラフ
フェニックス
報復
生地
高雄
##らっ
レアル
出血
提督
舗装
酒造
月間
折り返し
軽い
ウルフ
##ユー
##トゥス
ひこ
みなし
マーガレット
喫茶
##ony
天津
女流
##プライ
Stud
しも
解答
吾妻
漏れ
づけ
バスターミナル
コパ
シリンダー
Ro
緑地
##que
##生活
PD
擁し
義勇
西岸
マリン
ディフェンダー
フュー
末端
本館
カンファレンス
征伐
足り
##ara
##下ろし
##ギャ
たろ
ニール
不信
特命
##歌劇
込み
宝塚歌劇
ジェノ
Bo
バウ
RO
民謡
配分
##ita
処罰
オールド
ソマ
##じっ
以北
獲物
絶望
水深
Sk
襲い
##ーニュ
##ミュエル
傑作
浜田
##ana
新潮
鎮座
延び
原案
後続
重奏
及ぼし
両端
合い
狭義
近似
遠隔
三角形
戴冠
暗い
##サーチ
##ッケル
ドミ
動い
教鞭
震災
ジミー
国政
土砂
届か
津田
受け入れる
イース
西端
##ジング
摩擦
犯し
アレックス
sp
リクエスト
遺言
有志
##ベーション
##ini
アラスカ
##ボウル
ウィス
Amer
ひど
成し遂げ
事変
分家
##LA
全盛
飛鳥
なに
##ger
インパ
ヨハネ
すみ
除籍
ヨル
調印
シュトゥ
準じ
ヴェー
ソロモン
アース
喫煙
##ビアン
河原
難波
Pe
諦め
関税
マール
イスラム教
慰安
知能
Do
##ムビア
##ティウス
GH
中高
対峙
満ち
碑文
風土
210
カルチャー
ジャーナル
いた事
リック
リハビリ
断面
燃え
今井
##バナ
##延び
最悪
精密
幸福
楽譜
サヨ
ラファ
##並み
サンダー
田辺
潜在
京浜
賛同
##ement
##ATION
スパルタ
PA
中古
卓球
崇拝
架け
あし
サミュエル
真理
聴い
トヨタ自動車
イブ
広州
見込み
##eth
四日市
薄く
サンプル
平方キロ
東北大学
初出
常磐
おじ
掲げる
毒性
##項式
掲示板
格子
とん
のぶ
西郷
持ち帰
ヘブライ
高岡
##ボーイ
成す
訳さ
カルタゴ
生き残っ
##ストリ
感動
近辺
##やま
##YS
転身
ずれ
わかり
大勢
マック
蝦夷
プロペラ
ウマ
デスク
ヴュル
##ごう
基底
ピー
化し
江戸川
##オリ
##レラ
落とす
RNA
ひら
エスカ
墳丘
##抜い
NA
通訳
##sch
##世代
北端
立た
Je
石器
##AST
支払わ
わたし
##ニッシュ
性別
##カナ
##如来
ミスター
つくば
版画
陥り
モーツァルト
Her
ユネスコ
利便
秋葉
##ラール
処女
字幕
ハイブリッド
Har
騒音
##td
伴奏
ユリウス
朝鮮民主
モニター
##主義人民共和国
ステンレス
朝鮮民主主義人民共和国
##ライブ
引き受け
拉致
支出
立てる
##ッスン
次世代
パチンコ
微生物
狭く
##マルク
203
##産業
第三者
図り
赴い
ポリス
##より
最高峰
あげる
レポート
混在
真言宗
コク
分化
奉仕
揺れ
本町
理工
##ゲイ
##イトン
淡水
スロベニア
##セックス
ホームズ
掃海
フィクション
党派
##返す
アゼル
入部
##ric
##ane
ナー
水曜
留置
ドラッグ
ザン
ルーズベルト
スワ
代打
小樽
経っ
インストール
待合
##サム
ワルシャ
サポーター
却下
領事
切り離
##OCK
レーン
##ステン
イニング
睡眠
##コンピュータ
切手
告げる
抜い
接収
成り立つ
ハット
##るみ
リバウンド
ロジャー
異性
##っち
ナイフ
ゴン
添え
##グルス
転居
##ッペン
吹奏楽
高島
##ラマ
##ロイ
キネマ
同点
問う
##シズム
あえて
パトリック
中堅
丹後
つくる
真相
##タント
##けい
東端
##のぼ
どおり
##CO
ヌー
切る
吊り
ホモ
飛ぶ
部落
##左衛門
わか
財閥
剣道
撤廃
波長
留め
YO
寸前
クリーク
BR
BD
仕方
御用
##ハーゲン
いす
頂上
##ald
法制
注ぐ
待遇
食べ物
落ちる
公家
別荘
vs
探知
インク
富士山
生み出す
ママ
##福寺
ついで
ロッキ
バルカン
機雷
硬式
NEC
吹き替え
##回し
教義
##ルツブルク
たて
##ある
la
積載
テリー
合わ
志摩
打つ
貯蔵
破る
リーガ
鳥羽
まね
北欧
隆盛
子音
フランクリン
カブ
基質
宅地
##記念
訴える
アクティブ
ソーシャル
安置
模倣
無名
作物
説い
バーデン
常時
シュル
トミー
et
テイ
##ッテン
自伝
衰え
反転
多項式
##ワフ
GN
出展
グルジア
搬送
服装
産卵
逝去
繰り返さ
山号
疑わ
##バータ
Univers
##さと
##経済
##ケス
##ett
書記官
大同
キリスト教徒
##田川
##テナンス
まとめる
不況
情熱
ヴィン
発令
朝倉
観念
##UD
新造
##ポー
帰郷
ボイラー
サーバー
医者
ex
レバー
名簿
おさ
っぽ
気体
預金
##chn
打ち切り
ゆっくり
ボヘ
上皇
国府
肺炎
##ジアナ
1859
MB
チーズ
##シーン
クリミア
知人
##いろ
##ステーション
外し
録画
かな
ウイング
目論
ローリング
ライブラリ
延喜
ワルシャワ
山東
アルバート
飛騨
尼崎
廃業
Dav
High
リボン
転移
同志社
ヴュルテンベルク
歩く
##リナ
##AI
密着
##おう
鉱業
レバノン
みず
有害
入党
本郷
マツダ
大映
浮世
促す
従属
受け取る
It
ゲオ
見積
どうして
事象
刑法
##ey
ノーフォーク
##マイカ
##ニカル
決済
##oll
メリーランド
守ら
実に
##バイジャン
阿弥
停車駅
##IDE
一見
苦手
##ゥル
アルジェリア
フィルハーモニー
ダブリン
呈し
金田
渡米
オズ
世襲
献上
FL
分校
器官
子役
建っ
脱走
アゼルバイジャン
1858
キプ
回帰
##キス
フォーム
オバマ
促し
翌月
巡り
ペンネーム
市道
釜山
##ヘル
ベートー
##カリスト
アミノ酸
丸山
父子
##作所
##MO
信託
手塚
クラフト
すい
メカニズム
Billboard
抱く
##ミントン
コンペ
回し
持株
勝ち越し
発酵
足立
##ソニック
At
ウォル
ピース
動かす
速い
##vel
1840
アップデート
意匠
Ltd
洋画
##ダード
タケ
ローレンス
##製作所
##ルタント
プライム
ノード
果て
エージェント
食物
デイリー
特設
辺り
いじめ
##ンドルフ
サウジア
出自
山陰
浸水
##any
フレーズ
迂回
##四郎
Cr
広瀬
##らせ
##ンガル
制式
直し
直列
ファーム
オークランド
収納
##ブルドン
うか
長安
斜め
水曜日
話さ
アンジェ
概要
往来
明示
竹内
co
回る
文脈
##まつわる
にまつわる
補完
IR
琵琶
##プラー
##クスピア
引き継ぎ
結城
まさに
共用
脱落
バンコク
菩提
進言
ジャンク
テレビジョン
##ラウ
武術
接合
飼い
一生
細長い
新党
いん
デッド
宮中
##ザル
れん
ルイジアナ
村田
フロン
助成
抗体
ノア
屈指
スープ
ヶ国
パド
不全
##キサ
アイランド
Part
アワード
叙任
番付
襲っ
転属
祭祀
##ぶん
立方
含み
イヌ
ミャン
まき
##ごと
別府
短距離
覚醒
八重
分かり
持ち主
Eng
神秘
オーガ
フェロー
ハノー
出兵
マディ
パール
メイド
兵役
サンパ
ウィンブルドン
Gl
ラング
不適
旧来
暗黒
被っ
1854
豪族
##興業
ミャンマー
表情
ビュ
なくなり
尾崎
祀る
許容
##チウム
##way
細い
サウジアラビア
本文
目録
マニア
##チネ
##ティエ
##スタジアム
源氏物語
大川
戻す
援護
##ツキー
交点
公司
移す
換算
松浦
##ビット
知行
納め
終える
線型
治水
素子
メルセ
遠ざ
とある
現し
莫大
##ばら
秋季
築造
グスタ
村山
預け
##植物
##リーブ
盛り込ま
ハプス
尾根
負債
アトラクション
リミックス
松原
カスティー
招く
片方
エリート
告示
##ミッド
クリスタル
フック
至り
シールド
台本
炭酸
##ポル
シャープ
弾道
##ius
##ウンテン
##レーティング
##だし
マルタ
320
提言
知り合っ
ウォルター
ハプスブルク
振付
##ンスト
##バイザー
ポピュ
菅原
アポロ
MUSIC
SNS
疎開
舞鶴
相模原
GL
含有
##ーマーケット
カルシウム
##ファーレン
掘削
##テール
pr
ウン
ジル
発想
移送
ジャマイカ
ねじ
マヌ
##の丸
あた
祈願
##返り
栄誉
##ぶり
ヒュ
太政
ベストセラー
特記
アメリカ大陸
承諾
ブエ
関ヶ原
サヨナラ
武道
VTR
在職
極め
石橋
祀ら
##ENT
##マーシャル
sh
ふたり
召喚
囚人
火曜
##アム
ホルモン
War
ゆめ
常連
白鳥
##コット
絶賛
次女
スクエア
ルパン
校区
衣服
William
新築
##レンツェ
打診
発案
調べる
ルドルフ
##na
エグ
岩石
おの
ログ
次回
問屋
頭取
割れ
祖国
フォント
バンクーバー
メチル
打数
長尾
歩き
##alk
##ute
ケープ
採ら
踊る
隷下
セリフ
貧しい
枠組み
落成
ルター
出世
四球
提起
1855
レッスン
反響
同居
##パイ
##ino
ストライキ
作り上げ
いまだ
外伝
WORLD
Mc
誘わ
アルビ
アンケート
メンテナンス
声楽
パラメータ
メルセデス
WE
##ダービー
アング
コカ
皮肉
離党
##レーヌ
##ner
キャサ
サイバー
リンゴ
シェイクスピア
##通信
入選
帰投
##ちょう
ar
##チカット
明かさ
矢野
緩やか
チャーリー
定時
長寿
##ジーミル
ダラス
路上
##ニクス
クラッシュ
##スタイル
リタイア
##スターズ
外相
高圧
お金
##XT
##ファーソン
##ガルト
##金属
赤外線
##テレ
ひで
サイモン
なみ
ケア
平田
投獄
##でん
ダイエー
スラヴ
ポニー
##ボロ
JIS
開山
ピッツバーグ
大別
##グラード
つくら
ゾン
受注
オリエ
ウルグアイ
党内
反省
ケベック
清朝
玉川
代理人
あくまでも
迫害
静止
##UC
##句麗
イヤ
ゴミ
格差
ミシェル
施策
椅子
法定
高句麗
##ブリア
##ene
体格
過酷
##AZ
宿主
フランチャ
通用
迫ら
執り行
すご
人名
わざ
担い
由紀
##アリング
##ザース
Star
動脈
ベートーヴェン
フアン
着目
モス
尋ね
コネチカット
ゆる
##サック
遊撃手
市制
支所
本願寺
集計
充分
230
持ち込ん
流派
終焉
GHQ
山手
詩集
ブレーブス
BB
計量
ハンドボール
完璧
JS
出動
クロム
人体
穏やか
陥る
##ペイ
ロータリー
てい
八木
共鳴
真田
故に
曜日
有形
疲労
エンターテイメント
じゅん
カーター
劣る
協調
服部
物流
コンサルタント
に当たって
Super
のう
ホップ
公用
灯台
青葉
CBS
LS
ゴードン
にくく
スーパーマーケット
装填
支障
傭兵
時空
ヘア
実権
##押し
巧み
ざき
外さ
強かっ
##ダール
##継ぎ
##イヤー
##キウス
スズキ
スティーヴン
FO
順に
##グア
##lic
プエルト
北大
奄美
ヒンドゥー
バロック
公判
##ぱら
乗り出し
屋内
春秋
松江
売ら
末裔
パイオニア
光線
寺社
賃貸
生誕
##ボク
仕立て
##ボウ
あか
ネズミ
##コア
勇気
のび太
可愛
永井
開花
EMI
ょく
入ら
大村
森田
飛躍
スノー
低温
オリン
名物
CV
南口
近海
国人
能登
ラク
地価
妥協
忍者
定か
鉄筋
フォト
MD
大本
学級
##コブ
営ん
##ゲート
一大
相馬
裏切り
##URO
ナス
閉館
##ep
##強い
れい
カニ
理学部
##フロ
ゲン
さす
商号
##が丘
ベーシスト
歌合戦
未成
フライト
NWA
ジオ
フィレンツェ
バレンシア
##十字
##illa
##ツィオーネ
テュ
ロベルト
西川
例年
匹敵
##ギニア
友情
大事
艦載
ウェル
シャイ
ヴォルフ
ドック
急進
打ち出し
洛陽
運ん
##バーズ
ONE
痛め
屋上
親戚
赴き
執っ
補正
埋め立て
ヨハネス
各所
豊後
即座
機密
ファイター
##クレ
戦中
日比
浅い
貼り
ボーイズ
ブリュッセル
ナル
幼名
##LL
TOUR
売春
##dro
2500
将兵
門人
##タイガース
ダンジョン
古川
フェイ
Pre
並列
伝導
巡航
##がれ
職場
退場
地蔵
拷問
##ベリ
下っ
朗読
休憩
奇襲
KD
ミュージックビデオ
クリーム
##クシ
##ニバル
伊丹
家電
##カム
苦しみ
ロット
開閉
##テージ
取り戻す
火曜日
発刊
すず
タグ
##ナギ
保守党
母校
デハ
上越
金剛
イエロー
死傷
##りつ
培養
サリ
##よそ
##教大学
GB
制裁
天台
Day
開口
田原
算出
##ツキ
WA
プラント
##ケーン
##好き
他者
克服
##ンバーグ
チェス
デイヴィス
ニッポン放送
ざわ
円筒
釧路
##mb
ディーゼルエンジン
押す
火器
プリンセス
mg
北口
##オンズ
National
Xbox
##ling
サイエンス
戦法
オイ
私的
楽しみ
勝者
本戦
##メーション
いろいろ
われ
読ま
つくり
去り
脅迫
##ネーション
北野
架かる
泣き
##光寺
Int
城下町
きら
##プレックス
電荷
磁場
アスト
##ベガス
日本ハム
供養
オーダー
完封
請願
オフィシャル
未遂
リエ
バリー
かき
麻痺
あお
均衡
耐性
パナソニック
アイオワ
マスト
早々
たつ
可変
旗揚げ
操業
スピンオフ
BE
ピュ
蔣介
後進
会う
複線
給付
ウォン
インド洋
愛人
##ater
ぐらい
エーカー
対面
##ng
瀬戸内海
強硬
アンチ
ともない
コーポレーション
イマ
海面
東日本旅客鉄道
##ウォー
木下
##sc
かす
艦橋
##hem
##プトン
崩し
##らん
##ナーゼ
サバ
##遅れ
Off
##ハル
クリントン
ネク
休業
連行
対局
遭い
##フェクト
コロニー
寸法
リンパ
合作
##TO
キャピ
アオ
寝台
簡素
##兵器
日刊
##オーリンズ
利根川
ne
大阪大学
ハッチ
名跡
核兵器
気分
推力
クライマックス
ライオンズ
担保
仕える
##ボリ
カセット
ベラル
無くなっ
阪神タイガース
##ited
オカ
コナミ
ニューオーリンズ
軍需
##レフ
差し替え
宝塚歌劇団
ふるさと
ホン
メド
両社
望ましい
不当
何とか
本山
キャサリン
オクラ
タム
上洛
便利
##ビナ
トレイン
明るく
一因
##タリー
##炭素
カスティーリャ
##ルトゥ
多重
中央アジア
メリ
先制
義務付け
もっぱら
総括
陽子
Ag
グラミー
伯父
前衛
ください
セネ
不自
魔王
is
市区
ハイビジョン
1856
##let
大将軍
日高
モダン
ロビー
野戦
##ゲス
志し
支局
##ジェット
##越え
頼っ
シンセ
タキ
##オーバー
##ホマ
付着
長門
サンパウロ
海運
カリブ海
サテ
おおよそ
処方
結核
##ヴル
ラスベガス
ネルソン
いこ
##ECT
ウラジーミル
クマ
仮に
失踪
Christ
試みる
クック
列挙
増刊
##ペディア
##フィッシュ
##記念物
天然記念物
##キャラクター
批准
暴力団
佐渡
行き来
やく
プリント
敢行
初等
城内
明和
##ペスト
気づい
流動
##大震災
関東大震災
うん
イブン
大差
##ーマル
##フェリー
アンモ
注釈
Associ
充て
導き
揃え
諜報
##yc
##テット
##コタ
ジャワ
しめ
千秋
天候
軽く
くち
新井
550
##ology
劇的
発光
フラツィオーネ
##KI
タマ
河北
##こと
##ノル
志望
河南
##アニ
チョコレート
ふみ
並み
歌曲
オペレーティング
収監
逃げる
遥か
##進党
IBF
Sou
##コード
クリエイティブ
備前
大小
Fr
一括
門司
開港
##TP
ホス
灌漑
物件
遠い
可動
百科
著しい
##ボット
##ショナ
かたち
対談
相応
公明党
三宅
係る
be
ナウ
パンタ
##ファミ
炎症
##ィー
マルク
1853
##ージョ
Rad
帰属
コマーシャル
粘土
手配
金山
世俗
プロパ
##落とし
兵員
地方自治
アソ
悩み
阿蘇
スライド
遊園
部会
Comm
民家
オセ
金色
##ーチン
トライアル
des
湖南
マルティ
ちょっと
##チモア
1857
地方自治体
マフ
マイナス
パーソナル
ウルス
定番
##ばこ
過ぎる
シリ
宝永
打倒
下総
ナノ
シーク
硫酸
東京ドーム
旅客機
ピストン
海老
##uro
四郎
西海岸
シール
納得
引き継ぐ
カプセル
入所
諮問
##ゼー
臨海
##ien
ニュートン
br
一層
##ムント
原点
噴出
欠陥
アルフレッド
返上
隠さ
##ギア
ケント
平家
戸籍
棄権
突出
美人
##高い
体型
働きかけ
適正
##ガラ
規範
従兄弟
下表
猶予
##ゃく
##キャップ
ボヘミア
##RNA
カジノ
途絶え
ゲオルク
メルボルン
くろ
揚げ
ジュリア
WBO
ヒン
フン
追及
造語
語彙
速く
##アンド
オールナイト
まるで
Pet
ノウ
電信
##fer
シュトラ
ブダ
史実
格好
インデ
石室
##グラン
パパ
ピック
委任
##ージン
文化放送
レーニン
ボルチモア
Can
みの
ダウ
倒さ
Black
at
王権
ベラルーシ
斉藤
##キュア
工藤
起業
チャップ
カップル
振る舞い
うど
ジブ
知らさ
ヒドロ
宮古
致命
##バイバル
平方キロメートル
ささ
一躍
引っ越し
ワード
北緯
見通し
##ばん
主戦
叙せ
妨げ
##ぎり
妖精
##リティッシュ
二酸化炭素
覆う
##ミナ
プロフェ
##ッホ
タイガー
クリストファー
ランナー
ミラ
停滞
超過
長調
養殖
エルンスト
##ウィック
Act
未知
##クロス
対比
手数
北海道大学
ブンデス
##メス
ナム
流す
リポーター
大破
進ま
##フマン
顕彰
##アラ
##だけ
ヴァー
##ution
Mr
##教育大学
コソ
##オープ
##レーツ
##ins
持ち込ま
ちなむ
エンタープライズ
Aut
商会
病原
端子
##oto
ポートランド
放火
##KE
燃費
エム
膨張
##アク
工法
##ings
天満
陽性
驚く
起こさ
マシュー
上る
##ントス
ライプツィヒ
イースタン
出題
##た目
NEWS
庇護
工学科
ピラミッド
見た目
集配
##20
ヴォーカル
転校
##form
生み出さ
ドジャース
豪雨
醤油
上司
手間
ますます
##エール
650
汽船
代用
儲け
圏内
発砲
血統
逃れる
##がけ
##ola
引き起こさ
ヘルツェ
一派
多種
脊椎
ブリティッシュ
病理
合弁
マニュアル
弱く
青銅
ガイドライン
万国
そうい
フルート
サザン
悲しみ
点数
ジェーン
天王寺
終始
挙兵
##ューズ
リビア
納税
風刺
##ラップ
タコ
負い
##ユニ
##10
レフ
待た
##椅子
望み
さらさ
グスタフ
セダン
拍子
国宝
糖尿
ディフェンス
LE
クローン
カーネル
さかのぼ
##レナ
##パラ
アンディ
容姿
強烈
270
##ータイ
貯水
だら
供与
返済
##メンタル
##ズス
見かけ
内定
スローガン
喜多
##AB
かし
牛乳
反動
腐敗
麻生
スーダン
スーパーボウル
重く
##スティック
通話
浮世絵
宗派
推計
軌間
##ノミ
しげ
始祖
こども
ギュ
北海
圧迫
帰宅
若く
アルベルト
1300
つなぐ
同書
レオポ
マカオ
大連
##ya
コンサルティング
サントリー
ウィーク
パーカー
テュー
証人
ac
はい
減速
公営
地層
##まか
##ARD
最期
##ドス
##付い
なぞ
濃い
妥当
Mod
ワゴン
年月
荒木
ストックホルム
庄内
練馬
野口
世界一
参議
柔術
見受け
##ations
米沢
到来
安永
##ven
ブンデスリーガ
効力
##ペス
BMW
そういった
留まる
飲ん
ガリシア
RT
ノイズ
充電
輝く
330
右派
火事
##ざし
キャンセル
寿司
追っ
##次官
法科
##ガタ
##バルディア
シューティング
カザフスタン
ヒント
握り
マヤ
交配
若松
まえ
##たす
ユタ
啓蒙
満たさ
Pol
割譲
蹴り
マザー
オペレーティングシステム
一般人
##ision
BEST
強固
##ヴァルト
入省
##por
UP
モンタ
消火
絞り
レイアウト
信玄
脆弱
##inc
敬意
防護
##ニュース
ロマンス
法華
まけん
カイロ
下級
##ルンベルク
東岸
石碑
おもに
ゲノム
タウ
変速
無駄
中性子
ヴェストファーレン
原画
MG
近づく
##もと
セクション
大垣
全滅
後見
##ブルック
マダ
実習
ホウ
プラグ
支那
雷撃
##ave
##醍醐
またがる
##イオス
ふん
棄却
いっぱい
広め
辞書
引き換え
Girl
海防
##がん
wik
ルカ
王政
用法
トレーナー
みせ
オア
一流
後醍醐
アエ
パワ
人道
ディープ
紀州
ふれ
信念
議決
重なっ
キッド
伝来
発進
LC
##インター
アドバイス
太刀
アブドゥ
イレ
形質
費やし
##TE
##レンジャー
##ESS
フォール
フランチャイズ
揚陸
##ホークス
MM
驚い
HS
一周
入札
夜行
オクラホマ
のぞ
クワ
ドリ
主たる
出仕
嫡子
相関
愛する
Fac
##oph
カワ
上っ
国交
桐生
##オラ
##バリ
どころ
##場所
あふ
1852
早くから
しら
近づい
##ードル
スリランカ
隔離
##アーズ
##ネスト
##ージェン
時々
##スキ
ポピュラー
リフト
神父
##ble
噴射
旧暦
幕内
欠け
給油
##楽器
##ットガルト
車輌
催さ
弱点
肝臓
はし
富士見
手動
##work
##行き
トゥール
平衡
##ヴェー
Amaz
大胆
布教
艦上
高騰
パブリック
豊川
##じり
##AF
##完全
慣例
パッ
マスターズ
##クセンブルク
POP
勝つ
誤差
キャロル
カテゴリ
解読
##ットン
##ship
##ニーズ
##モード
##神社
##コースティック
シモン
域内
挑ん
やり方
##ラグ
シュヴァ
コリン
あま
農園
重ねる
届い
##コンク
##焼き
中流
グラフィ
ATM
反抗
コモ
TE
パズル
拡充
はく
ホークス
##戻し
洗練
蛍光
権現
連想
イソ
##ツー
Er
##デビュー
大崎
立花
藩政
討論
コスタ
NAD
興奮
バーナ
口座
水害
見れ
進級
岩崎
細かく
めぐり
ムル
沼津
溶接
動かし
為替
チャージ
大蔵省
JP
インターハイ
荷重
##ッロ
Fe
オンタ
ルクセンブルク
大原
テンポ
##air
JCT
GE
ゆり
フレイ
三原
アメリカンフットボール
一色
貝塚
草原
デビッド
ハブ
##コフスキー
##スペ
うがっ
余剰
潜入
うら
バーチャル
コモン
再戦
客観
美し
有権
様相
##パルト
##ism
めん
不完全
マウ
照射
##ンダム
怒っ
着け
レイク
テクニック
主婦
同定
##VER
全盛期
近所
##スワ
##ータス
内包
永田
##yo
みたい
動揺
1700
まっ
閣議
休戦
##落ち
サイク
讃岐
##ベラ
官吏
流体
リヴァプール
ホーン
投げる
セミナー
高まる
復刻
炎上
若き
##III
Geor
ニュルンベルク
出願
スプリント
演目
隔て
騒ぎ
八幡宮
ムラ
人的
救い
良かっ
いくら
スティーブン
乙女
転倒
フォース
ジェン
当ては
赤道
ユニーク
アドバイザー
幽霊
##スラー
モナコ
届く
弱体
短歌
##もっ
by
中道
停泊
##バダ
保留
Mark
イグ
肥後
##チネンタル
Sec
全編
リベラル
シュトゥットガルト
停戦
言動
ウォーカー
うし
ロブ
イサ
そういう
駆けつけ
不具
仮称
基督
カンヌ
Robert
##クラス
ナイジェリア
ATP
ハラ
元首
四季
##チー
かれ
チェンバ
ロビンソン
カミ
架橋
稼動
米子
##lo
##AGE
##irect
ER
##ウェン
間に合わ
スチュ
メッツ
終わら
船員
走者
##目的
消息
##ka
クーパー
ふり
##深い
有権者
エッジ
体積
助演
優等
大火
スピーカー
くし
##ram
ポルシェ
ポテン
久米
劣化
役所
クイン
西尾
##づける
アコースティック
ケニア
ホーク
原動
愛情
色素
三塁手
冷凍
常用
通達
##ベー
上手く
遭っ
ヘルツェゴ
退去
赤穂
飲む
##フレーズ
伝送
微妙
イヤー
水質
真似
配達
きょく
判例
ランカ
呼び名
NBC
捕鯨
クランク
勝率
##小路
##半期
マフィア
リットル
親しく
##フルエン
ハチ
入線
ウズベキスタン
稼ぎ
台東
支配人
モータースポーツ
ひき
派手
辞し
##ストル
タイトルマッチ
BAS
パウロ
乏しい
市原
1849
チュニ
##ホル
Disc
von
いたる
慈善
富裕
呼び出し
健全
夏休み
##uck
##コウ
VHS
ソン
デリー
ベビー
説教
##ッグス
クン
軍令
ローテーション
アレル
使徒
学芸
溶け
シンシナ
ファイブ
Alb
下降
##ネットワーク
##スティン
大作
関西テレビ
伝播
ラバウル
隙間
##コンド
##サーン
##影響
##イルズ
ジョゼフ
授賞
ノルマン
オンタリオ
Best
反則
限っ
ラック
代名詞
強大
飛ん
##ロップ
取り囲
希少
自生
粛清
発効
エフエム
阿弥陀
包ま
壁画
十字架
##ラシア
##フォンソ
##eral
みん
大好き
躍進
スクウェア
ウサギ
マウンテン
外装
極限
キャンベル
草津
畠山
縁起
Ann
三国志
農耕
ちの
チャネル
帰化
レシピ
面白い
たった
充当
茶色
##aph
コンスタンティノ
児玉
陶器
##ワールド
##マート
##本木
挟み
受講
響き
Power
松岡
答える
読売新聞
##オープン
喜ん
都営
##ドライ
コイル
乗じ
照準
孤児
本紀
顕微
ウォルト
ソフィア
買う
遊牧
##短期
救命
乗馬
同種
注い
破片
##の間
カモ
隕石
##テック
レンジャーズ
書道
越し
##のう
不適切
ペトロ
ミッチ
##葉樹
ソニック
シンシナティ
##短期大学
バタ
憲章
OR
実子
公言
請け
##シンキ
きみ
ノック
尾翼
帝政
松島
海抜
渡す
EL
連鎖
東海大学
苦しん
渡さ
車椅子
不二
飾ら
カエサル
DX
孤独
接着
##ナイン
##亡人
文化庁
フェルナンド
目覚め
未亡人
アタック
そろ
レア
別途
##テープ
止まり
原告
金星
##ケア
##バンス
不幸
半減
##hone
##ンクス
##電気鉄道
浮き
1851
ビジュアル
溶解
軍部
主軸
見習
ジェファーソン
電報
##ブリュ
モーリス
バナナ
飛び出し
蒸留
書き下ろし
ヨシ
クレジットカード
プロトタイプ
Mon
カヴァー
カク
コソボ
コナン
参詣
##ライス
ソマリア
##ゼーション
トゥル
日比谷
葛飾
##シャツ
Cont
たど
溶液
点火
厚い
プリメ
ヘルメット
ナレーター
乃木
##ョー
インフルエン
受領
吸い
富士通
幕僚
指輪
渡航
配偶
##オブ
ハリケーン
こま
ドット
国造
##ピット
容認
工兵
##ウマ
To
セメント
##セー
##平洋
国史
増幅
本島
鶴岡
260
##out
##ille
吉本興業
借用
##ベント
サイレント
ワト
近傍
##ull
均一
総監
##バチ
厚く
反する
空挺
WWF
商売
無形
クレア
セク
四川
因む
いきなり
不具合
##ダスト
##ノイド
宇多
Project
便宜上
アーカイ
クィ
サタ
転々
##バオ
ハノーファー
##ろす
マクドナルド
全勝
##ヒドロ
##太平洋
ゲッ
川端
テロップ
清掃
キャッチフレーズ
ドバイ
県警
キプロス
Award
接種
編制
史家
造園
Soft
Wi
アストロ
エラー
##ral
MX
Val
異端
Club
顕微鏡
伐採
日経
馴染
##ブズ
AF
##半身
争わ
攻防
本殿
##タリ
赤松
Amazon
マナ
##aster
亡くし
##ゆき
環礁
覚悟
音色
ジェームス
リヨン
景勝
激戦
西山
##ouse
##ーチャー
パケット
宇部
##がき
le
警部
##ze
EF
ピュー
つぶ
聖地
委ね
祭壇
音節
コリ
初心
ブランデンブルク
ダッシュ
一転
初版
白血
視界
##ロア
クラウン
アトランティック
アラバマ
申し立て
常識
##コミックス
280
国文
弾丸
飲酒
いすゞ
ハッ
斬り
水溶
マスメディア
本番
ミク
余地
占い
九州大学
Si
バファ
意気
著述
車掌
##ダイス
結びつい
##コンクリート
別当
奔走
イナ
裏面
##ロニア
トーン
マッキ
美女
##ブリエル
受付
##使い
フランチェ
Don
欠い
204
開場
##アプリ
書房
短時間
国定
指針
細部
##ちゅう
##リエン
オスカー
興業
落ち着い
勧誘
熱狂
藤本
Tour
光景
すり
板橋
ジョナ
名古屋大学
##ヶ谷
Sal
イタ
実数
筑後
アイアン
議事堂
内地
嵯峨
消耗
祈祷
勇者
同調
代議員
二郎
リーチ
Red
レンガ
早世
この世
激突
砲台
##ボックス
つま
同位
成虫
##ビッチ
##ガール
1846
果たせ
##ブレッド
##ッシブ
べし
スケッチ
スチ
ネス
片岡
ラオ
惹か
製薬
同義
島内
使命
見込ま
発端
Life
ドミニカ
エナ
テール
##がわ
チョウ
プエルトリコ
##アート
##CA
マッカーサー
スナ
悪影響
大東
胸部
臓器
おこなう
補う
久保田
カツ
カト
強引
養父
##ージャー
なべ
##ホッケー
##ors
ウィンドウ
マーチ
ヨルダン
一線
解禁
あだ
偽装
##ワート
205
太陽光
パルス
基板
憲兵
##ital
張っ
スタンフォード
デニス
ジョーダン
ほっ
完走
廉価
政友
製法
選任
シャフト
##ンドロ
ヴェルディ
備中
合宿
難航
##ゴラ
翌週
##ップス
フォア
ジオン
日本航空
振り返っ
REC
ハヤ
数える
暴露
精製
テイク
パト
制動
御家
略し
##さか
レーサー
居留
預言
##サリー
##乗り
なんて
未成年
##関東
Group
波動
風呂
アルカ
刷新
点検
銘柄
コンタ
向こう
混成
親方
開会
##IB
エスパ
共生
大物
頓挫
島々
iPhone
レジャー
##ゾーン
Techn
古事
##sp
##サンブル
カント
##ティーノ
アクア
単身
多目的
没落
##リブ
養育
Port
早川
稲葉
楽しん
折れ
アッパー
乗船
何者
##ナーレ
MAX
ウィンター
チンギス
Tra
アリスト
下がっ
動か
見出さ
遷移
##カレ
聞こえ
カエル
千歳
##oss
以西
信州
国教
安心
解像
金利
##直す
1400
サブタイトル
ビザン
亀山
決算
谷川
##重なる
Rock
こなす
レモン
感銘
慣れ
山名
配し
##フスキ
ヘルツェゴビナ
あわ
戦功
開園
##ロワ
Inter
気付い
ミハイル
DOS
LD
レパート
河合
洗浄
肥前
若狭
##ブレム
##ンバラ
フィリップス
サウスカロライナ
クリーン
滑らか
発起
びん
ユリ
産物
ローラ
無数
あり方
##角形
##ript
##UND
Nor
華族
##コンシン
Vo
追って
閉塞
陣屋
##ビール
ブエノス
公団
千里
たまたま
##メト
1820
ZERO
バチ
遊歩
競う
フィッシャー
浪人
イヴァン
##瀬川
では
トランペット
ハロー
両立
恒例
晴れ
##サラ
エステル
本丸
コーラ
エメ
馬主
##ッラー
ホース
##ペンス
たけし
USA
童話
##サール
イエズス
チャーチル
ベンガル
後押し
究極
##レックス
自害
##張っ
西田
社会民主党
別冊
密集
カリウム
ジェイソン
土屋
織物
取り巻
API
パンタグラフ
二塁手
毛皮
##ージナル
##ラーレン
混血
ペプ
止まっ
邦題
ジャム
OH
両面
採り
結末
アルマ
スネ
有り
登用
必然
返す
##ニシ
##ety
GU
ゴースト
##ディネ
##urn
レパートリー
座っ
東名
##処理
カルロ
異議
ウィスコンシン
イスタン
付さ
演芸
紅葉
##シアン
##ンガン
ボリビア
コンポーネ
お茶
エステ
共著
##ael
ノーザン
当てる
シグナル
勝て
江東
貸切
##ris
##FE
##rol
プラズマ
ロドリ
短調
解き
##ッティング
##かれ
ファミコン
呪い
祇園
自発
取り扱っ
あつ
##っぱ
EURO
消極
白川
載っ
##ニヤ
解像度
両手
##fl
ギャン
リーマン
鉄鋼
滅ぼし
ケプラー
共存
##しゅ
バックアップ
間違っ
うどん
抑圧
タンカー
手数料
嫌っ
東郷
ストア
##デンティ
ペリー
##BL
勤める
カレ
クア
トール
##カール
スム
松戸
2022
ハイウェイ
カメラマン
広げる
エント
Champ
実弟
##サイザー
入試
岡村
スカート
ひょう
剣術
##ワークス
1100
##era
味噌
産経
ディビジョン
イズ
導か
生理学
ナイン
ボロ
##ha
回送
ボビー
##タケ
ウェイン
はや
呼応
川島
並木
死因
水銀
漁港
雇わ
誓い
部署
Des
##リオット
キース
シラ
ボウル
加茂
杉山
空白
遭難
ちん
アヤ
精霊
通例
飽和
高官
ブラウザ
鋭い
先立っ
##カメラ
建て替え
推し進
FBI
サックス
キロワット
ましょ
古賀
応永
##海峡
##直さ
ベルン
匿名
武官
現時
亡くなり
##ebook
肥料
ドレスデン
あだ名
官庁
##シュート
##ican
溶岩
ブダペスト
さし
反逆
##カミ
平城
来場
##では
##渡す
クオ
ファンド
イニ
ミルク
翌朝
従わ
速力
陰陽
勝敗
構える
##メンテ
Association
結社
レンジ
##app
ポテンシャル
NR
カンタ
直撃
補欠
##たく
##ダラ
##ペー
NM
なつ
前頭
誌上
養老
1843
ツーリング
恐らく
頭角
アーノ
家業
直訳
黒海
##線橋
トゥー
置き換える
ドナウ
ポロ
退位
クレーン
古今
解く
重なり
追い詰め
1845
裁定
跨線橋
万博
果物
育てる
鉱石
Trans
加増
焼け
フランコ
##キスト
Win
判別
旭日
##じょ
##天王
##アイレス
見送ら
オト
クエ
ヒスパ
油圧
##フレット
アニメーター
メロディー
JT
クレー
ケルト
##タニア
##かつ
ウェスタン
イワ
生駒
iOS
ヤー
出征
特産
##キャニオン
見なし
現時点
Em
割っ
埴輪
敗走
黎明
作り出し
サテライト
ブエノスアイレス
バックス
侍従
文藝
##ータン
ホームラン
クロード
寒冷
耕作
##ッディーン
少なから
TH
レプ
USB
陸海
話し合い
怪人
戦列
注射
##カゲ
沈ん
物価
請負
スターリング
ヘルシンキ
ランス
元号
検閲
浄化
##サイン
##急行
海水浴
ダニー
人力
踏ん
##テリア
ジーン
綴り
ブカ
有る
占有
悪役
##ゴメ
##ike
##シマ
出張所
デュオ
CBC
小池
屋台
##ッツォ
最小限
不快
実父
自覚
落合
行え
##ローグ
##lor
クラリ
同族
実効
##メンス
me
スミ
収縮
マキノ
ウィキペディア
SW
協賛
銃身
##こく
org
##TER
##ポリタン
リッチモンド
##フォルト
色々
言論
遊ぶ
鳩山
サラリー
ミュージアム
打線
最短
##ッツァ
ペーパー
モラ
小牧
総領
##ローナ
##チャート
催し
度重なる
ジャッキー
取り壊さ
スライダー
南岸
本能
コンピレーション
反復
軍政
##ディウス
うじ
桑名
義理
いわば
監禁
西北
インフルエンザ
軍務
##肉マン
警察庁
キン肉マン
エディンバラ
省庁
ストリーム
セーラー
rpm
歩み
氾濫
深海
画策
受け取り
いわき
枢機
硬化
速やか
1847
散歩
鉄筋コンクリート
なろ
乱れ
特務
バファローズ
スン
バター
リール
被爆
##中央
クロック
フロンティア
地頭
演歌
アミューズ
ハンマー
GDP
セクター
偶数
##ゆみ
##リアー
JFL
##PC
加古
少量
平凡
杉並
チャール
アンサンブル
Min
サヴォ
ドール
増援
有明
要衝
連帯
エンジェル
安保
##寄っ
##族館
バラード
東海岸
握る
追贈
飛来
返り咲
語学
##マリ
繰り広げる
県境
失格
廃校
松永
##イングランド
テラ
吸血
##付き
コペン
センス
眼鏡
シスコ
##ムラー
QB
ペナル
上告
罷免
##芸術大学
頻発
キログラム
思え
日数
##ヴィッツ
フリーランス
とどまり
公民館
VR
社交
##IZ
##曽根
やり取り
##タナ
##パード
##ents
オロ
ドッグ
独身
高台
##テロ
##inal
##ルドー
シンセサイザー
亜紀
四天王
学業
替わり
面する
甲州
##ese
クローズ
検察官
訂正
フェミニ
出番
##ラック
##レクト
1844
快適
明言
大通り
相場
##プレー
##ura
わたっ
諸語
分担
土浦
天狗
国分寺
##ージェンシー
エニックス
ノルト
弁当
##ジロ
##えき
カージナル
卸売
焼い
驚き
WH
WC
或いは
枢密
正則
自力
回廊
天野
身近
運休
##ートニー
##クトン
TM
##ren
##クリ
##ソーム
クロウ
##ific
オウム
ルース
江南
風習
##医科大学
##フォール
##uber
##ストラクター
出かけ
松前
機長
##シーズン
天理
##然と
se
9000
##リアーズ
イスタンブール
無意
フェデ
ゲオル
モノレール
店頭
隆起
##時計
天守
強姦
チェン
ポップス
ファンクラブ
Fi
バド
アイスホッケー
同窓
直下
##々しい
1832
ひかり
ビクトリア
唱える
##ッチェ
フライング
カルト
スモ
東欧
グルメ
##ニングラード
1837
ラテンアメリカ
いさ
ホロ
刺し
テック
##デシュ
##フィクション
##ush
1815
支払っ
検察庁
マディソン
James
SG
カフ
多摩川
公方
株価
致死
計上
1841
初心者
乗合
絡み
改易
##じみ
各局
園内
申告
足ら
トリプル
##クラテス
増す
気球
ニューイングランド
ヴァージョン
カージナルス
手当
コペンハーゲン
水族館
部局
笑顔
##ブラン
ケンブリッジ大学
Ber
CT
クレーター
レシー
入港
奮闘
着く
カサ
宿場
年寄
##ヤマ
強行
##てい
スタイ
日立製作所
サミット
圧勝
付け加
ボーカリスト
農学
##半球
Rev
グー
トロフィー
古事記
一応
泊地
##コーン
##amb
スポーツカー
本校
売っ
ダイア
枢機卿
下げる
二分
雲南
立ち向
アディ
主君
学説
服用
##ama
di
ゴート
敦賀
##REAM
Exp
##めき
コンポーネント
CN
浅井
着想
散乱
SQ
いよ
下る
##金庫
ウエスタン
キラ
##ーツク
##otten
どん
わたる
必死
祭礼
##グラフィ
ハッピー
下層
飢饉
下士
即興
村長
##IGHT
WD
臨む
##サイズ
##津川
##音楽
ゼミ
コンテ
字体
ロースター
Enter
ベンチャー
ロッド
##oot
鉄砲
ライス
みなす
Cent
たばこ
保ち
奥羽
##ano
インパクト
Soci
戦災
マーベル
ふさわしい
かま
フリート
サスペンス
タール
神楽
アイデンティ
1842
第一人
オムニ
大抵
書院
##LC
幼年
##30
##期的
アトレ
画期的
アマゾン
車軸
##80
##二郎
##テラ
1806
男児
ヘヴィ
王宮
重用
大麻
簡略
終着
郷里
ブルゴ
イベリア
ノンフィクション
コバ
##row
Jo
勘違い
##iver
##沢東
##ated
##ions
御前
光年
売店
双葉
平塚
フィルター
Med
神学校
茶屋
##コック
Fla
産む
面倒
##ユーズ
##ぼう
ファイナ
リュウ
宣戦
尾道
撮り
アガ
ラット
CON
亜鉛
共感
砲身
雌雄
##HF
老中
芥川
##ative
Mat
毛沢東
虚偽
風味
##そく
##デザイン
クルス
ヒール
震度
##シアム
第一人者
キノコ
提訴
生後
##ネグロ
ラベル
三塁
平壌
教習
10000
Mer
下落
細く
##ゲー
最寄り駅
不審
##ルドバ
吉村
里見
##研究
ペルシャ
貸出
アーツ
間違え
オデ
北斗
ジャガー
ベオ
ペレ
頼り
プロフィール
寄港
役立つ
殺到
譲る
ブルター
毎日新聞
##神宮
スキャンダル
トンプソン
公害
法典
アラゴン
送り出し
Reg
サビ
有田
見守
##ダック
ラオス
##gh
##メー
Mich
カド
城跡
浅間
スクリ
##ANG
作用素
RECOR
小名
揶揄
美しく
##キーパー
un
重心
##キンソン
佐久間
LM
笑っ
走ら
顔面
##ムナ
奪回
行先
##xy
211
David
乗り入れる
ジョルジュ
過度
ブルターニュ
SV
サファ
ツィ
1814
一段
##王星
フラワー
内訳
孵化
文京
薬品
##スケ
かたわら
女児
存命
復員
北岸
塩素
旧称
試行
##どころ
##DI
マルセイ
前年度
ニコラス
カスタム
低かっ
##きょく
メモリー
中身
構図
パーキング
##ストロング
ジョナサン
東邦
ルーカス
なぎ
民政
カルボ
相談役
##テュ
ディスカ
マルティン
##チョフ
淀川
##シナ海
練り
ユーラシア
傾倒
ギャラク
ドキュメント
回顧
東経
税金
平ら
源泉
管領
築く
要職
イデオ
オリーブ
タスク
ベータ
参与
1836
##OCA
ミリオン
ネック
##ジュー
原油
哲也
##コミック
幅員
深川
打ち切ら
##ラクル
かわり
街路
##すぐ
##井沢
DT
Kar
トキ
機甲
海中
##ざい
キャスティング
301
エルフ
可視
大成
建つ
ウォーズ
円錐
経理
辿り
福建
引き渡さ
エンジニアリング
FOR
大納言
椎名
##味線
##ライオンズ
KBS
Night
溶媒
物品
花序
##ロラ
取り外
マルクス主義
イオ
ロイド
添付
請け負
了承
賭博
ウェルター
浮かぶ
ブルゴーニュ
年上
アクセ
マクロス
##馬場
マクラーレン
ケーキ
Direct
新車
鮮やか
##lt
pl
プファ
一式
検知
甚大
線維
##モロコ
押さえ
低速
大木
##ero
マッカートニー
ミクロ
長江
頼み
アンソニー
付録
津山
##UL
もらえる
ガブリエル
北村
参列
連なる
##調べ
ブラザーズ
SB
パース
祝福
離反
増築
愛宕
DA
全額
##ジェスト
ジャンヌ
レインボー
Ter
志賀
捉える
文字通り
浴びる
赴く
フラット
850
エカ
副官
入城
年次
着い
先手
室長
築地
##イアント
だから
はた
ション
村落
解か
サーカス
1803
久々
滑り
##ヶ丘
1789
太政官
Time
信任
変革
アトリエ
拡幅
鉄路
城郭
沼田
##ブラハム
ヌード
山林
患っ
カタール
ヒート
土井
外出
推挙
##やさ
フィーチャー
バーミ
リプレイ
治め
畜産
近親
FIA
##ビウス
##ヶ崎
中継ぎ
琵琶湖
進駐
ウォーク
御家人
三味線
名作
##ヶ岳
アルカリ
パラリンピック
SHOW
天草
山川
点灯
舞踏
CIA
アウェー
##クティブ
マヌエル
Jose
聴く
もらえ
##起こし
花園
##ッガー
##rop
##んどう
アダムズ
City
Yah
入浴
尼子
感度
無断
##za
銘打
##ヒド
ジョヴァン
基督教
Po
Up
スカー
強要
##ウキ
##マツ
発熱
知性
立命
耐震
##クイ
nm
偽造
正徳
##ICE
アズ
パニック
ミツ
百姓
##不全
##ージニア
取水
グアム
ワープ
売る
ヴィー
邪魔
##ドックス
##一度
もう一度
1839
Ju
チョン
大沢
エレクトロニ
モンテネグロ
##ボクシング
乗り越え
ワーグナー
ゾイド
争奪
慰霊
那珂
パイレーツ
サンゴ
手伝い
##アカ
さだ
レフェリー
汽車
草案
##ブリテン
競艇
Dream
##be
ポニーキャニオン
##モロコシ
たっ
承継
立命館
トロン
壊れ
本流
河岸
ワークショップ
UD
ヨウ
望月
祀っ
ワンダー
##ヤーズ
タイル
富ん
らく
合致
書状
女子高
##IME
昨年
素数
##ミール
##降り
##ンスタ
セグンダ
ドニ
ミト
終身
##マーン
Ang
サイドバック
非公開
ラトビア
LAN
所沢
##イッチ
##ングラ
言い渡さ
プラットホーム
本庄
榴弾
##アイルランド
310
クリップ
ファッションモデル
Facebook
サリー
イヴ
年々
漁師
##デルラント
##カルド
1812
カブス
失速
漁船
白井
鍛冶
##アリ
##後円
前方後円
トウモロコシ
トレイ
引か
旧約
爬虫
##庁舎
##アーノ
ゾンビ
FK
ざい
頼ん
##連れ
カバ
##オロ
##enter
取りや
埠頭
症例
##ティックス
Lu
漁獲
##褐色
つくっ
Serv
NK
you
ども
エドゥ
ホイット
ビスマルク
アーノルド
亡き
同値
周防
雑貨
##エンヌ
列強
大軍
ギブ
多々
医科
教材
桑田
神様
降車
##づか
ナショナ
理科
con
プリキュア
アリア
上総
体質
立派
祭典
筑紫
農作
申し入れ
プリメーラ
ラボ
突っ
アームストロング
GA
輝き
##チレン
##ジャンプ
イアン
ホープ
加害
戦役
林業
説話
##UP
氏名
インタフェース
高砂
##いてい
バークレー
島原
恩恵
竹田
hy
二男
航続
ブース
ブリスト
##山脈
国歌
転出
ルマン
吹田
末尾
転生
明治天皇
こうじ
未だに
儒学
子女
安い
真剣
am
ロジ
召し
歯車
肉食
380
Mor
Rotten
修業
所定
##スキー
##ブー
##ニエンス
ひめ
従え
登り
##ずみ
取り締
パスポート
たき
即ち
国名
商法
曳航
祝う
青島
東京電力
アレクサンドリア
パトロ
先立ち
おし
マロ
決闘
目前
1835
ふう
長大
風力
アイディア
落とさ
フットサル
American
アソシエ
Bu
##アール
敷か
Tomato
たかし
##YA
##vent
就き
村人
番外
聴衆
謀反
リソース
大腸
奇数
キングス
立命館大学
Hy
トマト
側室
聖歌
おば
ニッケル
モト
延べ
私有
Paul
パット
リガ
細分
フィニッシュ
ヒューマン
レジェ
用紙
サラブレッド
##ネーヴ
ネイティブ
ロスト
##unes
##シェン
閉じ込め
Suica
ノルマンディー
ホルン
小西
##きゅう
##武天皇
譲り受け
ナイル
生計
転戦
##ゴロド
およぶ
こだわり
##uel
##シェヴィ
出せ
単線
カ所
持参
##カワ
ハイデル
スクロール
デラウェア
net
商社
隠す
電機
##イェ
##ばり
##ストリー
##ティション
アレルギー
遊歩道
大平
掃除
水位
パルマ
ホイッグ
かさ
緯度
義経
多量
ディスコ
スルタン
重なる
プラチナ
魔法使い
スチュワート
GC
新宮
紫色
##ロギー
##マスター
##リスタ
気に入っ
クラリネット
かご
やつ
落城
プロフェッ
保た
結集
Tw
フレー
佐倉
宇佐
##テルン
高倉
##ナダ
ニーダー
##ield
代々木
健一
命じる
架線
青梅
注入
清算
石巻
跳ね
##ij
バハ
困窮
##カーナ
大まか
##ウォーキー
船首
随時
ジャングル
vol
アッシュ
兵隊
田畑
組み合わせる
デンバー
血縁
逓信
##ブレー
##ンチェ
振るわ
Yahoo
カネ
東京工業大学
Hen
筆記
秋葉原
続出
フィー
1801
コンビニエンス
とどめ
ヒドロキシ
ミケ
賛否
宇和
薬局
ミルウォーキー
総領事
写し
ユン
公平
ソユーズ
助監
池上
静脈
##cript
決心
立教大学
##ビオ
340
採算
谷口
マヨ
なんとか
ソルト
上原
ねる
デカ
デパート
文人
王冠
##ディション
西武ライオンズ
個展
##温泉
ギャップ
専業
紀行
驚異
チャーター
1831
助監督
六本木
曹洞
配当
Company
バリアフリー
doc
一目
経典
要領
ゴールキーパー
教職員
夜明け
香取
##BF
##フライ
ファイン
ほんの
抜ける
群島
類型
##シュト
取り上げる
イデオロギー
ダメ
渡河
荒れ
##EP
マルセイユ
Tomatoes
移築
##aj
生き延び
##コミュニ
エミー
交替
増田
積雪
芳香
英名
速報
酷似
セルゲイ
キッズ
ヤクザ
日産自動車
修繕
封建
##AWA
ファイア
##ason
##キシン
テロリスト
いり
ポーズ
宇野
銃器
##ビック
##サイユ
減り
##県立大学
兼ねる
市政
救っ
##ience
##マイオス
キーワード
下がる
今治
具合
同郷
微小
断り
##ッショ
##プタ
##ye
1818
Spec
PAS
##殺し
##ローラー
生き残り
ピクチャーズ
##IST
##産省
エディション
UR
ラド
##ジスタ
##受ける
いち早く
室内楽
ノウハウ
イレブン
とれ
変貌
老舗
財務省
ライブハウス
実録
察知
DeNA
リグ
多年
疲れ
軍備
##放送局
ギルバート
みこ
土岐
ピレ
刈谷
壁面
幽閉
愛さ
##たん
##書房
家政
弾頭
養護
コンコース
打ち破
ネバダ
月面
薬学
ジュネーヴ
安堵
##やり
1821
委嘱
ウェルズ
チューリッヒ
アヴェ
整っ
##製造
コードネーム
エキス
フランチェスコ
Fri
Rich
ドレ
fe
共闘
黒澤
##決め
負け越し
ヘルマン
戦記
黒川
##ティコ
バッド
尋問
##tain
サイパン
ゆえに
潜伏
脂肪酸
奉公
覆い
観覧
##チカ
##チックス
##ery
オックスフォード大学
関白
みなと
堀川
理性
##yr
##GS
士気
クラウド
Pi
Sol
わし
##11
グリッド
放浪
最前
##ウイルス
キリン
合間
聴覚
ガルシア
エンタテインメント
門前
かわい
Stre
別人
叫び
大師
随筆
##ポジション
シャツ
##ney
Hi
伝染
帯域
破れ
脊髄
酢酸
##ッカーズ
とらえ
長良
##討ち
225
江戸城
カラス
上段
五月
企て
噛み
産ん
WEB
トイ
大船
従前
比叡
パンフレット
囲む
星雲
東国
貯金
欠か
私生活
シリアル
##スン
立ち並
風土記
南洋
ウォーレン
ジャンクション
明神
残骸
聞かさ
閉校
プファルツ
高槻
登る
マッサ
規律
持ち込み
Pat
アユ
ゴロ
事柄
材質
公然
モリス
仏像
赤十字
軽井沢
アフター
##レコード
透過
コンプレックス
##berg
ゴッド
北見
国司
要約
誤認
返答
##イスターズ
BP
ひさ
バトラー
ピョ
前輪
幕張
知多
曹洞宗
ボーン
今年
平民
当面
ジョアン
コースト
UK
埋立
ベオグラード
図柄
方位
電極
##ナンデス
恒久
断ら
##ミュー
##成績
メソッド
仲裁
俳人
抜け出し
Il
けれ
旧式
栄光
##映画祭
IF
UTC
贈り
フィード
デュエット
シュトラウス
講道館
飛ばし
##まって
見つから
ぼん
デリ
ヒメ
出塁
霊場
Sing
満期
素早く
TOP
一夜
彼等
藤子
光子
在庫
片山
##60
OK
平山
清国
降る
##ico
##リエット
##国際映画祭
der
すば
##ナリ
組み込ん
##去ら
チェルシー
ピート
リチウム
北アイルランド
時速
浙江
##道具
リスボン
農学部
万葉
##スクール
さよ
投影
配線
1838
##チコ
スペンサー
書き込み
ウリ
狩野
##テレス
##ギリ
KC
交友
##らぎ
##ional
デュアル
黄色い
インテリア
収支
一瞬
手形
ディストリ
醍醐
##ASH
いつか
容積
羽根
離散
##ザック
UFO
洗濯
##ベスト
##天候
引き渡し
ジェル
フラッグ
Fire
わい
ベール
##ella
ハビ
創出
和睦
汚れ
##ior
##あげ
オースティン
プロフェッショナル
ギー
フランド
ミカ
##CH
アクセル
帝位
帯広
##牟田
買い物
倒壊
志す
歌声
通す
好成績
栗原
乗り場
1810
ロンバルディア
フェルディナント
##じゅ
##文化
ユーモア
Thom
伊集
ありが
マグネ
##クティ
##キャスト
あう
勘定
##ヴィング
優しい
岩倉
頭蓋
##イール
クジラ
繋ぐ
##レクション
##マニ
同志社大学
サラリーマン
急逝
水没
送付
長者
##メガ
コックピット
無敗
親しみ
per
ハイス
全力
麻酔
##ファイル
もて
同館
##ホフ
シャッター
マド
矯正
##RO
ブレーメン
映し
水車
ネーデルラント
業態
##プラノ
Cap
トリック
図形
水軍
久留米
マラー
劣勢
誘発
ハンセン
日蓮宗
渡来
アトラス
卓越
態勢
結党
Sil
ボナ
投降
紡績
警護
作り出す
見立て
##ONE
Sun
Arm
ph
アザ
アップル
Ap
ウシ
ブス
書体
##ex
ナビゲ
##変わり
Bas
ゴス
サザ
マキシ
欠如
メトロポリタン
企図
伊那
内政
温帯
防備
##ファル
石灰岩
UNIX
ロータス
Alex
ロート
プロット
ディーン
スパイク
1790
もも
監獄
直属
福知
Sam
ペドロ
ポト
素人
##ンパイア
PH
手作
甘い
##止める
007
フレッド
##INAL
和歌集
あけ
コブ
没する
編み
脂質
遠江
都会
##ボス
##ense
スティール
暖房
##ニェ
Mart
PM
レガ
課さ
下士官
LINE
iT
オルタ
利害
宮川
消す
執り行わ
ブタ
プトレ
好投
Type
円谷
大工
新橋
移入
隣国
ステータス
##リニスト
1833
Tok
新鋭
城山
##モフ
取り付ける
RECORDS
干拓
房総
##ッツィ
ティル
気象庁
イット
客船
小柄
贈っ
マクシミ
倣っ
履歴
旧名
相まって
待合室
仮設
吐き
天地
野心
降っ
院内
願っ
##ミド
##ブロン
##強く
ディック
ウド
硝酸
転任
シマ
惨敗
##チューム
ディーラー
##仮名
ツリー
前任
煉瓦
##むら
ちか
八郎
失望
楽しい
離島
##ジム
Wr
懐疑
##ハーン
アレクサンドロス
難い
##シェヴィキ
Pal
選曲
鳴き
商学部
堀江
福知山
上智
冊子
平井
カリフ
武者
生家
農産物
伊集院
DB
信条
嘱託
薔薇
テクニカル
デア
ミール
供述
##マニア
##メド
アステ
法規
音速
もとより
まとまっ
室蘭
おま
念願
羽毛
##ちらん
ベネディ
スレイ
リサーチ
動的
囃子
熟練
##bur
##ham
##製薬
##ずら
##つう
##ATE
ISU
分光
叶わ
終日
若しくは
##しめ
##シュヴァ
子育
##グモ
子育て
OEM
かぜ
天竜
補修
##YP
コンチネンタル
感想
渤海
神事
表れ
##リータ
1793
漬け
起草
チャイルド
環境省
長き
ショーン
##トゥー
レオナルド
フランドル
パク
##てん
傷害
受諾
紫外線
ベンツ
廃墟
がら
Str
のぼる
叙爵
岩波
曾孫
##ガード
はな
ガイア
仁川
転入
コントローラ
やってくる
ちく
##lin
##イスキー
そちら
スティック
メンフィス
時事
社格
花弁
苗字
退治
オラ
受給
沈黙
##its
戊辰
ブリストル
戊辰戦争
ヒルズ
一言
両用
心身
田口
ロドリゲス
入閣
小数
##ンディ
チューブ
打球
改める
Lib
シノ
バント
法名
深度
絶縁
試料
五島
否決
復古
##着く
##ユニット
ヘレン
##データ
フェリペ
成形
##カープ
新居
過失
##mun
ジョヴァンニ
Blue
エヌ
コサック
内紛
掛かる
転職
##東洋
フィッツ
グレゴリオ
アセン
##面目
フレッシュ
ROCK
油田
そっくり
レッズ
##エンター
##サキ
学期
志村
捕え
松阪
カビ
バース
因果
宇文
戦況
気味
アスレチックス
しり
汚職
震源
##IF
##じゅう
##ARS
コスチューム
苦しむ
トータル
レズ
受理
名高い
欠く
財源
##タム
ティーン
図鑑
岩田
##分ける
講堂
一座
文言
from
くみ
年数
独奏
##ボルト
1834
King
中略
八尾
絵柄
##振り
アルフォンソ
ヨン
脇役
開墾
##ビート
##かう
##生命
ハイム
募金
太い
触発
買わ
##スタイン
ステファン
プリンストン
ざん
##BN
教え子
ハイデルベルク
修飾
学制
安く
対等
盗賊
薨去
Cal
かじ
GPS
大雨
局面
山上
抗原
##ヒム
インスタ
Instit
巡業
西園
カレンダー
University
縦断
署長
花崗
##の内
##倒し
リーディング
国際線
由紀夫
下田
に関し
ジュール
篠原
##広島
ただちに
ステッカー
チャップリン
テムル
厚木
紳士
組長
長方形
タックル
バシ
遺骨
##メア
みずほ
プー
円滑
届出
##建設
ファウ
ジャイアント
なれる
雇い
骨髄
##カラー
##ny
##掛かり
##レーベル
ストリー
つなぎ
自律
赤城
##ドキ
##va
マリアナ
トリー
##レッタ
ディン
##ッチン
ローマ字
バプ
構文
残せ
腐食
情報処理
プトレマイオス
官邸
##ガールズ
News
もろ
れれ
優遇
監察
##カナル
ニクソン
賜っ
カマ
店内
役柄
拒ん
電位
##ジスト
##離れ
ヴィラ
グラハム
いざ
マハ
代金
盗み
萩原
グルー
モノクロ
島嶼
プライス
Song
よら
##ena
ワンダ
審理
##がみ
##イスター
エクア
カヤ
垂れ
館内
はじめる
ペリ
ガンマ
中途
啓発
埋める
藤岡
##ival
ミッチェル
ギネス
団結
嫌悪
##of
菩提寺
##ケース
##屋敷
##馴染
プレゼン
スチール
セビ
完備
相次ぎ
推し進め
寛容
パスワード
パワーアップ
ミッキー
メーター
至近
苦痛
身柄
面接
##ロポ
##フィル
1825
さかのぼる
Champion
残党
##rich
##ema
つて
##エティー
##去っ
将軍家
##ガイモ
ヘルス
心不全
格付け
彦根
闘い
風速
分水
新約
本稿
生む
##組合
ぐるみ
謙信
##ランプ
1792
キラー
君臨
検挙
終止
##フー
256
du
コリンズ
ホッ
島民
日テレ
限度
##VID
メモリアル
ノーマル
##ボーイズ
後醍醐天皇
スエ
心地
熱海
##press
ME
ケビン
京極
細工
取り消し
EV
Game
使い方
ピョートル
唐津
携わり
税務
ターナー
クーペ
セグメント
ボギー
##タキ
##ぎょう
ジョイ
Michael
ミゲル
兄妹
間際
伊勢神宮
バラク
行軍
親密
##ぐり
スタンプ
##ファクトリー
##ALL
フレンチ
万国博
冷蔵
殴り
粉末
養女
##PA
1828
庶子
ローラー
ロペス
開ける
パーソナリティー
産経新聞
Bre
レニングラード
軍医
ジュース
さわ
切符
岩国
皇女
##ンプシャー
ピル
乱闘
新鮮
星座
甲賀
##iew
ハイチ
原子核
バッジ
マッケ
リハー
疾病
直系
終末
蒲生
##ipp
##メンテーター
Tri
ミラン
ワイヤ
舞い
込ん
配合
黒字
それに
三菱電機
iTunes
ガンダム
寄席
通販
精神病
バルト海
いや
ムッソ
払っ
桜花
注力
貸与
遊戯
##ミンスター
天台宗
操る
許す
##キュラム
Li
吸気
市議
整合
筑前
##アット
##99
アーカン
サイコ
追いかけ
ミニゲーム
士族
家事
落札
銀貨
ハイパー
##モンテ
下回る
イルカ
リハーサル
吉備
流布
浴場
規程
##ware
形容詞
エグゼ
付け加え
PT
コールド
実名
知覚
有名人
くす
マッド
変種
晒さ
知恵
皆無
コロンビア大学
角川書店
マスコットキャラクター
レノン
屋号
聴き
##li
LA
内科
##べく
##osa
全日
##バスティ
ネブ
##商事
##ora
コイ
切腹
下車
意外
軟式
ダイジェスト
吉祥
襲来
野手
竹中
酸性
なるべく
##las
うさ
エプ
コメンテーター
神仏
菊花
##ヴン
##eration
東大寺
タブレット
アーカイブ
Lou
内親王
##ポタ
フォレスト
ふれあい
ステアリング
喫茶店
法務省
裏側
##ナモ
上面
中納言
IG
土着
夕張
ジブラル
光度
江川
潮流
穏健
できれ
##ザンヌ
Sw
セブ
ハス
議院
##出る
XX
杉浦
機首
##ワル
##ボイ
疫病
ふたたび
アインシュタイン
左京
幼馴染
麻布
##uss
##obile
積み重
オムニバス
つう
嫉妬
換え
クラウス
ヘリウム
マタ
分社
民進党
遠山
##ポス
##ILE
コンペティション
パウル
太宰
チュニジア
RK
つば
ベニ
客演
標榜
蒲田
運動公園
##ural
1816
崇敬
馬鹿
オルガ
ハードル
コンスタンティノープル
アリストテレス
前方後円墳
id
name
はっ
エラ
毎時
##ギル
TW
染め
最大限
エスカレーター
RD
スカル
ホールド
一向
刑罰
育児
行け
とうき
取りやめ
乱入
窃盗
視線
##ツジ
##キュラ
一味
山西
文科
明白
母子
父方
自決
##レビュー
苦しめ
大黒
店員
火葬
取り決め
##ugh
Dan
XP
長浜
##リケ
##ッチャ
徳山
##んと
広島東洋
広島東洋カープ
ギルド
ラルフ
人為
切ら
捕ら
武藤
頭骨
##ニム
##バット
果たして
矮星
藤村
被弾
ジョシュ
コンビニエンスストア
さよなら
ゼウス
ペダル
値段
坂田
バーミンガム
ボロー
鳴門
##サッカー
##わう
##unt
宮内庁
猪木
##ロース
##助け
フィリーズ
こうえん
##ヴォン
ラファエル
合祀
快挙
描画
裏付け
伸ばす
別個
ワット
発布
コンタクト
爬虫類
TP
アントン
ガム
多賀
いずみ
ワイヤー
ガダル
ケイト
シティー
正午
腎臓
##ティカ
Ke
##der
##cy
##っ子
条文
レイテ
西日本旅客鉄道
インスリン
がたい
テラス
石見
語尾
##ビルス
パラグアイ
脊椎動物
FU
前夜
救難
SON
実物
府県
戦わ
直人
##込める
##ヘビー
思想家
大本営
熱中
遊ん
1807
移り住ん
光沢
吉岡
植生
##aut
##メキシコ
##出そ
MON
史学
大仏
全国ネット
カーボン
カロリー
ダイナミック
下賜
水槽
石狩
##せつ
花粉
1804
ケーニ
探求
とどまら
分譲
機内
正平
##向け
##ets
カリキュラム
480
##プロセッサ
僅差
妻子
迷惑
##文社
蛋白
##WF
##そり
ひま
マンス
Ant
ボア
戸塚
旧道
視力
##21
インデックス
##エロ
アルテ
フィット
コンビニ
VF
侵食
故意
銃弾
アルブレ
ニューギニア
ペナルティ
アイデンティティ
Dis
TT
インフレ
やっと
ムッソリーニ
ガダルカナル
組曲
酵母
##条件
取り出し
高野山
ブリス
叙事
ジャコ
加古川
パトロール
ワースト
カウンティ
極度
繁華
##ブルー
かかわる
ヒューズ
##リド
滅ぼさ
入間
咲く
専ら
ホームスタジアム
さんま
問い合わせ
人造
坂井
沈め
破ら
クウェ
満塁
芦屋
##プラス
妄想
明瞭
##ody
山村
筒井
失策
小室
手腕
鍵盤
間近
##witch
Out
直ぐ
通説
##ベロ
ベネディクト
テント
バーンズ
ベンジャ
出所
撮っ
給水
刺さ
挑発
沖合
製紙
身代
飼料
##ーザ
ファシズム
ロックン
1776
エンタ
中絶
充填
命題
水量
竜王
##erv
ストライク
WOW
パチス
二度
有望
##デヒド
ISS
とどまる
コンパイラ
元服
なくなる
カクテル
ジブラルタル
皐月
種々
##チュード
バンダイナム
二度と
DREAM
越冬
遷都
Kn
新町
花崗岩
広まり
連発
重症
阿武
##ツク
##ストレーション
インドシナ
エドガー
HM
休み
反感
陪審
騎馬
ニューメキシコ
Max
水晶
##げん
マネージメント
デラックス
オアシス
ゾウ
八代
更生
脚色
##ole
##かも
##atch
タカラ
公文書
同線
是非
##ペース
##酒屋
儒教
ブラザース
##ナンシャル
かえって
不祥
##ニッツ
##弟子
エアバス
ギャンブル
施す
給料
802
1824
上智大学
横田
絶大
試験場
ホワイトハウス
Euro
シング
##ウオ
シュト
西園寺
年貢
生還
##シャトル
書き換え
グラスゴー
Vis
スレッド
ポツ
準急
##ャルト
##しゅう
引き出し
##ガスカル
不便
商事
神輿
美味
##ノワ
##バイン
##高原
##ates
シェーン
キャピタル
不変
回航
夢見
富岡
愛用
##HA
##ディオン
ウィズ
大気圏
千秋楽
プロパガンダ
マダガスカル
mph
親しい
飲ま
知らせる
国税
##eng
カンヌ国際映画祭
##ritic
バビロニア
エタ
騎兵隊
サメ
夕刊
客席
払う
備後
既婚
チャリティー
##ヴォー
サルデ
ラピ
内乱
畿内
ジュラ
切り替える
シリコン
推さ
水利
課せ
##ファーム
##伝え
フレンド
コンパイル
外壁
インストゥル
未定
湿度
すぐさま
370
Phil
ないしは
位階
直立
スピーチ
プログレ
まじ
アングル
網羅
グレッグ
即時
根岸
活字
繊細
長子
##ビリティ
##ラング
アライ
創価
地雷
益田
貫い
Class
ばやし
不服
除名
##ACE
ルーク
冗談
義兄
ドロップ
PRO
FOX
バングラ
新庄
牛肉
登頂
ベンジャミン
件数
前座
吉原
##持つ
##ディーズ
ブール
流星
##ARA
クリック
ツインズ
側線
##ゲルス
フランシスコ
起こら
##チャンピオン
ランカスター
比定
綴っ
蒸発
サンスク
セロ
ヘレ
媒介
被疑
覆っ
取り込ま
1829
タナ
何故
明智
覇権
##duct
##レアン
ジグ
ボリス
専売
小路
斬新
マグニ
アーカンソー
HC
MAN
サンプリング
建設省
手伝っ
JF
##ces
##70
##ウィウス
1791
式内
贈呈
山口組
イデ
ヘビ
随所
神戸大学
##ipedia
サルデーニャ
一夫
以東
呈する
説く
##ウィッチ
セーヌ
マクシミリアン
##ぶし
ハーグ
te
スライ
パッチ
新制
泥棒
銅像
##ーナー
パラオ
DFA
モニュ
四肢
挙がっ
##ゆう
いただ
ゲイリー
ボトル
飛翔
##覧会
##チェル
世に
総局
##IVE
##新田
シンフォ
パイプライン
ワラ
応力
ステファ
不祥事
勧請
##インタ
エンブレム
おもちゃ
初旬
寄宿
小石
Corpor
一変
転覆
ビザ
光明
平戸
##マウント
##着陸
##ima
1813
ガイウス
ロッキー
付か
併記
下方
ダーウィン
キューブ
Sport
##ゴメリー
げき
まわり
匈奴
直行
アクシ
スクラン
エクアドル
宿舎
教訓
斡旋
有能
##カース
レイカーズ
アワー
臨済
##本松
##伏せ
ジャガイモ
##endo
ペーター
日吉
洋楽
牽制
瑞穂
トレイル
クォーター
おは
アロン
右腕
大道
譲ら
##バッグ
切り替
ひどく
ポーツ
告訴
放流
本誌
蔓延
##ball
Ear
シス
断続
新編
##レンツ
富豪
##ワナ
1808
木曽川
パチスロ
お気に
リサイクル
樋口
##ret
万国博覧会
さとう
オホ
水谷
湖北
講じ
各部
枢軸
アンカー
Radio
お気に入り
Wal
なが
常備
待避
暮れ
調布
1590
成り立っ
Count
ノヴ
##ンタン
第一高等学校
メソポタ
##ittle
Gal
##たいかい
コスモ
ピックアップ
ほし
伽藍
叔母
榎本
取れる
大倉
爆笑
ニューカ
少年ジャンプ
叙事詩
##フォート
##40
繰り上げ
ヤギ
二塁
居る
恨み
##ズィ
白血病
エリス
覆面
##ウアー
##ツネ
サンスクリット
JO
弾劾
テッド
戦乱
ストレ
フェン
実兄
心筋
金貨
パラダイス
健在
政変
有線
茨木
##ナリー
##ボラ
##ベト
ハリソン
ヴァイオリニスト
##mann
Park
光源
炭化
租税
軍機
メソポタミア
よみ
くう
ひな
亀裂
担任
盗ん
クラッチ
##シャイン
Store
薬剤師
デート
ヨット
呪文
学力
首領
##キナ
ディヴィ
アドリア
RB
市外
頼ま
##ブレイ
受け止め
##ったり
コレクター
参事官
宮司
正直
湖畔
配さ
アンゴラ
ランニング
上人
曲面
##武道館
日本武道館
ボローニャ
化物
博文
##ミオ
##規則
##aka
一様
欠席
目の
賀茂
連接
##cess
##ズラ
Of
代償
アンコール
追い込ん
オシ
ブーツ
動植物
大泉
巨額
##カルタ
モンロー
公主
子宮
取り入れる
ベット
目玉
苦情
飯塚
##リックス
##ヴァンス
付き合い
コントラ
バチカン
信じる
擲弾
習い
膨ら
##たち
##AE
スペック
主観
明朝
板垣
車輛
持ちかけ
新城
##シウス
##平野
スーパーファミ
なさい
消防署
Big
はめ
シダ
元祖
加水
林道
瞑想
確執
##カタ
206
Thomas
浮遊
開基
離さ
##ada
取り巻く
病床
糾弾
##先端
バーバラ
Charles
不規則
相性
1795
Ev
Fre
あす
ルキウス
執る
##之介
##電池
インフ
ジロ
三陸
観賞
手足
稲垣
##ザイク
どうしても
tra
敗者
経口
##ろしい
##レーナ
##str
ツイッター
伴わ
破裂
讃え
##之島
コンソール
カタカナ
エレクトロ
##スワローズ
新川
本庁
流量
等しく
トラスト
さほど
##ヒェン
グラブ
思い出し
便所
和音
密教
既知
略さ
非合
ポーター
ヴュ
両院
応急
オンエア
一人物
Tシャツ
年下
税率
##神経
##遣い
##ントゥ
ウィング
バンダイナムコ
VV
##ティンゲン
買い取り
漂流
直樹
貫く
グリル
厳重
嗜好
運輸省
浄土宗
RAD
さと
ギミック
立山
見い
違和
ATS
ヤクルトスワローズ
アイゼン
モニュメント
ゴット
テンプル
トレン
但馬
序文
秀忠
##エージェント
スタック
##ジャック
いとこ
Na
かお
来訪
比重
課金
シュミット
Metac
散布
自粛
##olf
サハラ
セオ
ビア
岡部
カーネ
Af
pH
予科
左腕
石山
##のり
亀田
例え
読み切り
ドミニカ共和国
Miss
古文書
甲殻
高値
空い
関門
##語大学
同化
要人
闘士
1802
##vex
手助け
業種
窮地
菌類
ポールポジション
農薬
最前線
Hol
ウミ
山々
胎児
訳語
足跡
イェール
キックボクシング
HR
リーフ
オーロラ
乗り物
インディアンス
ボンド
リーズ
華やか
##マム
ムン
捕縛
降雨
##マック
1805
加速度
GNU
値する
北川
思惑
行こ
##トップ
エッ
増発
常盤
汲む
述懐
Championship
ハク
ベック
勇敢
坂上
##保安
プラトン
Studio
WHO
がる
侮辱
舷側
遠方
長兄
##マイズ
Good
Ca
豊岡
##しか
チャット
ブルジョ
##ters
1819
フリッツ
応える
皇位
議定
鍋島
フェンス
##educt
Ze
エージェンシー
場外
歌川
##ヘイ
はじまり
ぎん
坂口
前漢
音波
ディズニーランド
グラー
公子
登っ
##ウリ
八百
英訳
ナラ
##体育大学
インバータ
##シャス
##GBT
埋蔵
壮大
小中学校
1783
チャイコフスキー
モレ
取り込み
徳間
無機
降雪
##カライズ
##ドライバー
ノリ
下がり
家中
##ular
inc
アッバース
HO
Lab
マテ
リカ
済む
##IAL
##真宗
##OSS
##aint
##デザイナー
Free
多角
撃た
朝夕
返却
浄土真宗
断定
日時
開削
##放し
1794
PRIDE
着色
##リングス
365
ジーク
メラ
案件
阿南
ブルボン
発起人
おび
ウス
リップ
巫女
##ジャーズ
ギャル
Metacritic
内面
綱領
託し
Grand
ブレン
巡査
序列
江蘇
独学
眺め
石造
##hr
##いちらん
208
乗り込ん
1822
エレクトロニクス
イシ
大岡
##uch
##ュージョン
水溶液
TA
原宿
大明
陸戦
なおかつ
235
サンティア
ソフトボール
リモコン
エイト
ベリ
川村
真面目
ダライ
ルソン
高射
##ワイン
トロイ
ガーナ
北山
念頭
##太后
##続け
第一線
うつ病
sc
タイト
随行
##ボート
ステート
##ビーチ
回生
奉天
鳥栖
##こん
ベストナイン
##erson
クロスオーバー
Ob
ホフマン
中西部
ミック
体裁
屈折
超越
##リーンズ
グレートブリテン
アンソロジー
htt
スノ
常駐
操舵
眠り
Society
等価
##帰り
ネガ
中距離
連日
連作
##外国
ツル
悪かっ
沈み
シュテ
ノヴゴロド
宴会
##着き
関東軍
##obe
1582
おさめ
ロジャース
井伊
大々
帰順
溢れ
バングラデシュ
大々的
とこ
サボ
亀井
変電
##の中
##リーフ
コーディネ
アサヒ
加担
勤労
大文字
狭山
知見
童謡
紙面
義昭
豊前
##べり
209
システムズ
ちり
アロー
ノーマン
メト
土台
悩ん
推論
##セナル
ダイオ
ポツダム
ザルツブルク
市庁舎
気管
隠岐
リアリティ
マインツ
バッグ
同情
戦勝
異教
自慢
花嫁
##olution
アルブレヒト
Gi
ルク
捧げる
分隊
床下
##AMA
やりとり
きよ
水着
逸脱
除隊
Del
やし
テトラ
野望
ランディ
オスロ
リラ
不倫
信奉
爆雷
ミステリ
ハッシュ
群衆
##スパー
モットー
血圧
風潮
シャム
##ander
JBC
ズボン
熟成
##ウェーブ
財政難
年中
##タカ
カッコ
タタール
良質
##トラン
スーパーファミコン
IW
欠番
洋上
銚子
##ンタイン
1826
違和感
tr
肥満
##IK
らし
均等
一般に
クレタ
根拠地
サンティアゴ
レキシ
入江
排泄
果樹
霧島
休場
内海
岸和田
秋月
##ンドゥ
受け付け
イネ
開示
##行為
##プロダクション
ごみ
朝日新聞社
バーナード
IOC
山王
真ん
黒星
レーガン
コロムビア
Elect
Wil
ox
有意
覚える
##OME
1817
会期
散見
##ki
デューク
Roy
WS
三沢
シネ
戦犯
海南
レジスタンス
クウェート
インストゥルメンタル
漢文
##bps
##コロムビア
Joseph
ラード
橋上
ボケ
生母
キャリー
##ublic
足らず
川西
攘夷
本宮
直交
興し
アンプ
女子大
##外国語大学
つめ
外傷
1780
ドーピング
後手
##ンバーランド
ロングシート
ヴェルサイユ
Center
##by
日本コロムビア
##ステッド
##キュリー
青山学院大学
##リオス
##スラフ
やむなく
##トム
へん
よかっ
ソクラテス
手首
白く
##ensis
##earch
ペスト
ラル
ラビ
司る
重慶
San
ft
あず
はつ
健闘
##開き
柔らかい
cur
再起
振っ
田代
##ダコタ
##シーズ
##ずり
##ファイターズ
履修
めぐみ
クリエイター
George
クルド
サック
元就
右舷
帝王
##ナビ
Bel
向ける
大理
文体
疲弊
チャック
まずは
##っぽん
原動力
宇和島
大理石
彩色
ウイグル
オセアニア
寺田
模範
ロワール
予め
名字
滝川
エイリアン
ボルドー
髪型
##テア
##ヌイ
212
##じょうせん
デフォルト
秋元
試し
##ヴァール
向かわ
足首
##ザメ
プロトン
組み込み
関西大学
Corporation
みえ
リターン
救わ
町議会
##残し
なくし
真ん中
ラーマ
他界
喫する
気づき
インディアナポリス
小浜
欠乏
温室
タク
専制
詠ん
語族
プロレ
##レンズ
如く
##ンデ
##マッハ
##シングル
建てる
使い分け
Street
かず
みゆき
悪性
戦績
貯蓄
オリオ
おろ
先立つ
##irst
スルターン
##テーヌ
理工学部
おかし
嘆願
揖斐
木戸
精鋭
遠距離
なだ
ぶら
##さつ
1823
SMAP
JNN
May
スワン
ドッキング
安房
##フォーマー
主計
##ティヴ
キャメ
バーゼル
セール
頭痛
海上保安
コメディアン
##ホールディングス
フセ
枚方
沢田
真正
集客
Arch
見習い
avex
ps
やき
叫ん
続投
遺し
##FS
ロッキード
Fil
敷き
統率
驚か
##ats
Boy
残虐
民生
購買
ストラス
トレント
カスタマイズ
ロレン
一条
射影
静岡県立大学
メロン
偏見
掃討
ダルマ
ジェノヴァ
吸血鬼
増減
葛西
##祖父
##粒子
1811
カートリッジ
WOWOW
敷い
本陣
速球
NEW
俗称
校内
魔界
コミカル
1827
密輸
教派
襲う
都城
##マガ
1775
多忙
清和
物産
自著
##持っ
リヒャルト
うかが
いせ
同大
母語
節約
西条
##ks
##ンドラー
トラップ
仰角
冷たい
在外
数量
日食
甲状
自在
##シタン
##レンブルク
マリナーズ
ミッドウェー
フォルクス
チー
二塁打
最良
着実
立ち入り
握手
空爆
蔵人
負わ
つね
原住民
セリ
ゼル
全廃
執事
替わっ
ローリー
アナトリア
ユーク
刀剣
服役
西国
シェフ
ハロルド
MAR
修め
参院
弁論
本隊
札所
町民
硬い
##ッルス
##oun
ラジオドラマ
盛り込ん
Light
Os
冷静
変調
微細
バートン
聖なる
苦悩
願う
CAS
中井
小字
新種
神明
高裁
ノルディ
装甲車
相次ぐ
Edition
レクリエーション
ソプラノ
リニア
利き
財界
食肉
##バニ
ラーオ
ペプチド
採決
比し
生える
病没
見下
ブラウ
なかでも
イノベーション
Sn
リザー
如何
濃厚
##ote
フルーツ
イケ
公約
校歌
##留め
ファシスト
おおい
Engine
柳川
##ule
##レック
イーグル
リンチ
自軍
##TH
Tokyo
レター
地殻
宝物
放牧
チタン
峡谷
防い
隼人
##払っ
##ISC
逃げ出し
おはよう
迫撃
##ジカル
##ビィ
1809
京畿
強風
擬似
未完
登校
航法
##サーズ
ハープ
漢方
皇居
##シク
##年始
ノヴァ
軍縮
陶磁
なぜなら
年末年始
##コンドリア
ねこ
おおさか
見なす
Tu
it
バーツ
パウンド
衆院
取り込ん
伏せ
小坂
最先端
水島
絵師
##春秋
##一致
ミトコンドリア
公理
日の
鍛え
##バシー
ビルバオ
##ウィング
ブラックホール
タップ
会戦
同胞
度合い
行ない
有理
##ティーナ
##ライフ
##ste
##ersion
##コミュニケーション
黒部
最低限
親和
長け
インディー
##しくも
ブルズ
ふし
カリス
ムード
成体
排他
日成
答申
ルイーズ
ワトソン
LG
MY
品番
続々
軍曹
##ぐれ
たちまち
##チューン
加重
廃刊
ポーツマス
Hz
念仏
手帳
萌え
すき
縦貫
美作
脱線
##メーカー
1796
オリオールズ
熱い
##ふそう
VI
きし
スルー
中書
空海
綬章
残酷
##くう
##きん
##売り
サンズ
美術家
信夫
整形
結びつけ
ウイスキー
海里
清原
長嶋
MiG
ユキ
治癒
離着陸
ボリシェヴィキ
PAR
qu
スイング
保養
取組
太く
昇段
精算
視認
##小牧
Di
丹羽
幸運
華麗
##工科大学
SI
ふと
それなり
STS
伸び悩
パルチ
下着
巻い
砂浜
ユニバース
弦楽器
モンタナ
グライダー
居酒屋
工具
阿賀
隠蔽
首謀
乃木坂
##バスティアン
Mem
キール
人柄
有楽
武漢
潜航
ロナルド
済ま
キリシタン
セナ
丁寧
大帝
##ワンダ
##ホーフ
comp
AW
下手
履行
王様
靖国
モニタ
アンモニア
ad
原生
怪談
戦没
##ideo
弾性
摘発
行幸
重度
##ird
##チュエ
メディアミックス
Office
区長
悪天候
栗田
海部
竹下
##ars
レプリカ
##音楽大学
高尾
CLUB
##ぐる
##ランジェ
##eductase
##ズカップ
引き連れ
三菱ふそう
PSP
ヘヴィメタル
##tainment
ポッド
丸い
男の子
##返っ
##差し
迎え入れ
Div
デビル
救世
磁性
##河内
三菱重工業
##コーダー
インテリ
逆襲
##にか
ニューズ
Heart
##イーグルス
再演
役に
501
Sound
シクロ
パノ
ワニ
堀内
強まっ
覚書
##更津
290
ダイレクト
ボイコット
ver
入幕
挫折
木更津
杉本
207
減衰
踏む
すずき
Mal
四股
県営
##ドッグ
Ben
ルビー
京橋
同心
品目
完投
##まん
##lement
トランジスタ
レディース
シュタイン
カーネギー
わん
##西洋
##ヴェイ
伊勢崎
因み
広西
旅順
##オキシ
ジュリアン
##チェス
##ISS
##ジョー
Av
中興
法皇
ヒスパニック
ニューカッスル
LT
モザイク
文治
##yth
UFJ
うめ
モータ
小平
惚れ
材木
社民党
西大
エアー
暴れ
オード
ルナ
平時
苫小牧
高低
ポンペイ
北大西洋
国文学
パプ
文官
桟橋
犬山
眠っ
退院
##ティマ
Vir
かげ
レット
対し
独断
##水産省
##リスク
1799
農林水産省
エリオット
右京
熱田
鹵獲
マーキュリー
ジャンボ
興味深い
修験
##シアード
##ッジョ
##iko
##intosh
Server
パトリ
ラッパー
Special
Land
外れる
廃藩
本科
注ぎ
消える
祝い
若葉
行程
高位
##置県
ANN
廃藩置県
FINAL
積む
##ニエル
##ベックス
ほり
ブナ
抜か
##保険
ハーバート
Intel
海上保安庁
sy
える
オウ
ブレス
就学
きれい
細長く
NCAA
っ子
別称
嫁い
子弟
##っか
##ani
船内
##デジ
##ツカ
十二
引き揚げ
アーセナル
ホームタウン
宣誓
デコ
モア
上がら
ギャラ
WRC
ナンバ
ニース
傾い
先導
名神
懇願
日置
時半
##コント
##わざ
クライスラー
下す
神官
ことば
バラエティー
聖徳
##レイン
ならでは
コスモス
格納庫
ギャラクシー
着物
芝生
造っ
##兵学校
プラモデル
バルバ
見つかり
ゅん
ナミ
一撃
技巧
斯波
浩二
船尾
##xt
海軍兵学校
どころか
jp
動態
勝山
小原
競り
##アレス
##gy
ジョーク
チェリー
クロスカ
テンプ
松村
##con
##市立大学
エミール
TAK
かり
極秘
毎秒
##サウス
##美術大学
##キャンプ
747
FD
帝京
星団
##ニョン
1781
##ムナジウム
支柱
ステロイド
見積も
ヘルム
ボディー
憲政
防火
障壁
##き出し
420
##ージェイズ
囲い
深める
酷評
##ガング
3500
上回り
かねて
大河ドラマ
変則
廃れ
##合成
ハンナ
プランテーション
YOU
まこと
対向
ホーエン
支隊
目安
税関
##GE
世の中
柏原
護国
##ュン
##ちこ
プロヴァンス
GEN
どんど
小金
無実
脅し
蓄え
鋼鉄
##テマラ
231
落ち込ん
光秀
##ージング
カーニバル
仲良
多田
無力
美学
苦しい
鶴田
##ヨウ
ディラン
##ワーゲン
独創
空調
##メート
プライバシー
ナムコ
備わっ
##びれ
222
地球人
アントワ
##ELL
ビザンツ
レキシントン
Gold
安楽
物事
215
Jean
ひまわり
und
臣下
ジェフリー
Sa
たいてい
瑞宝
異色
継が
##取れる
##不足
##リーノ
ナンシー
プロレタリア
アノ
ミレ
直近
羽生
##がす
守護神
ウァ
単勝
就業
##メチル
##ange
言い伝え
Macintosh
テュルク
Mil
居士
飛行船
##国際空港
シエラ
メタン
拘置
於け
本所
製剤
##すけ
##ッサウ
ポジ
甲状腺
ホプ
累積
荊州
課し
予備校
瑞宝章
スバル
タミル
二宮
大町
調味
車道
##カビ
ビルディング
追いや
Unic
シューマッハ
行進曲
聞こえる
ありがとう
Nint
服従
白馬
##分子
##抜か
アスリート
リモート
Sum
寵愛
捏造
稼い
赤く
##野川
引き離
RAM
バロン
白紙
絵図
賢治
面影
黒く
##時代
MIT
縄張り
適時
##ディッシュ
ブルージェイズ
##ハイマー
##イヤル
中庭
修学
右肩
曲げ
##ista
チューニング
厚生省
最年長
MTV
文武
殲滅
尽き
税制
##ろさ
チャド
トク
ファラ
1797
ロイヤルズ
宮島
正方形
それで
305
221
##ope
スペースシャトル
TN
伸長
空洞
関口
##ゲームズ
Girls
ツーリングカー
公道
後身
秀樹
駆除
##艦隊
エドワーズ
1798
##ッセルドルフ
NEXT
Nintendo
放水
父母
代え
定式
##ci
Colle
店主
従弟
##瑠璃
取り立て
EB
ローター
信越
見物
持ち味
カーテン
Your
YouTuber
文藝春秋
にっぽん
カザン
下宿
形作
数理
段丘
産み
##バサ
##ざん
引き下げ
he
海浜
混入
関脇
ひばり
ソード
ヘイズ
ボールド
通年
ひだ
リンダ
懲戒
決行
魅了
##OMA
本件
程なく
阻ま
##院大学
セルティックス
グアテマラ
サクラメント
mac
下回っ
全豪
台場
##ga
取り下げ
ローソン
カルチョ
全豪オープン
XML
マナー
抗日
死別
スコープ
きっぷ
シンポ
臨済宗
元治
呉服
弾い
欠損
キヤ
由緒
県連
雇っ
##サンプトン
シンデ
シーア
クロスカントリー
橋脚
尾上
急い
挙動
歌集
プロモーター
OL
つり
キッチン
気流
鋼板
##早川
WAVE
FNS
Mot
ケイン
一節
座礁
文句
竹本
計器
訪日
転勤
配電
##ッレ
リボ
中傷
簡潔
##トゥール
デュッセルドルフ
トマ
残念
バラバラ
ネブラスカ
KS
参政
左舷
##ady
信用金庫
レオポルト
アーロン
口腔
フェンダー
ホビー
争議
恵比
関根
##Pa
Tim
オリバー
トランジット
アムトラック
パートナーシップ
持ち帰っ
Dig
副題
##els
ICOCA
エセックス
サロ
ネッカー
名手
図案
##プラン
スーザン
兼ね備
ユニバーシアード
原産地
ドス
出国
国学
字形
ハットトリック
セーフ
増税
魔物
##交通
##arm
##ルスキー
チャールストン
Kh
Let
土星
退き
##ヒット
##はし
ドゥー
大祭
操車
相棒
磐田
題する
##cal
ダビ
文様
町人
退避
音質
Top
菅野
##戻さ
##リアヌス
001
Bus
ホノル
##ula
タッチダウン
お客
ソリューション
曲名
##エナ
##バージョン
##go
##CD
フェス
小麦粉
パッド
ホッケー
世子
冠する
松坂
##ショット
KDDI
一掃
反戦
水原
華北
西武鉄道
払い下げ
ホノルル
ゅだん
下水道
伝授
欲望
シェー
キティ
大隅
部材
##ヴナ
##ナイダー
つづけ
硫化
馴染み
Richard
応仁
球体
##ネスク
フィルタ
あたかも
全幅
安達
幼生
##azine
man
カピ
堂々
観衆
##モト
##かかっ
##ME
##erm
羽田空港
ムーブ
一元
前向き
恩師
##らう
掛かっ
観世
誓っ
高分子
##多摩
ISBN
Ult
大晦
破滅
酒場
##バク
サンライズ
アイリッシュ
ほどなく
##ドゥス
Network
つとめる
Lim
Nat
主幹
伝わり
在り
後悔
目立た
罹患
朝貢
貼ら
アーネスト
ヴァレ
ボウリング
あゆみ
ハガ
城代
##ネオ
##かえ
ガンバ
General
非合法
Che
So
カズ
奮戦
親指
##造船
背負っ
大晦日
まとも
小作
ショパン
シューマン
メドレー
超新
##ベア
##ドンナ
超新星
きた
なで
リブ
今村
範疇
##光星
##END
737
ガルフ
ブースター
停電
変光星
大乗
恩赦
長島
ブレード
ウェストミンスター
ガソリンエンジン
HTML
すすめ
レギ
筆名
##コロン
##めい
アシスタントコーチ
セネガル
ur
バレル
百済
##河原
書き上げ
スマトラ
無人島
スクリプト
オクタ
史書
網走
##ミズ
##まず
名取
答弁
なんと
えり
ヘラク
準ずる
##林寺
丸の内
定額
遵守
長井
ダンカン
Bra
Bell
宗主
小豆
携行
発火
細か
##マリーンズ
四条
奏法
福原
購読
##ハンデ
ナショナリズム
Switch
しな
本気
長身
題さ
##バトル
##MM
SIM
こっ
ビック
##ンゲン
##スタジオ
きちんと
トリス
結束
##コート
##line
ぬい
ゴア
枯れ
楽園
ロッテマリーンズ
助力
城塞
抑留
陛下
##ウンズ
##リエール
##ブリュック
不死
内臓
当たら
踊っ
##かせる
##因坊
##lad
エスパニョ
##スケープ
シオ
ツッコ
本因坊
軽快
North
カメル
家光
射出
方角
欠ける
殉教
##ヤシ
LR
OG
エト
カオス
マゼ
六甲
土日
暗く
気が
##メニ
##メロ
##ゾー
フェルト
誘導体
だらけ
スムーズ
ケロ
トッド
下北
喚起
葛藤
過大
集権
214
##ルツァ
ゴルファー
ストリーミング
オークス
タジ
参道
##テリ
##グン
##ハール
##の川
##ベルグ
##こうとう
どんどん
##och
##ファンド
##キャン
##バラエティ
サガ
包装
強奪
全焼
小早川
局員
未熟
##ぜん
##ICA
ヤコブ
一意
付し
千島
武徳
ニューハ
ケータイ
乏しく
反共
忍び
考証
##ダホ
日本銀行
事務次官
##チュアート
アミューズメント
ソナー
漱石
誘惑
遊泳
##br
クリスティアン
Sur
カステ
リミ
恐ろしい
換気
アイスダンス
AE
壱岐
実情
金庫
駅員
##ih
やむを
MI
ハーブ
Du
刻ん
手話
物議
眠る
##マシン
##ヒス
##ヴォル
AU
KT
こめ
パター
安城
更迭
スタニス
広島大学
FE
由良
空位
談話
##ノア
##ヴァイ
パルチザン
mus
一途
上奏
不自由
ロックンロール
KE
定量
シンポジウム
ワルツ
用具
空力
衣料
##千代
##ティクス
mod
プチ
ロベール
座長
片手
生田
鳴らし
##シオス
##ür
できるだけ
東大阪
IL
コープ
幻覚
省令
解離
##iversary
スチュアート
丞相
兵科
桑原
無期
##ラクティブ
クリニック
440
パンツ
Ever
困っ
旅人
木の
##ディル
持ち出し
国務大臣
オホーツク
大牟田
建ち
港町
狂気
見直さ
##デット
シンデレラ
KAD
湖沼
##抜く
##over
Cy
土手
少子
蒸し
##クリー
##ta
##出せ
##ニアム
##ンタイム
ライトヘビー
モダ
低音
探る
減る
羽柴
グルコース
目の当たり
下向
ユグ
ピエモンテ
Little
だれ
やろ
南道
始末
暴風
着せ
砂丘
醸し
電線
コンプ
##ift
柳田
極力
法曹
##言葉
ウィリー
##itle
スタンリー
イム
記入
##リスム
Adv
サントス
おまけ
ピンチ
医院
火炎
##PN
##ッパーズ
##OLD
クトゥ
捕まえ
##ón
シャワー
Great
ブカレスト
スギ
ハント
ルワンダ
児島
近距離
銀色
したがっ
##学園大学
Unicode
Bab
ギムナジウム
不備
半田
宗像
欠き
湿潤
頒布
##ガリー
##amm
オルレアン
東海道新幹線
みき
人達
傾き
級数
返事
長屋
##ネラ
##競馬場
##ウェルス
アウディ
十郎
後発
絵巻
顔料
フィアット
オーランド
1787
ロク
##らせる
ジョイント
ローゼン
クリケット
われわれ
ラミ
##ノ島
##ブラー
Inf
トスカーナ
傷つけ
捕捉
盗ま
粘り
陝西
##ペア
##HD
ウィー
はり
三和
夢中
属さ
斑紋
義父
重役
##ツアー
取り調べ
Stand
##ogr
Ha
上梓
包み
棋戦
チャイナ
遊牧民
こころ
ゃく
石材
駒澤
ダイアナ
放射能
戦局
武雄
茶道
釜石
電装
##積み
読み方
うき
中南
同業
抜群
波及
落葉
鴨川
##ster
聞き入れ
Games
不平
大勝
証書
クレオ
スリップ
テッサ
三越
##ANT
巻き込ん
##ガンダム
ミヤ
動乱
大金
短波
豆腐
豊中
フィオ
イングリッシュ
##EEE
総計
荒野
貞享
隔週
クララ
ヒース
ビラ
後裔
抗戦
許諾
##オリンピック
##レルモ
壊し
正史
面々
##ピース
フェリックス
リザーブ
郡上
酋長
陰性
陶芸
なおも
##ダーソン
身延
##マイン
##ACT
##フレンド
1770
コト
ヘンド
主眼
因幡
失調
岩井
没頭
狙わ
狭間
球形
留まら
盟友
空冷
##eck
del
西本
躊躇
MSX
迷い
違憲
領国
##iro
##ごとく
BASIC
Institute
リポート
三鷹
成年
##利き
オーラ
スキャン
Batt
West
ギニア
吉井
艤装
謹慎
##リョ
##ルトル
##ステージ
##デルス
アブー
Research
変性
官能
モーメント
1788
アニー
ウガンダ
同母
相良
吉野川
あさひ
左足
発給
職種
降着
##アーツ
##ゾフ
ストーム
テオド
区役所
引数
滅び
直す
音頭
頼る
##かしい
締めく
ハングル
図面
掛ける
白黒
オク
マッコ
慶喜
##シド
はさん
国債
岸田
長所
##ゴリ
ことごとく
お願
上皮
水色
色濃
社会学部
Child
SPOR
##サイタル
お願い
wh
掛川
速射
##志野
302
セレクション
入れ替わる
狭隘
稼ぐ
##vin
保育園
ゼー
傀儡
吹く
女房
悲惨
長田
##クレオ
##返さ
トレーラー
DL
つぐ
口頭
夏目
大日
廃絶
総武
自白
越中
##電器
##重工
##ローブ
Bi
そん
ソチ
了解
亜熱
混じっ
秒間
表向き
護送
##ランキング
インディペン
成田空港
クルーザー
ゲーリング
亜熱帯
づらい
応じる
接点
版権
##盆地
スクラップ
ミリメートル
口論
馬術
##ビーク
コロコロ
貸し出し
子息
宮沢
座り
放電
磁石
金銀
##蒸気
##itz
モーリ
ゾロ
トラス
測度
213
##ORY
ワーキング
新潮社
オリンピア
マラリア
中曽根
内省
誠実
追随
##ナガ
##ウィーク
##OKAWA
アンティオ
ティムール
マッハ
則っ
前哨
和声
嫌気
採る
濃縮
球面
藩校
ジェシー
プリンター
Team
VT
わき
マハー
刻印
湿原
猛烈
耐える
宮田
砲術
303
グリップ
フィードバック
Jour
開城
立ち会
浴びせ
Im
下段
削り
右足
店長
移譲
頑丈
インフォ
##チュウ
カプコン
レナ
村立
横穴
線区
##uz
##isch
マグマ
各州
##残さ
1777
##ベースボール
##合わさ
##ビュート
オーガスタ
ギブソン
しげる
一端
スズメ
ラザ
楠木
水蒸気
無色
軽便
頭脳
かから
東洋大学
トーキー
シウ
炭水
##モノ
##ひろ
スタント
##ATA
##AMP
Pan
員数
大豆
新道
##ister
シュタイ
条件下
フロイド
701
フォルクスワーゲン
焼却
診察
頼む
##不動
##ンステ
ベンゾ
Mel
庄屋
精通
給食
衣類
テーマパーク
ドロー
排斥
朝方
迎え撃
グリーンランド
エヴァン
ポータ
つぎ
延岡
戻ら
薄れ
##過ぎ
##erry
##ーロフ
##キャット
##リューム
吹き飛
AND
##アントニオ
ツイート
オリエント
化け
景色
泣い
##レスコ
国防省
キルギス
KADOKAWA
叙勲
回す
山車
接頭
限る
インペ
コミュニティー
一人称
Bur
hp
シンジ
酒類
売り場
RAW
取り除く
Pop
マッ
成城
##ning
サンシャイン
かわし
ペレス
原文
変態
日報
FG
下町
先鋒
廃寺
津島
##シタ
ディアス
シャシー
##oud
##チャク
パラレル
マウンド
レベ
実演
未婚
##ゴット
1778
一挙
権益
鳴り
デザート
アンドレア
エイベックス
願い出
上尾
体温
抑止
長政
##運転
コンバート
##チュラル
##une
セレクト
##コミュニケーションズ
バール
ヒマラ
レヴィ
因縁
特派
コンシュー
##ova
Gra
扶桑
試運転
随一
類別
##gan
インダスト
ステイ
立て直し
エグゼクティブ
TG
ニトロ
沿う
祝賀
神崎
肩書き
脱却
角田
アルタ
##ures
アフマド
レイモンド
