[PAD]
[UNK]
[CLS]
[SEP]
[MASK]
<unused0>
<unused1>
<unused2>
<unused3>
<unused4>
<unused5>
<unused6>
<unused7>
<unused8>
<unused9>
!
"
#
$
%
&
'
(
)
*
+
,
-
.
/
0
1
2
3
4
5
6
7
8
9
:
;
<
=
>
?
@
A
B
C
D
E
F
G
H
I
J
K
L
M
N
O
P
Q
R
S
T
U
V
W
X
Y
Z
[
]
_
a
b
c
d
e
f
g
h
i
j
k
l
m
n
o
p
q
r
s
t
u
v
w
x
y
z
|
°
×
á
ä
è
é
í
ó
ö
ü
ā
Ζ
α
β
γ
μ
φ
а
в
е
и
к
н
о
р
с
т
ا
“
※
→
∞
▲
△
○
★
☆
♪
、
。
々
〇
〈
〉
《
》
「
」
『
』
【
】
〔
〕
ぁ
あ
ぃ
い
う
ぇ
え
お
か
が
き
ぎ
く
ぐ
け
げ
こ
ご
さ
ざ
し
じ
す
ず
せ
ぜ
そ
ぞ
た
だ
ち
っ
つ
づ
て
で
と
ど
な
に
ぬ
ね
の
は
ば
ぱ
ひ
び
ぴ
ふ
ぶ
ぷ
へ
べ
ぺ
ほ
ぼ
ぽ
ま
み
む
め
も
ゃ
や
ゅ
ゆ
ょ
よ
ら
り
る
れ
ろ
わ
を
ん
ゞ
ァ
ア
ィ
イ
ゥ
ウ
ェ
エ
ォ
オ
カ
ガ
キ
ギ
ク
グ
ケ
ゲ
コ
ゴ
サ
ザ
シ
ジ
ス
ズ
セ
ゼ
ソ
ゾ
タ
ダ
チ
ヂ
ッ
ツ
ヅ
テ
デ
ト
ド
ナ
ニ
ヌ
ネ
ノ
ハ
バ
パ
ヒ
ビ
ピ
フ
ブ
プ
ヘ
ベ
ペ
ホ
ボ
ポ
マ
ミ
ム
メ
モ
ャ
ヤ
ュ
ユ
ョ
ヨ
ラ
リ
ル
レ
ロ
ワ
ヲ
ン
ヴ
ヵ
ヶ
・
ー
一
丁
七
万
丈
三
上
下
不
与
且
世
丘
丞
両
並
中
串
丸
丹
主
丼
乃
久
之
乏
乗
乙
九
乞
也
乱
乳
乾
亀
了
予
争
事
二
于
云
互
五
井
亘
亜
亡
交
亨
享
京
亭
亮
人
仁
仇
今
介
仏
仔
仕
他
付
仙
代
令
以
仮
仰
仲
件
任
企
伊
伍
伎
伏
伐
休
会
伝
伯
伴
伸
伺
似
伽
但
位
低
住
佐
佑
体
何
余
作
佳
併
使
例
侍
供
依
侠
価
侮
侯
侵
侶
便
係
促
俊
俗
保
信
俣
修
俳
俵
俸
俺
倉
個
倍
倒
候
借
倣
値
倫
倭
倶
偉
偏
停
健
側
偵
偶
偽
傀
傍
傑
傘
備
催
傭
傲
債
傷
傾
僅
働
像
僕
僚
僧
儀
億
儒
償
優
儲
允
元
兄
充
兆
先
光
克
免
兎
児
党
兜
入
全
八
公
六
共
兵
其
具
典
兼
内
円
冊
再
冑
冒
冗
写
冠
冥
冨
冬
冴
冶
冷
凄
准
凌
凍
凛
凝
凡
処
凱
凶
凸
凹
出
函
刀
刃
分
切
刈
刊
刑
列
初
判
別
利
到
制
刷
券
刺
刻
剃
則
削
前
剖
剛
剣
剤
剥
副
剰
割
創
劇
劉
力
功
加
劣
助
努
励
労
効
勃
勅
勇
勉
勒
動
勘
務
勝
募
勢
勤
勧
勲
勾
匂
包
化
北
匠
匹
区
医
匿
十
千
升
午
半
卑
卒
卓
協
南
単
博
占
卯
印
危
即
却
卵
卸
卿
厄
厚
原
厨
厩
厳
去
参
又
叉
及
友
双
反
収
叔
取
受
叙
叛
叡
叢
口
古
句
叩
只
叫
召
可
台
叱
史
右
叶
号
司
各
合
吉
吊
同
名
后
吏
吐
向
君
吟
否
含
吸
吹
吾
呂
呆
呈
呉
告
呑
周
呪
味
呼
命
和
咎
咲
咸
哀
品
哉
員
哨
哲
哺
唄
唆
唇
唐
唯
唱
商
問
啓
善
喉
喋
喚
喜
喝
喧
喩
喪
喫
喰
営
嗅
嗜
嗣
嘆
嘉
嘘
嘩
嘱
噂
噌
噛
器
噴
嚢
囃
囚
四
回
因
団
困
囲
図
固
国
國
圏
園
圓
團
土
圧
在
圭
地
坂
均
坊
坐
坑
坦
坪
垂
型
垣
埋
城
域
埠
埴
執
培
基
埼
堀
堂
堅
堆
堕
堤
堪
堰
報
場
堵
堺
塁
塊
塔
塗
塚
塞
塩
填
塵
塾
境
墓
増
墜
墟
墨
墳
墾
壁
壇
壊
壌
壕
士
壬
壮
声
壱
売
壺
変
夏
夕
外
多
夜
夢
大
天
太
夫
央
失
夷
奄
奇
奈
奉
奏
契
奔
奥
奨
奪
奮
女
奴
好
如
妃
妄
妊
妓
妖
妙
妥
妨
妬
妹
妻
妾
姉
始
姓
委
姦
姪
姫
姻
姿
威
娘
娠
娯
娼
婆
婚
婦
婿
媒
媛
嫁
嫉
嫌
嫡
嬉
嬢
子
孔
字
存
孝
孟
季
孤
学
孫
孵
學
宅
宇
守
安
宋
完
宏
宕
宗
官
宙
定
宛
宜
宝
実
客
宣
室
宮
宰
害
宴
家
容
宿
寂
寄
寅
密
富
寒
寛
寝
察
寡
寧
審
寮
寵
寸
寺
対
寿
封
専
射
将
尉
尊
尋
導
小
少
尖
尚
就
尹
尺
尻
尼
尽
尾
尿
局
居
屈
届
屋
屏
展
属
層
履
屯
山
岐
岡
岩
岬
岳
岸
峙
峠
峡
峨
峯
峰
島
峻
崇
崎
崔
崖
崗
崩
嵐
嵩
嵯
嶋
嶺
嶼
嶽
巌
川
州
巡
巣
工
左
巧
巨
巫
差
己
巳
巴
巻
巾
市
布
帆
希
帖
帝
帥
師
席
帯
帰
帳
常
帽
幅
幌
幕
幡
幣
干
平
年
幸
幹
幻
幼
幽
幾
庁
広
庄
庇
床
序
底
店
府
度
座
庫
庭
庵
庶
康
庸
廃
廉
廊
廟
廠
廣
延
廷
建
廻
弁
弄
弊
式
弐
弓
弔
引
弘
弟
弥
弦
弧
弱
張
強
弾
当
彗
彙
形
彦
彩
彫
彰
影
彷
役
彼
往
征
径
待
律
後
徐
徒
従
得
御
復
循
微
徳
徴
徹
徽
心
必
忌
忍
志
忘
忙
応
忠
快
念
怒
怖
思
怠
急
性
怨
怪
怯
恋
恐
恒
恥
恨
恩
恭
息
恵
悔
悟
悠
患
悦
悩
悪
悲
悼
情
惑
惚
惜
惟
惣
惧
惨
想
惹
意
愕
愚
愛
感
慈
態
慌
慎
慕
慢
慣
慧
慮
慰
慶
憂
憎
憑
憤
憧
憩
憲
憶
懇
應
懐
懲
懸
戊
成
我
戒
或
戚
戦
戯
戴
戸
戻
房
所
扁
扇
扉
手
才
打
払
扮
扱
扶
批
承
技
抄
把
抑
投
抗
折
抜
択
披
抱
抵
抹
押
抽
担
拉
拍
拐
拒
拓
拗
拘
招
拝
拠
拡
括
拭
拳
拶
拷
拾
持
指
挑
挙
挟
挨
挫
振
挺
挽
挿
捉
捕
捜
捧
捨
据
捷
捻
掃
授
掌
排
掘
掛
採
探
接
控
推
措
掲
掴
揃
揄
揆
揉
描
提
揖
揚
換
握
揮
援
揶
揺
損
搬
搭
携
搾
摂
摘
摩
摺
撃
撒
撤
撫
播
撮
撰
撲
擁
操
擢
擦
擬
擲
支
改
攻
放
政
故
敏
救
敗
教
敢
散
敦
敬
数
整
敵
敷
文
斉
斎
斐
斑
斗
料
斜
斡
斥
斧
斬
断
斯
新
方
於
施
旅
旋
族
旗
既
日
旦
旧
旨
早
旬
旭
旺
昂
昆
昇
昌
明
昏
易
昔
星
映
春
昧
昨
昭
是
昼
時
晃
晋
晒
晦
晩
普
景
晴
晶
智
暁
暇
暑
暖
暗
暦
暫
暮
暴
曇
曖
曜
曝
曰
曲
曳
更
書
曹
曽
曾
替
最
會
月
有
朋
服
朔
朗
望
朝
期
木
未
末
本
札
朱
朴
机
朽
杉
李
杏
材
村
杖
杜
束
条
来
杭
杯
東
杵
松
板
析
枕
林
枚
果
枝
枠
枢
枯
架
柄
柏
某
染
柔
柚
柱
柳
柴
柵
査
柿
栃
栄
栓
栖
栗
校
株
核
根
格
栽
桁
桂
桃
案
桐
桑
桓
桜
桟
桶
梁
梅
梓
梗
條
梨
梯
械
梱
梵
梶
棄
棋
棒
棘
棚
棟
森
棲
棺
椅
植
椎
検
椿
楊
楓
楕
楚
楠
業
楯
極
楼
楽
概
榊
榎
榛
榴
構
槌
槍
様
槻
槽
樋
標
模
権
横
樫
樹
樺
樽
橋
橘
橙
機
檀
檜
櫓
櫛
櫻
欄
欠
次
欧
欲
欺
欽
款
歌
歓
止
正
此
武
歩
歪
歯
歳
歴
死
殆
殉
殊
残
殖
殲
殴
段
殺
殻
殿
毀
毅
母
毎
毒
比
毘
毛
氏
民
気
水
氷
永
氾
汁
求
汎
汐
汗
汚
江
池
汰
汲
決
汽
沈
沖
沙
没
沢
河
沸
油
治
沼
沿
況
泉
泊
泌
法
泡
波
泣
泥
注
泰
泳
洋
洗
洛
洞
津
洪
洲
活
派
流
浄
浅
浙
浜
浦
浩
浪
浮
浴
海
浸
消
涙
涯
液
涼
淀
淑
淡
深
淳
淵
混
添
清
渇
済
渉
渋
渓
渕
渚
減
渠
渡
渤
渦
温
測
港
渾
湊
湖
湘
湧
湯
湾
湿
満
源
準
溜
溝
溢
溶
溺
滅
滋
滑
滝
滞
滴
漁
漂
漆
漏
漑
演
漕
漠
漢
漫
漬
漸
潔
潜
潟
潤
潮
潰
澄
澤
激
濁
濃
濠
濡
濫
濯
濱
瀕
瀧
瀬
灌
灘
火
灯
灰
災
炉
炊
炎
炭
点
為
烈
烏
焉
無
焦
然
焼
煉
煎
煙
照
煩
煮
煽
熊
熙
熟
熱
燃
燈
燕
燥
爆
爪
爬
爵
父
爺
爽
爾
片
版
牌
牙
牛
牝
牟
牡
牢
牧
物
牲
特
牽
犠
犬
犯
状
狂
狐
狗
狙
狩
独
狭
狼
猛
猟
猪
猫
献
猶
猿
獄
獅
獣
獲
玄
率
玉
王
玩
玲
珂
珍
珠
班
現
球
理
琉
琴
琵
琶
瑞
瑠
璃
璧
環
瓜
瓦
瓶
甘
甚
生
産
甥
用
甫
田
由
甲
申
男
町
画
界
畑
畔
留
畜
畠
略
番
異
畳
畿
疎
疑
疫
疲
疾
病
症
痕
痛
痩
痴
痺
瘍
療
癌
癒
癖
発
登
白
百
的
皆
皇
皐
皮
皿
盆
益
盗
盛
盟
監
盤
盧
目
盲
直
相
盾
省
眉
看
県
眞
真
眠
眺
眼
着
睡
督
睦
瞬
瞭
瞳
矛
矢
知
矩
短
矮
矯
石
砂
研
砕
砦
砲
破
硝
硫
硬
碁
碑
碧
確
磁
磐
磨
磯
礁
礎
礫
示
礼
社
祀
祇
祈
祉
祐
祖
祝
神
祠
祥
票
祭
祷
禁
禄
禅
禍
禎
福
禰
秀
私
秋
科
秒
秘
租
秦
秩
称
移
稀
程
税
稔
稚
稜
種
稲
稼
稽
稿
穀
穂
積
穏
穫
穴
究
空
突
窃
窒
窓
窟
窪
窮
窯
窺
立
竜
章
竣
童
端
競
竹
笑
笛
笠
符
第
笹
筆
等
筋
筐
筑
筒
答
策
箇
箕
算
管
箱
節
範
篇
築
篠
篤
篭
簡
簿
籍
籠
米
粉
粋
粒
粗
粘
粛
粟
粧
精
糖
糞
糧
糸
系
糾
紀
約
紅
紋
納
紐
純
紗
紙
級
紛
素
紡
索
紫
累
細
紳
紹
紺
終
組
絆
経
結
絞
絡
給
統
絵
絶
絹
継
続
綬
維
綱
網
綴
綺
綻
綾
綿
緊
総
緑
緒
線
締
編
緩
緯
練
縁
縄
縛
縞
縣
縦
縫
縮
績
繁
繊
繋
織
繕
繰
纂
纏
缶
罠
罪
置
罰
署
罵
罷
罹
羅
羊
美
群
義
羽
翁
翅
翌
習
翔
翠
翻
翼
老
考
者
耐
耕
耗
耳
耶
聖
聘
聞
聡
聯
聴
職
肉
肌
肖
肘
肝
股
肢
肥
肩
肪
肯
育
肺
胃
胆
背
胎
胚
胞
胡
胤
胴
胸
能
脂
脅
脆
脇
脈
脊
脚
脱
脳
腎
腐
腔
腕
腫
腰
腸
腹
腺
腿
膚
膜
膝
膨
膳
臆
臓
臣
臨
自
臭
至
致
臼
興
舌
舎
舗
舘
舞
舟
航
般
舵
舶
舷
船
艇
艦
良
色
艶
芋
芝
芥
芦
芯
花
芳
芸
芹
芽
苑
苔
苗
苛
若
苦
苫
英
茂
茅
茎
茜
茨
茶
草
荒
荘
荷
荻
莉
莫
菅
菊
菌
菓
菜
菩
華
菱
萌
萩
萬
落
葉
著
葛
董
葬
葵
葺
蒙
蒲
蒸
蒼
蓄
蓋
蓮
蔑
蔓
蔡
蔣
蔭
蔵
蔽
蕭
薄
薇
薔
薙
薦
薩
薫
薬
藍
藝
藤
藩
藻
蘇
蘭
虎
虐
虚
虜
虫
虹
蚕
蛇
蛍
蛛
蛮
蜀
蜂
蜘
蜜
蝦
蝶
融
螺
蟹
血
衆
行
術
街
衛
衝
衡
衣
表
衰
袁
袋
袖
被
裁
裂
装
裏
裔
裕
補
裸
製
裾
複
褐
褒
襄
襟
襲
西
要
覆
覇
見
規
視
覗
覚
覧
親
観
角
解
触
言
訂
計
討
訓
託
記
訛
訟
訪
設
許
訳
訴
診
証
詐
詔
評
詞
詠
詣
試
詩
詰
話
該
詳
誇
誉
誌
認
誓
誕
誘
語
誠
誤
説
読
誰
課
調
談
請
諏
論
諜
諡
諦
諫
諭
諮
諱
諸
諾
謀
謁
謎
謙
講
謝
謡
謳
謹
識
譚
譜
警
議
譲
護
讃
讐
谷
豆
豊
豚
象
豪
豹
貌
貝
貞
負
財
貢
貧
貨
販
貫
責
貯
貰
貴
買
貸
費
貼
貿
賀
賃
賄
資
賊
賑
賓
賛
賜
賞
賠
賢
賦
質
賭
購
贄
贈
赤
赦
走
赴
起
超
越
趙
趣
足
距
跡
跨
路
跳
践
踊
踏
踪
蹄
蹟
蹴
躇
躊
躍
身
車
軌
軍
軒
軟
転
軸
軽
較
載
輌
輔
輛
輝
輩
輪
輸
輿
轄
轟
轢
辛
辞
辰
辱
農
辺
辻
込
辿
迂
迅
迎
近
返
迦
迫
述
迷
追
退
送
逃
逆
透
逐
逓
途
這
通
逝
速
造
逢
連
逮
週
進
逸
遂
遅
遇
遊
運
遍
過
道
達
違
遠
遡
遣
遥
適
遭
遮
遵
遷
選
遺
遼
遽
避
還
邑
那
邦
邪
邸
郁
郊
郎
郡
部
郭
郵
郷
都
鄭
配
酒
酔
酢
酬
酵
酷
酸
醍
醐
醒
醜
醤
醸
采
釈
里
重
野
量
金
釘
釜
針
釣
釧
鈍
鈴
鉄
鉛
鉢
鉱
鉾
銀
銃
銅
銘
銚
銭
鋒
鋭
鋳
鋸
鋼
錐
錠
錦
錫
錬
錯
録
鍋
鍛
鍵
鍾
鎌
鎖
鎧
鎮
鏡
鐘
鐵
鑑
長
門
閃
閉
開
閏
閑
間
関
閣
閥
閲
闇
闘
阜
阪
防
阻
阿
陀
附
降
限
院
陣
除
陥
陪
陰
陳
陵
陶
陸
険
陽
隅
隆
隈
隊
隋
階
随
隔
隕
隙
際
障
隠
隣
隷
隻
隼
雀
雁
雄
雅
集
雇
雌
雑
雛
離
難
雨
雪
雰
雲
零
雷
電
需
震
霊
霜
霞
霧
露
青
靖
静
非
面
革
靭
靴
鞍
鞘
鞭
韓
音
韻
響
頁
頂
頃
項
順
須
預
頑
頓
領
頬
頭
頸
頻
頼
題
額
顎
顔
顕
願
類
顧
風
飛
食
飢
飯
飲
飼
飽
飾
餅
養
餌
餓
館
饉
首
香
馬
馳
馴
駄
駅
駆
駐
駒
駕
駿
騎
騒
験
騙
騨
騰
驚
骨
骸
髄
高
髙
髪
髭
鬱
鬼
魁
魂
魅
魏
魔
魚
魯
鮎
鮮
鯉
鯨
鰭
鱗
鳥
鳩
鳳
鳴
鴨
鴻
鵜
鵬
鶏
鶴
鷲
鷹
鷺
鹿
麓
麗
麟
麦
麹
麺
麻
麿
黄
黎
黒
黙
鼓
鼻
齢
龍
﨑
##元
##x
##L
##c
##y
##l
##a
##t
##r
##n
##d
##b
##e
##g
##o
##S
##ナ
##ン
##駅
##ァ
##シ
##ェ
##ク
##デ
##ィ
##オ
##ラ
##i
##u
##s
##h
##サ
##ル
##モ
##レ
##ホ
##軍
##間
##花
##ロ
##メ
##ト
##リ
##賀
##市
##ゆ
##め
##が
##丘
##ア
##ウ
##り
##の
##き
##通
##チ
##ブ
##キ
##ミ
##イ
##カ
##ー
##場
##ス
##布
##志
##町
##帖
##セ
##ズ
##ピ
##ツ
##プ
##ュ
##q
##J
##ネ
##f
##名
##川
##ケ
##ヤ
##A
##C
##O
##M
##ダ
##p
##得
##者
##し
##切
##っ
##ザ
##ノ
##フ
##k
##ベ
##ャ
##ッ
##テ
##グ
##R
##E
##T
##w
##ム
##ド
##ポ
##ニ
##れ
##и
##а
##Y
##ヴ
##ゅ
##う
##7
##6
##2
##万
##司
##é
##V
##た
##い
##マ
##m
##ビ
##値
##源
##合
##空
##佐
##H
##ガ
##ワ
##v
##知
##山
##洋
##画
##ん
##母
##ソ
##と
##津
##4
##5
##0
##ォ
##格
##化
##ボ
##ハ
##エ
##雄
##パ
##タ
##億
##3
##z
##コ
##ョ
##F
##秀
##N
##ヌ
##郡
##大
##塚
##9
##ゼ
##ら
##ゲ
##ヒ
##バ
##γ
##α
##美
##1
##ジ
##本
##北
##区
##ゃ
##く
##垣
##江
##長
##野
##借
##玉
##B
##8
##み
##多
##古
##閑
##紙
##ペ
##州
##す
##有
##倶
##敷
##阿
##見
##荒
##沖
##せ
##よ
##ゾ
##え
##師
##G
##ゥ
##ヘ
##懐
##I
##以
##子
##U
##Z
##K
##D
##阜
##県
##方
##わ
##島
##士
##W
##三
##邑
##嶋
##針
##青
##生
##瀬
##保
##新
##留
##梨
##ギ
##栄
##谷
##博
##労
##千
##樹
##ユ
##で
##な
##P
##龍
##短
##期
##学
##á
##ä
##度
##百
##九
##穴
##久
##領
##家
##岩
##上
##げ
##ち
##明
##け
##松
##宮
##戸
##Q
##海
##後
##人
##清
##住
##崎
##心
##ば
##ま
##病
##巻
##気
##さ
##張
##も
##田
##林
##向
##陽
##台
##当
##て
##原
##宝
##居
##佳
##夫
##与
##日
##付
##横
##手
##睦
##成
##亭
##ふ
##土
##ろ
##務
##蘇
##柿
##ó
##陵
##ヨ
##達
##要
##φ
##目
##意
##づ
##る
##は
##座
##貨
##物
##ā
##象
##数
##里
##茂
##隅
##説
##怯
##歌
##行
##込
##揖
##斐
##池
##地
##X
##寒
##西
##í
##j
##か
##阪
##府
##鶴
##ü
##夏
##綿
##浦
##天
##神
##南
##女
##屋
##味
##一
##朗
##こ
##口
##小
##平
##京
##下
##能
##寺
##前
##入
##避
##徒
##筋
##そ
##ず
##飛
##立
##を
##じ
##抗
##ゴ
##予
##八
##倉
##着
##之
##園
##軸
##軌
##道
##模
##河
##信
##隈
##具
##根
##分
##堂
##霜
##作
##権
##董
##品
##英
##浜
##つ
##槻
##免
##恒
##内
##乾
##食
##謡
##葉
##君
##中
##橋
##弾
##弟
##屈
##嘉
##螺
##舗
##太
##郎
##水
##央
##史
##主
##研
##ぎ
##落
##胆
##村
##係
##城
##若
##柴
##評
##侍
##利
##電
##機
##房
##笑
##限
##е
##н
##к
##和
##洞
##男
##遠
##慈
##潮
##敵
##問
##丼
##賜
##父
##ぐ
##親
##о
##繁
##彰
##尾
##邦
##頭
##刈
##塩
##釜
##置
##恩
##登
##伽
##替
##取
##庫
##部
##亀
##徳
##奈
##相
##緑
##東
##文
##伊
##越
##出
##雲
##乙
##棄
##あ
##代
##二
##井
##è
##歩
##ヲ
##依
##木
##紫
##森
##図
##冬
##児
##指
##宿
##牧
##ご
##貴
##埠
##加
##白
##慮
##琉
##十
##五
##料
##岡
##兆
##沙
##良
##駒
##軽
##沢
##世
##豆
##漏
##連
##飾
##会
##牛
##助
##流
##渡
##民
##丹
##波
##鏡
##富
##直
##月
##夜
##荻
##菅
##坂
##ぶ
##集
##態
##ヅ
##枕
##紀
##滝
##業
##注
##珠
##祥
##紋
##ぴ
##だ
##都
##宇
##蓮
##ど
##臣
##辺
##嘆
##с
##т
##в
##р
##ö
##詞
##強
##盗
##丁
##界
##院
##び
##総
##己
##草
##的
##範
##囚
##船
##や
##枝
##納
##面
##習
##容
##致
##羽
##回
##殺
##如
##炊
##鷹
##庭
##麺
##へ
##満
##ょ
##去
##猫
##お
##腰
##祭
##板
##尻
##光
##鉾
##館
##勝
##ひ
##受
##記
##金
##段
##独
##国
##石
##変
##荘
##乃
##理
##七
##ね
##属
##掛
##話
##騨
##温
##泉
##郷
##福
##旭
##杉
##進
##永
##愚
##列
##霞
##王
##隊
##四
##楼
##愛
##雪
##薬
##職
##ぼ
##制
##吉
##炭
##酸
##曹
##動
##症
##押
##砂
##智
##談
##泊
##御
##厨
##端
##焼
##珍
##備
##重
##賢
##外
##尚
##畿
##収
##額
##港
##足
##喜
##末
##建
##設
##柳
##芥
##体
##障
##害
##請
##経
##路
##朋
##竹
##呂
##協
##同
##組
##室
##縮
##也
##熊
##魚
##為
##老
##到
##刀
##俊
##乗
##壌
##舞
##踊
##舘
##蔽
##覧
##今
##俣
##左
##震
##筑
##樋
##甲
##陸
##条
##暁
##首
##哉
##脳
##油
##棒
##悩
##省
##馬
##形
##遊
##仁
##番
##器
##輪
##宗
##岬
##死
##許
##種
##氏
##岸
##那
##須
##縄
##衛
##毛
##査
##結
##果
##溝
##更
##統
##少
##柱
##所
##咲
##紗
##緒
##詩
##奥
##来
##茅
##鷲
##貿
##易
##施
##命
##篠
##貫
##次
##介
##湯
##ぬ
##交
##高
##工
##酢
##望
##銀
##券
##吹
##関
##星
##濃
##干
##報
##矢
##鬼
##倒
##蔵
##義
##極
##仮
##治
##橘
##導
##悟
##浅
##展
##則
##休
##払
##璃
##安
##威
##転
##銭
##鵜
##六
##寄
##弘
##樽
##祝
##染
##肌
##深
##刻
##秋
##招
##提
##舎
##門
##玩
##剥
##囃
##細
##忠
##走
##叉
##違
##固
##広
##峠
##ぱ
##聖
##錦
##号
##律
##背
##反
##堀
##真
##常
##称
##袋
##鈴
##純
##修
##続
##植
##歯
##科
##役
##祖
##飯
##束
##力
##媛
##ヶ
##綴
##溜
##篇
##右
##嵯
##峨
##年
##途
##退
##朝
##速
##撲
##昭
##兼
##始
##時
##特
##景
##斉
##唇
##香
##覇
##仲
##普
##菜
##術
##武
##事
##茶
##静
##桂
##輿
##ا
##潟
##糸
##梶
##止
##宅
##量
##計
##産
##車
##輔
##式
##幸
##杯
##歳
##基
##辻
##録
##発
##衣
##軒
##に
##ざ
##隆
##観
##滋
##割
##黒
##峡
##弥
##吊
##弦
##考
##勢
##姉
##豊
##桑
##奏
##肉
##除
##鉄
##尋
##于
##究
##澤
##従
##米
##葛
##破
##跡
##μ
##庄
##半
##慣
##翔
##鳥
##黎
##参
##拓
##興
##抜
##菓
##尊
##泥
##斗
##冠
##芽
##用
##調
##整
##畑
##廻
##仙
##難
##杭
##丸
##惑
##礼
##畠
##練
##羅
##珂
##並
##応
##策
##逢
##舟
##巣
##蜂
##返
##実
##不
##側
##造
##啓
##比
##ヂ
##ほ
##殿
##題
##嗣
##可
##窪
##幡
##渋
##苗
##将
##湾
##誌
##政
##線
##耳
##音
##ぞ
##正
##別
##曽
##開
##笠
##共
##才
##改
##我
##鎮
##色
##買
##季
##露
##塗
##働
##触
##診
##浮
##彦
##帰
##亮
##々
##莫
##斎
##甫
##幌
##商
##店
##孝
##息
##稲
##航
##べ
##誠
##擁
##点
##峰
##累
##慶
##鹿
##霧
##梅
##角
##錐
##突
##裏
##楽
##洛
##材
##岐
##桜
##先
##狭
##伏
##療
##険
##控
##銚
##堰
##芸
##寿
##振
##支
##童
##折
##対
##灰
##泣
##勲
##彙
##迫
##捉
##剤
##論
##校
##網
##鞍
##寧
##梁
##近
##似
##鳴
##暮
##了
##損
##失
##試
##験
##戻
##鎖
##乳
##蘭
##寝
##社
##堤
##渕
##派
##宣
##昇
##齢
##給
##函
##周
##団
##旬
##祐
##自
##む
##情
##善
##公
##輌
##測
##挺
##獲
##消
##弄
##碑
##汽
##刑
##逆
##質
##藤
##系
##臓
##癌
##求
##翁
##定
##守
##絹
##延
##降
##言
##棺
##伝
##柏
##帽
##医
##写
##婚
##恵
##焉
##鎌
##翻
##境
##性
##湖
##済
##帯
##扇
##硫
##黄
##遣
##姫
##狂
##残
##判
##蜜
##春
##増
##帝
##希
##桐
##晶
##讃
##踏
##菌
##悠
##層
##略
##現
##亜
##舌
##剣
##桓
##員
##唐
##識
##過
##差
##織
##丞
##被
##符
##蛇
##販
##売
##箇
##盛
##酬
##護
##法
##陀
##皿
##妙
##捕
##ぽ
##財
##率
##弁
##萩
##持
##國
##標
##準
##片
##散
##赤
##沼
##認
##芝
##貝
##午
##澄
##淵
##占
##互
##又
##殻
##帆
##締
##粟
##貸
##無
##復
##柄
##稀
##雑
##未
##ぜ
##昂
##旗
##灘
##忍
##使
##厚
##欲
##〇
##麓
##閉
##兵
##訓
##俳
##糖
##績
##規
##剛
##胡
##麻
##帳
##泰
##全
##風
##嫁
##綱
##孫
##竜
##顕
##候
##群
##粉
##型
##射
##示
##件
##接
##枚
##裕
##庁
##呆
##議
##覚
##燕
##均
##腐
##故
##軟
##厳
##益
##淀
##演
##肝
##辞
##杖
##桃
##字
##條
##位
##課
##程
##隠
##廣
##虫
##悪
##液
##傍
##幕
##眞
##肺
##看
##好
##蝶
##環
##囲
##嶺
##琴
##葬
##農
##魯
##札
##骨
##費
##諏
##訪
##磯
##吾
##令
##繰
##閲
##允
##防
##伸
##教
##書
##脇
##傷
##由
##摩
##犯
##康
##況
##感
##籠
##羊
##皮
##妃
##芳
##穂
##輸
##凡
##恋
##冴
##証
##状
##巌
##素
##戦
##坪
##換
##握
##継
##稚
##礎
##起
##章
##友
##駄
##充
##供
##還
##楠
##桶
##肥
##腹
##怒
##汲
##養
##雨
##仕
##鷺
##氷
##箕
##筒
##読
##衡
##揃
##税
##妻
##局
##因
##諫
##誉
##旧
##乏
##猟
##管
##奇
##麗
##席
##鼓
##儀
##添
##萬
##融
##撫
##怠
##街
##呉
##版
##票
##客
##ぃ
##串
##盤
##懸
##髭
##授
##浄
##構
##栗
##笹
##載
##捷
##黙
##蒲
##華
##瓦
##任
##蓋
##峯
##召
##粘
##積
##送
##爪
##垂
##糞
##炉
##余
##寛
##偵
##身
##蜀
##兜
##照
##絡
##葵
##滑
##株
##欧
##価
##引
##ぁ
##包
##届
##脚
##槌
##雀
##絵
##衆
##狩
##昌
##声
##滅
##酒
##在
##嵐
##撃
##鶏
##撒
##菱
##仔
##汁
##晴
##恐
##牟
##麦
##詰
##辛
##運
##選
##等
##球
##莉
##序
##早
##製
##紛
##篭
##紅
##詳
##柚
##抵
##打
##飲
##胞
##釈
##察
##誕
##曇
##寮
##髪
##塊
##賦
##祉
##揚
##怪
##籍
##築
##綾
##非
##算
##朽
##譲
##透
##卵
##椿
##営
##鋭
##壊
##雅
##棟
##典
##箱
##鑑
##彩
##汐
##霊
##豚
##刺
##埼
##懇
##旺
##晃
##杜
##悦
##浪
##孔
##罷
##存
##磨
##火
##鉢
##渓
##勤
##Ζ
##毘
##像
##第
##縛
##般
##奨
##敬
##暦
##墳
##例
##紡
##藍
##熟
##倫
##印
##解
##嵩
##節
##蔭
##影
##描
##醍
##仏
##坊
##嶽
##慧
##捜
##随
##陶
##密
##汰
##揺
##檜
##釣
##脈
##偏
##域
##貢
##献
##駆
##想
##災
##呼
##猪
##潰
##偉
##巡
##襲
##弧
##犬
##督
##幣
##芦
##族
##検
##募
##投
##資
##託
##語
##惚
##亘
##念
##這
##貧
##就
##顔
##洲
##呑
##附
##娘
##健
##鮮
##断
##告
##灯
##技
##栃
##臭
##鴨
##卓
##摺
##秦
##宜
##聞
##侶
##弓
##討
##響
##燃
##徐
##効
##穏
##移
##膳
##洗
##迷
##隼
##曳
##冷
##疑
##絶
##鋸
##駿
##曜
##円
##責
##放
##訳
##敦
##服
##縁
##棲
##疫
##沸
##類
##繋
##喰
##爆
##掘
##挫
##→
##蔓
##薄
##尼
##憂
##甘
##遇
##浩
##皐
##麿
##宴
##眉
##創
##凱
##兄
##秩
##皆
##錫
##茨
##騰
##鋼
##監
##虎
##芋
##叔
##官
##髙
##罪
##処
##罰
##塔
##副
##歴
##ぺ
##拳
##順
##皇
##叢
##掌
##約
##封
##藝
##敗
##優
##表
##豪
##伯
##堺
##敏
##負
##補
##斑
##思
##宰
##禄
##巾
##謹
##醜
##幅
##然
##烈
##級
##句
##宕
##孤
##圭
##湊
##圧
##掴
##微
##装
##猛
##追
##削
##兎
##應
##墟
##砲
##鴻
##混
##釧
##禁
##党
##猶
##艦
##謝
##尺
##壮
##蒙
##勒
##堵
##願
##玄
##圏
##撰
##終
##貯
##蓄
##匠
##爾
##却
##腫
##播
##薦
##獄
##署
##ぷ
##熱
##庵
##矩
##迦
##柵
##棚
##餅
##浸
##至
##頼
##勇
##杵
##釘
##吐
##承
##夷
##底
##架
##婆
##怖
##唯
##晒
##岳
##畜
##崖
##械
##騎
##丈
##活
##担
##輝
##碧
##毒
##抱
##貞
##燈
##諸
##賃
##昆
##簿
##侯
##夢
##靖
##単
##裁
##誤
##拝
##欠
##狐
##狼
##賞
##槍
##淑
##扶
##櫻
##姓
##様
##此
##痕
##闘
##嫉
##暴
##机
##墓
##臼
##頃
##姪
##驚
##精
##轟
##芯
##頂
##俗
##煮
##曲
##冶
##辿
##攻
##何
##蛍
##淳
##艇
##旨
##漢
##鉱
##陰
##維
##旦
##栓
##救
##陥
##枯
##班
##紐
##辰
##榛
##戒
##答
##韓
##殊
##鍵
##膜
##急
##禎
##賠
##扉
##宏
##笛
##砕
##唱
##憲
##双
##乞
##慕
##隔
##育
##繕
##其
##但
##吏
##邪
##凍
##宋
##ゞ
##争
##両
##蚕
##零
##需
##諾
##廷
##劇
##股
##巨
##荷
##烏
##瓜
##炎
##夕
##稼
##暑
##逸
##廉
##惣
##幹
##競
##詔
##各
##栖
##奉
##賓
##婦
##猿
##企
##埴
##溺
##賛
##筆
##恥
##踪
##倭
##便
##壬
##崩
##旅
##擦
##謙
##亡
##溢
##篤
##克
##漬
##緊
##榴
##離
##煎
##異
##昔
##彼
##魔
##鼻
##没
##湿
##功
##叩
##糧
##歓
##講
##疾
##著
##眼
##苔
##喚
##戯
##妄
##狗
##韻
##鱗
##壁
##僧
##菊
##鐵
##拭
##晋
##否
##耗
##漁
##傲
##傘
##幾
##裂
##遵
##惟
##於
##獣
##升
##雇
##叙
##椎
##眠
##譜
##庸
##牽
##編
##遂
##蹄
##債
##訟
##妹
##索
##苦
##扱
##★
##析
##搾
##噛
##伐
##嚢
##會
##伎
##逃
##堅
##凌
##李
##冊
##璧
##倍
##諦
##雛
##濱
##貌
##團
##窓
##稜
##郭
##縫
##屯
##懲
##詠
##魁
##鳩
##ぇ
##翼
##苑
##楯
##詐
##朔
##櫛
##梗
##床
##括
##捨
##拠
##尹
##坐
##襄
##腸
##佑
##戴
##暇
##欄
##銃
##衝
##専
##聴
##弔
##慰
##漫
##秘
##磐
##是
##嫌
##薇
##征
##採
##墨
##甚
##翅
##舶
##苫
##巳
##暗
##際
##虹
##裾
##奪
##赦
##聡
##冨
##姿
##樫
##個
##殖
##虚
##初
##榎
##鍋
##閣
##曾
##裔
##娯
##燥
##馳
##紺
##購
##祇
##醤
##雷
##尽
##祠
##廊
##隷
##潜
##袖
##惜
##据
##坦
##渉
##配
##毅
##殲
##胎
##徹
##熙
##磁
##盟
##鯨
##縞
##侵
##駕
##晦
##壱
##嶼
##遷
##肘
##拉
##痛
##煽
##跳
##案
##巴
##挽
##舷
##鮎
##鐘
##醒
##匂
##往
##毎
##階
##涼
##卒
##勃
##警
##申
##迎
##革
##弐
##只
##聯
##映
##楊
##爵
##陣
##斬
##俵
##耶
##卯
##揮
##恭
##藻
##閃
##魂
##醸
##壺
##且
##牙
##款
##獅
##誇
##撮
##粒
##窯
##學
##銅
##喫
##庶
##櫓
##辱
##刃
##湧
##胸
##奄
##枠
##芹
##憤
##待
##虐
##挙
##簡
##昼
##癖
##汗
##距
##塞
##蝦
##遅
##雁
##稿
##云
##☆
##郵
##隣
##渦
##紹
##粗
##壇
##瓶
##刷
##墾
##徴
##契
##魅
##停
##鰭
##委
##批
##浴
##汚
##腎
##履
##楕
##棋
##低
##操
##潤
##曰
##葺
##血
##減
##儒
##拍
##薫
##劣
##諜
##騒
##励
##哲
##碁
##硬
##視
##媒
##伍
##亨
##践
##奴
##瑞
##決
##乱
##脱
##窒
##蹴
##陳
##償
##傭
##培
##酔
##醐
##臨
##塁
##諭
##β
##耕
##恨
##弱
##襟
##貰
##尖
##該
##排
##閥
##轄
##琶
##尿
##郁
##鞘
##誓
##幻
##述
##瑠
##后
##挿
##寂
##樺
##拡
##渠
##遥
##殴
##胴
##喩
##核
##塵
##楓
##憑
##謀
##硝
##膚
##拶
##旋
##薩
##趙
##瀧
##梯
##訴
##粧
##枢
##叶
##礁
##斯
##盧
##週
##溶
##誰
##顧
##鍛
##巧
##幽
##斜
##薔
##頓
##仰
##菩
##崇
##縦
##苛
##漑
##適
##蒼
##渾
##墜
##侠
##孟
##最
##吟
##塾
##狙
##妓
##匹
##楚
##酷
##偶
##困
##傾
##傑
##併
##朱
##頻
##賊
##卸
##盾
##盲
##埋
##翠
##腺
##飼
##鉛
##慢
##鳳
##即
##摂
##及
##遺
##逓
##贄
##滞
##私
##煙
##快
##﨑
##腕
##完
##他
##裸
##激
##祀
##榊
##吸
##匿
##稽
##拐
##抄
##涯
##漂
##慌
##杏
##呈
##弊
##泳
##滴
##槽
##腿
##濫
##秒
##摘
##胤
##絞
##宛
##蕭
##捻
##冥
##銘
##審
##耐
##昨
##択
##填
##抹
##穀
##概
##玲
##挟
##涙
##穫
##蜘
##蛛
##濁
##髄
##淡
##胚
##禅
##牡
##欽
##睡
##逝
##萌
##拾
##患
##鬱
##輩
##確
##腔
##謎
##掃
##勾
##讐
##脂
##檀
##畳
##豹
##披
##徽
##斧
##遍
##凛
##寸
##疲
##預
##喧
##闇
##禍
##喪
##唄
##牌
##朴
##贈
##飽
##遭
##伴
##妨
##肢
##痺
##噂
##彫
##揉
##橙
##危
##虜
##鎧
##騙
##迅
##濠
##胃
##戊
##掲
##坑
##麟
##盆
##超
##蟹
##欺
##桟
##嫡
##貼
##呪
##宙
##椅
##寅
##趣
##痴
##棘
##柔
##妊
##娠
##靴
##畔
##馴
##援
##含
##嬉
##卿
##窟
##執
##蛮
##峻
##爺
##窮
##咸
##侮
##径
##覆
##勅
##昧
##缶
##栽
##牲
##圓
##崗
##酵
##肩
##漕
##悲
##怨
##疎
##縣
##脊
##庇
##渚
##錠
##焦
##繊
##昏
##擲
##阻
##靭
##蹟
##邸
##蔡
##藩
##祈
##促
##艶
##再
##輛
##叡
##骸
##眺
##頸
##冑
##堆
##×
##○
##薙
##纂
##廟
##把
##晩
##哀
##忘
##頑
##洪
##必
##僕
##訂
##厩
##刊
##湘
##沈
##飢
##鋒
##茜
##屏
##項
##惨
##妾
##潔
##忌
##叫
##茎
##斡
##沿
##冒
##瞳
##翌
##愕
##妥
##纏
##尉
##曝
##撤
##禰
##遮
##凄
##妬
##剃
##粋
##拘
##駐
##奔
##措
##儲
##赴
##廠
##泌
##慎
##緩
##郊
##廃
##梓
##鯉
##帥
##漆
##悔
##鋳
##巫
##姦
##堪
##錯
##噌
##較
##隻
##婿
##勉
##峙
##喝
##采
##剰
##嬢
##搭
##錬
##頁
##爽
##漠
##嘱
##瞭
##鵬
##衰
##△
##奮
##隙
##憩
##斥
##琵
##抑
##僚
##鈍
##蔣
##詣
##蒸
##厄
##遼
##漸
##餌
##煉
##鞭
##探
##仇
##梵
##既
##祷
##悼
##勘
##頬
##訛
##矛
##牢
##瘍
##濯
##痩
##倣
##堕
##泡
##抽
##紳
##姻
##幼
##諮
##某
##癒
##殆
##忙
##惹
##∞
##粛
##綺
##噴
##唆
##礫
##蔑
##麹
##甥
##瞬
##憧
##或
##汎
##逐
##筐
##桁
##催
##舵
##爬
##拒
##煩
##搬
##魏
##稔
##循
##渇
##聘
##渤
##膝
##娼
##毀
##陪
##膨
##擢
##罵
##喋
##賑
##♪
##殉
##喉
##寡
##擬
##偽
##憎
##絆
##浙
##濡
##綬
##携
##凝
##ヵ
##妖
##憶
##譚
##推
##凶
##叱
##綻
##俸
##享
##褐
##謁
##嘘
##躍
##遽
##彗
##覗
##暖
##鄭
##努
##跨
##勧
##脆
##准
##緯
##凸
##砦
##饉
##揄
##寵
##肪
##戚
##誘
##顎
##租
##諱
##袁
##劉
##鍾
##餓
##複
##拗
##扁
##壕
##惧
##挑
##犠
##哨
##矯
##剖
##歪
##臆
##褒
##伺
##卑
##僅
##肖
##牝
##諡
##嗅
##隋
##閏
##捧
##嘩
##敢
##逮
##肯
##灌
##嗜
##躇
##梱
##哺
##雌
##賄
##揆
##凹
##曖
##咎
##窃
##轢
##崔
##叛
##罹
##罠
##俺
##窺
##糾
##謳
##°
##冗
##▲
いる
する
ある
20
から
19
こと
れる
なっ
その
ない
201
など
ため
##ール
この
200
られ
##リー
より
##ター
##ック
日本
##ット
いう
10
##ング
なる
##ラン
あっ
##スト
また
よう
##ート
もの
まで
あり
##ュー
##ーム
##ード
##ント
18
##ティ
12
##ョン
でき
おり
11
##ンド
##かっ
これ
199
##イン
よる
##00
##ース
##ディ
それ
##リア
よっ
##ション
##ップ
放送
昭和
##ーク
198
##ージ
##リカ
受け
だっ
なく
現在
なり
##ーズ
プロ
しか
##バー
アル
15
##イト
##する
##ーン
つい
なかっ
##er
##える
197
使用
アメ
東京
世界
##学校
アメリカ
できる
時代
キャ
##大学
17
おい
場合
16
られる
行わ
登場
##ープ
##レー
196
##ンス
ファ
平成
##ラー
##ライ
##める
しかし
##レビ
作品
##しい
選手
コン
番組
研究
##on
##リス
存在
多く
ジャ
202
とも
##カー
##リン
##in
194
発売
イン
13
##ンジ
30
開始
およ
14
195
ライ
可能
##ッド
のみ
##ランド
映画
##イル
##ーマ
当時
活動
##ナー
##an
##ルト
同じ
対し
および
たち
##れる
呼ば
しま
##or
クラ
一部
にて
発表
リー
テレビ
フラン
行っ
大学
大き
明治
チャ
チーム
なお
取り
##ける
出演
出身
25
##ニア
##会社
同年
開催
##ar
##シュ
代表
フィ
##ックス
以降
##ダー
スタ
##en
21
##リーズ
参加
地域
さら
開発
##ステ
##がら
だけ
ゲーム
アルバ
以下
22
##マン
時間
##シャ
##シア
ディ
たり
193
オー
出場
おけ
せる
試合
##レイ
関係
変更
担当
いっ
所属
タイ
持つ
ニュー
ながら
用い
自分
##オン
大会
さらに
中心
24
##ナル
設置
##イツ
利用
シリーズ
##サー
##at
##クター
アイ
##ロー
以上
生ま
23
学校
記録
なら
引き
多い
スト
##ッチ
アルバム
かつ
##クト
自身
##ンバー
考え
##しく
行う
一般
##ブル
フォ
##ウン
##ーズン
##ニー
##es
192
事業
##al
かけ
収録
バス
必要
シーズン
攻撃
株式
音楽
##ビュー
務め
##ャー
##フィ
女性
##レス
##ic
コー
##ングル
監督
##ンター
フランス
知ら
##ソン
リーグ
##デル
ドラ
国際
##まり
大阪
ドイツ
##ベル
##ファ
設立
アニ
##フォ
問題
1日
中国
28
2010
26
鉄道
##ジオ
##ーツ
事件
##めて
グル
ほか
27
ただ
いく
位置
ステ
通り
うち
優勝
##上げ
##パー
同様
卒業
地方
サン
社会
##ウス
##フト
とき
シングル
イギ
##して
結果
ウィ
31
##ネル
アン
イギリス
2011
情報
影響
フェ
29
株式会社
##ょう
ほど
##ラス
当初
##わっ
2009
キャラ
##it
##ンク
2012
生まれ
高等
2008
スペ
計画
アニメ
##わり
##ーション
2007
##スタ
##よう
最終
##ウェ
最初
異な
世紀
一方
ジョ
戦争
文化
ジェ
##ータ
及び
##ールド
2014
獲得
終了
サー
##ころ
2015
##イド
2013
2016
191
委員
教育
高校
販売
以外
中央
##スター
メンバー
##わせ
##ンタ
2017
そして
発生
特に
##まっ
建設
最後
2006
ブラ
##ぞれ
グループ
2019
それぞれ
##is
##キー
都市
かつて
2018
##ヴァ
##ロン
会社
政府
制作
状態
まま
彼女
##ヴィ
人間
2020
100
##ッカー
地区
##ステム
持ち
##リング
##he
就任
調査
##ジア
ところ
年間
廃止
その後
##ーター
##日本
意味
決定
しまう
##le
自動
人物
km
##メント
向け
ただし
ショ
##イス
公開
シャ
##ンチ
持っ
場所
2005
##カル
構成
アー
2000
政治
全国
路線
経済
実施
デビュー
キャラクター
名前
関する
契約
##ンダ
小学校
全て
同時
スポ
モデル
施設
##ラム
ウェ
##la
##ou
戦闘
部分
##イク
本作
高い
技術
##mp
設定
システム
50
野球
##ion
初めて
オリ
##ッシュ
対する
相手
採用
最も
##ルス
起こ
運行
##ンガ
2021
果た
##ジェ
##ケット
あた
歴史
製造
##フェ
##アン
航空
##出し
##衆国
組織
記念
##シー
機能
##ンプ
##ザー
##ーロ
合併
##リース
出来
##レン
入り
たい
##ビー
##んど
受賞
##学部
車両
戦い
ブル
与え
特別
##el
スター
能力
指定
最大
##スク
##リスト
190
始め
##デン
京都
##ビス
通常
デザ
目的
##テン
##エル
対応
年度
##コン
2004
##st
ヴァ
最高
##合衆国
40
アメリカ合衆国
続け
使わ
##ートル
少な
列車
管理
リリース
高等学校
こう
##ro
そこ
ライブ
##わる
女子
伴い
ロシア
部隊
##イズ
##かり
搭載
ホーム
スー
生活
機関
ダイ
結婚
大きな
生産
予定
##リオ
##re
一人
##海道
シュ
漫画
もっ
主に
選手権
含む
独立
チェ
基本
##クション
##ol
##ろう
運転
##ーナ
名称
ほと
##ニング
提供
実際
事務
加え
帝国
勝利
##ッツ
以前
##タル
クロ
エンジ
##アー
ベル
運動
主人
##イトル
ほとんど
189
ロー
編成
自由
完成
ヴィ
##かけ
内容
188
移籍
営業
##ディング
製作
センター
理由
特徴
コミ
海軍
発見
イタ
クラブ
述べ
成功
活躍
##がっ
##アル
時点
##ッパ
##チャ
2003
警察
##et
##付け
挙げ
##テル
自ら
連続
ユニ
人口
様々
バンド
デザイン
導入
マル
入っ
公式
運営
完全
異なる
性格
経営
非常
新た
パー
プレイ
サッカー
飛行
##モン
アナ
評価
タイトル
大正
江戸
対象
重要
再び
企画
専門
ラジオ
##ヤー
いわ
企業
さん
東京都
すべ
イタリア
宇宙
##ディア
2人
総合
##il
しまっ
認め
##ベント
教授
##タン
初期
構造
##ギー
協会
出版
開業
子供
##ルフ
時期
作曲
行動
##am
すべて
サービス
主人公
選挙
2002
トラ
よく
言わ
##ビア
##ッグ
とっ
187
もと
amp
##ac
##テレビ
以来
小説
レー
##ティー
##リック
マイ
2001
設計
ミュー
指導
インター
ラン
改称
大きく
付け
##ーカー
イベント
展開
人気
紹介
ここ
楽曲
000
##ER
##ing
##入れ
撮影
北海道
追加
チャン
移動
結成
ジュ
JR
プレ
程度
支援
表記
ネット
ハイ
1990
##nd
男性
国家
ウォ
##ショ
オープ
指揮
##バル
英語
関連
のち
自動車
マー
##わら
そう
科学
配信
##ワー
死去
参照
##まる
##マー
変化
##ピック
表示
ファン
エンジン
共同
道路
##和国
##込ん
装備
限定
全体
委員会
由来
##らか
cm
いず
果たし
国民
##om
00
##プリ
##放送
##じめ
スポーツ
舞台
スーパー
環境
##じる
##000
中学校
乗り
##込み
過去
ブロ
ひと
多数
データ
神社
##キング
##けれ
##as
##ストラ
##ンパ
##古屋
教会
##クス
##リンピック
見せ
言葉
物語
##統領
強い
CD
##トル
息子
小さ
入れ
ほぼ
演奏
思い
##ーロッパ
##らし
##いは
工場
引退
行い
##AN
テーマ
##ミー
ティ
35
いずれ
ローマ
新聞
天皇
打ち
周辺
カー
mm
形式
コーナー
地球
方法
支配
対戦
ミュージ
団体
##込ま
カード
写真
##ルド
##バス
1999
統合
立ち
プラ
掲載
##ッジ
会議
ぶり
複数
フリー
レコ
##ッセ
協力
ソフト
グラ
病院
ちゃ
くる
整備
バー
バイ
べき
基づ
##シャル
競技
期間
##曜日
主張
組み
##ch
##ウンド
ドラマ
1980
可能性
クラス
作戦
##us
映像
同じく
スク
仕事
丁目
含ま
カル
アク
ジョン
60
##ウム
ドル
##メージ
経験
アレ
##なり
##ギュ
しよう
ヨーロッパ
あるいは
使っ
オリジ
##ネット
区間
広島
インド
登録
##げる
韓国
工事
連合
建築
移転
##BS
##ドル
大戦
陸軍
発足
##チェ
表現
オリジナル
ボー
交通
##IN
労働
試験
##なっ
なけれ
##ボール
状況
NH
不明
少年
アジア
45
##リエ
レース
発行
名古屋
どう
確認
繰り
出し
好き
##ゅう
国内
##ジャ
1998
##スコ
報告
唯一
地下
比較
種類
事故
成立
##ed
文字
受ける
##パン
運用
##ジー
ユー
通信
オリンピック
##んな
原作
学生
自然
プロデ
初代
死亡
##AR
破壊
合わせ
形成
わた
32
新しい
効果
専用
美術
NHK
装置
人々
取得
##ON
輸送
生徒
##えば
##かる
劇場
ワールド
電気
##議員
部門
誕生
中継
##プロ
1970
1997
福岡
拡大
##ヨーク
正式
自治
1人
生き
ごと
個人
普通
##id
入る
ニューヨーク
##イント
ビル
##ヴェ
スペイン
サイ
付近
途中
元年
##レーション
近く
ステージ
トップ
勝ち
##th
##ガー
1996
選出
業務
大統領
##主義
家族
横浜
発展
決勝
##太郎
以後
186
復帰
##シン
##ter
学園
1995
##ちら
やす
主要
##共和国
続い
##ばし
##ウト
エン
##サン
高速
反対
裁判
ベース
ます
いい
求め
##ジャー
直接
##ad
制度
本人
呼び
付き
追い
##ゴン
連載
ロック
描か
##鉄道
公演
ハー
言う
系統
ヴェ
方面
きっ
代目
トン
公園
含め
一時
##ation
博士
for
目指
of
主義
##ネス
1994
はじめ
サイト
##ルム
方式
##ティング
##イア
務める
一般的
当た
##ig
切り
##がる
父親
保護
開設
有名
条件
##ow
候補
行政
現代
プロデュー
周年
II
48
##ーリー
施行
##リティ
迎え
##ポート
スピ
36
編集
##合わせ
1993
フレ
つつ
です
議員
シェ
つけ
朝鮮
##ッション
ちゃん
事務所
関し
プレー
事実
##ur
方向
##デオ
産業
よれ
##セン
批判
ニュース
動物
タイプ
もう
食べ
##ダル
少女
選ば
地元
作ら
王国
The
使い
##プト
##つけ
クレ
千葉
FC
率い
会長
##合い
バージ
流れ
後半
1992
カップ
選択
St
##ent
店舗
料理
メイン
支持
フロ
##ガン
マン
##AS
翌年
進出
地上
##od
観光
##ジェクト
分類
年生
##ロス
##こう
競馬
##ントン
言語
##かし
##ラル
##キシ
スタジオ
エル
武器
議会
##iv
中学
大型
##ズム
魔法
平均
ベスト
##ゆる
33
特定
被害
500
##替え
編入
文学
示す
##がり
1991
ター
メートル
向か
スカ
あまり
##議院
##ンドン
近い
図書
復活
基本的
俳優
行き
語っ
ゴール
設け
増加
社長
決め
説明
原因
南部
所有
##選挙
精神
1989
##せる
直後
思わ
あたる
やっ
明らか
##ay
##リーン
フル
加入
##らく
カナ
##AT
アフ
本社
モン
スコ
すぐ
配置
##ot
購入
成績
離れ
ツアー
国道
敗れ
1987
##ドラ
市民
製品
##キュ
##議会
##BC
34
研究所
本部
##らい
オープン
プログ
通じ
アド
従来
作家
郵便
##mu
IC
##セス
アカ
##なわ
ゲスト
##締役
雑誌
##OR
最終的
1960
政策
工業
記述
入学
##チュ
##ir
芸術
艦隊
1988
イス
ギャ
距離
いくつ
カリ
レイ
80
##ec
安全
仲間
指摘
将軍
代わり
達成
パイ
成長
55
##ールズ
失敗
建物
土地
##なる
各地
女優
再開
ピア
国立
DV
パリ
高く
標準
住民
##規模
規定
##ークス
ロンドン
##リート
細胞
アンド
ホール
シーン
##ジュ
台湾
ジャン
##ピー
コース
系列
記載
##ネルギー
商品
生物
拠点
38
示し
クリス
##出す
防衛
##ルク
きっかけ
同社
特殊
派遣
作り
愛知
##レット
日本語
##レード
県道
残し
仕様
出会
銀行
政権
##ライン
無い
使う
##ースト
##os
所在
内閣
イメージ
軍事
得点
##ニュー
##メン
##ギュラー
司令
##川県
実験
##ーフ
##タイ
男子
例えば
外国
強化
CM
##キャ
電子
DVD
ファイ
デジ
##um
##ピュー
##ag
シン
改正
行為
呼ぶ
民主
改造
兄弟
アラ
基地
タイム
関東
報道
グラン
作成
植物
卒業後
1985
1986
九州
海外
70
建て
バル
エネルギー
県立
番号
##ウェー
独自
上記
少ない
創設
形態
ユニット
ポイント
バラ
##メラ
ライン
東北
北部
残っ
沖縄
ブランド
言っ
医療
経由
伝え
違い
通称
オブ
巨大
プロジェクト
関西
言い
比べ
新潟
たら
実現
なか
37
法律
王座
描い
戦後
連邦
少なく
2022
作業
太平
##込む
おら
フラ
強く
主演
レベル
##ッケ
空港
##im
停止
解散
落ち
継承
制御
##ウル
##ゲン
米国
1984
レギュラー
バージョン
置か
理事
市場
至る
神奈
42
かなり
##ウィ
##ブルク
##ストン
##ST
ホテル
##IC
##シング
分離
番目
母親
書か
歌手
昇格
##トロ
モード
一度
集め
現れ
イラ
速度
##mula
##ub
新設
空間
ハン
メーカー
41
商業
殺害
記事
接続
プリ
感じ
参戦
トラン
神戸
続く
まと
集団
分野
相当
formula
周囲
図書館
作っ
##ジション
名誉
振り
##ロット
維持
友人
##ンサー
条約
本来
##ーチ
共通
静岡
統一
プレイヤー
競走
##返し
披露
##ウェア
機体
アイドル
ビデオ
レコード
トリ
フジ
太陽
メディア
自体
##ュニ
カン
二人
役割
##ッフ
限り
進め
勢力
詳細
交換
反応
ギリ
44
90
the
伝統
主催
300
扱い
見る
kg
##トラ
1983
##ミア
スタート
バック
毎年
貢献
長い
継続
##un
コンピュー
制限
##掛け
##VE
スパ
##ワード
##AL
39
##AM
交流
機械
全員
##ピオン
##ap
書き
大学院
1982
延長
##バイ
##シェ
##em
##ブリ
1972
マク
##法人
パラ
##ウンサー
刊行
いつ
大臣
##ia
部屋
185
民族
展示
化学
43
近年
減少
現役
ルー
判断
アナウンサー
日本人
パート
In
段階
カナダ
定義
命令
ドライ
向上
起き
動き
##ランダ
##ルー
##しくは
ちな
予選
1950
思っ
提案
もら
ミュージック
操作
革命
貴族
46
内部
あれ
##レート
富士
##ファー
オール
##oc
訪れ
中華
##ニック
要素
得る
TO
Ch
アップ
資料
古代
読み
理論
行く
観測
不可
校舎
ジョージ
本名
同盟
挑戦
##スティ
障害
前作
##ut
逮捕
##アップ
埼玉
認定
##くり
良い
紀元
##ッキ
イング
##マス
結ぶ
起こし
ダイヤ
ソ連
全く
しまい
##ビル
皇帝
生まれる
治療
##ンズ
一緒
出来る
農業
発言
住宅
1979
##教授
ルート
開通
要求
対策
##切り
電話
1945
広く
##AC
ポー
福島
依頼
1981
コンサ
前後
トゥ
まだ
体制
つな
長崎
##ワーク
地震
チャンピオン
メダル
##クラ
移行
脚本
1975
処理
さま
##ディー
宗教
なさ
ロボ
##ストラリア
解説
##EN
##イルス
エレ
長野
##立て
書い
更に
終わっ
意識
投票
まし
しばし
1973
分か
後述
連絡
ポジション
1978
TBS
異なり
禁止
##ずか
地名
立て
首都
中止
戻っ
宣言
定め
制定
始める
連盟
キリスト
責任
##ミング
##リアム
ストーリー
電車
##and
知っ
##レンジ
クリ
向かっ
山口
除く
##続き
防御
しばしば
かか
機構
備え
1971
視聴
通過
身長
既に
オーストラリア
家庭
カラー
##FA
47
危険
回転
演出
自己
同日
##議院議員
得意
単独
オン
隣接
もしくは
##ッサ
セル
用いる
マーク
インタ
デジタル
##ッカ
スタッフ
原子
太平洋
1974
欧州
政治家
すれ
負け
指名
##スタン
訓練
改革
1969
消滅
ワン
博物
進学
帰国
ブリ
1976
##エン
コミュニ
発電
軌道
勤務
51
ずつ
##OM
感染
単位
メジャー
面積
押し
##理学
##塁打
伝説
オランダ
##EC
スペシャル
指す
起用
演じ
名乗
モー
知り
同一
始まっ
##出さ
後継
プログラム
飛び
1968
ランキング
##ンダム
前年
なし
一定
主な
みな
小型
陸上
##児島
##そう
週間
到着
コンビ
##ボン
ヶ月
ボール
作詞
ライト
TV
規模
大規模
カバー
回復
亡く
推進
投手
前述
分割
フィリ
兵庫
度目
基準
連れ
温泉
##IS
ブラック
##ガル
収め
ミサ
対立
1977
改良
##ul
応じ
更新
##ハイ
会員
停車
キー
意見
##スカ
##ーネ
紀元前
in
エピ
声優
ブルー
安定
##やか
首相
巻き
##ビン
ソロ
あたり
##バン
保存
##HE
##ジョン
性能
様子
##時間
理解
幕府
##ers
リン
管轄
##レント
##ッキー
任務
##OS
法人
プロデューサー
##ルコ
小さな
鹿児島
スタイル
##ドラマ
##らす
52
大量
消費
与える
トラック
交差
54
ミニ
開幕
発射
実行
自治体
##ショナル
範囲
主題
有する
フォー
出る
任命
##AP
##ak
児童
らしい
##ロナ
##テナ
##50
小学
向かう
基礎
定期
ウィリアム
##oo
助け
練習
ST
デュ
岡山
##メートル
仙台
趣味
キング
半島
1000
がっ
貨物
立場
毎日
全日本
置く
プロレス
供給
##ダム
記憶
##取り
セット
車体
困難
後期
長男
184
1964
いわゆる
西部
##ティスト
1967
博物館
##ミン
元々
やすい
出現
エア
せい
ヘル
ダウン
目標
画面
イングランド
サポート
傾向
作る
つく
判定
セント
会場
ユダ
フジテレビ
低い
##セル
あら
無く
回戦
建造
本塁打
資金
キャン
乗車
進行
話し
朝日
わけ
ヒット
コーチ
在籍
注目
##ri
大陸
近代
スケ
階級
インターネット
教師
確保
ヴォ
##番号
国鉄
区域
ガス
ピアノ
熊本
##カップ
コンピュータ
身体
捜査
売り
##ナム
か月
わずか
岐阜
##ジン
目指し
グリ
札幌
直前
令和
##ストリア
大字
エリア
奈良
体育
レッド
解放
命名
投げ
##ra
##換え
子会社
球団
##トン
比較的
分け
シティ
##ーラ
##ノン
1965
##ンスター
チャンネル
戦車
吸収
属する
撤退
62
置き
ダム
コント
阪神
##機関
##田市
合計
SP
教え
##ダン
##バート
##かい
号線
180
上位
著作
領域
##NA
1966
創立
IS
##カン
パン
##たち
すぎ
##ッコ
騎士
休止
通算
対抗
##ゼル
##フォル
歌詞
##ケーション
執筆
##チン
スキ
オペ
ユダヤ
愛称
残り
設備
資格
引き継
出す
通し
芸能
##ンマ
##ーニ
判明
##ov
愛知県
1947
##ライナ
伴う
##テム
平和
ギター
##おり
両親
アマ
##ard
##ーブ
準備
師団
キロ
憲法
計算
49
パワー
入団
##ルン
適用
諸島
持た
取っ
形状
PC
400
ばかり
You
##op
東部
##ジル
もっと
地位
民間
##ざま
どの
##ッター
##ーマン
##ソード
交渉
もた
58
ニコ
変え
ポーランド
田中
スマ
1955
アカデ
当選
53
##リアン
青年
マイク
呼ん
56
処分
##ニス
出力
##ce
物質
記者
エド
普及
過ぎ
##パス
弁護
表明
183
しょう
模様
##トゥ
ては
機器
率いる
どちら
期待
神奈川県
エイ
##トリック
営業所
1963
検討
占領
オル
大きい
サイズ
固定
初回
べく
1944
ノー
オス
マネ
鈴木
入社
組合
加盟
取引
##AD
ブロック
カメラ
許可
分布
ファミ
ミサイル
南北
送り
認識
けん
年齢
##ポン
コード
天文
思想
結ん
共産
##eb
##とう
本格
##ノー
再生
1962
インタビュー
一種
権利
推定
アフリカ
襲撃
組み合わせ
大幅
FI
アト
##ind
背景
##ジアム
##ッピ
アーティスト
##衛隊
##ツィ
機会
##リーム
イラスト
買収
創業
指導者
ロボット
始まる
新型
THE
名義
結局
失っ
互い
##衛門
提出
必ず
57
ほう
アイテム
崩壊
ブレー
ルール
アシ
カラ
少し
続ける
##BA
やや
審査
ネットワーク
##ザン
血液
遺跡
##センター
東海
##極的
果たす
文書
一番
エピソード
くれ
##たり
惑星
##グラ
##アス
まず
デイ
エンディング
##城県
1948
特急
否定
刑事
日間
ランド
チョ
新人
信号
現場
大使
駆逐
リーダー
改善
負傷
ナイ
##もと
遺伝
前半
健康
##ブン
秋田
ボス
##ロール
##ケル
なん
##ブラ
多かっ
進ん
見える
コンサート
##ヴォ
1941
今日
戦士
合流
消防
1961
敗北
同士
ラグ
##フォルニア
##サス
表す
機動
##ab
1954
64
場面
##ペン
始まり
ルイ
##でに
解決
戦う
犯罪
本線
##持ち
方針
ロード
概念
##ie
アプリ
世代
サラ
徳川
録音
兵器
ペン
危機
ブラジル
ショー
旅行
用意
ダンス
すでに
1949
コマ
乗っ
臨時
##シャン
共演
パーソ
先発
##ーブル
長期
分析
学会
##かさ
調整
命じ
逃げ
1940
市街
オーストリア
無料
閉鎖
登板
次い
前身
##av
##キシコ
有効
呼称
シー
爆発
##カード
75
##ピン
深夜
コレ
アカデミー
生じ
1956
収容
動画
次第
描写
だろう
##IT
落と
希望
さまざま
オーディ
未来
試み
自宅
拒否
ジャパン
統治
優れ
とり
##est
ソング
楽し
AT
##ども
グリーン
判決
連隊
一族
患者
増え
##起こ
区別
相互
1959
開校
##ティブ
##ine
サブ
トンネル
##UR
差し
61
侵攻
原則
やり
香港
イスラ
1958
##ンタル
##キン
ビジ
チャート
##ID
パーク
通っ
##ET
やが
殺人
インディ
左右
結合
##サル
##ボー
##フル
アイル
カリフォルニア
拡張
##っと
工学
##ゲーム
##山市
注意
アリ
##ターン
合成
1943
上昇
過ご
知識
作中
##ES
強制
##ミュ
FM
伊勢
かかわら
トロ
テスト
現地
医師
衆議院議員
中村
ジュニア
哲学
指示
執行
関係者
##ウント
司会
吉田
携帯
置い
##シス
##ーンズ
低下
金属
##ルタ
見つ
##OL
やがて
数多
支払
すなわ
すなわち
エリ
歴任
##ビエ
##決勝
文庫
63
##てる
##オフ
検査
ヒロ
各種
##工業
ヘン
つき
移管
承認
長官
改名
佐藤
##ッテ
ハード
バトル
トレ
医学
興味
現象
公立
##グル
取締役
規制
##ct
グランプリ
不足
姉妹
##デス
イオン
変身
求める
シナ
59
古い
##クロ
大半
称し
gt
死後
1930
付属
##ルツ
秘密
181
せん
ヘッド
サウンド
##ろし
##デー
空軍
基づく
地点
オープニング
マイル
合格
コラ
旅客
属し
##ドリ
スコット
住む
##イヤ
送っ
往復
画家
タウン
1952
守る
##エスト
わたっ
プライ
いき
金融
こちら
古墳
海岸
1946
いち
積極的
##ティック
150
##入り
兵士
鎌倉
ころ
ポール
日本国
価格
##リコ
スウェー
結び
藩主
コンク
アス
##ッハ
略称
ページ
走行
市長
ドラゴン
##組み
広告
US
##ess
##ゼン
数多く
##シック
lt
ケース
有し
電力
ブレ
スウェーデン
現実
182
トレー
あと
##距離
山田
植民
1942
##ルトラ
##大臣
改修
メキシコ
潜水
満た
完了
##まで
##ロード
##フレ
シル
戦略
キリスト教
まとめ
アイルランド
竣工
##オー
カール
##トリ
考える
じゃ
テレビドラマ
##ill
##igh
学院
燃料
本拠
至っ
65
超え
超える
##コー
話題
長く
表面
基づい
クー
マスター
##OW
##委員
1951
##ウェイ
兵庫県
バン
信頼
寺院
高度
開か
スイ
リス
シンガ
1957
武装
神経
##ist
##交通
日本テレビ
急行
移住
##レーター
人民
申し
##リュー
こそ
弟子
##ワイト
もつ
やま
GP
見え
1953
オート
公共
空気
引き続き
抵抗
衝突
##ティア
人類
停留
生息
議論
知る
スペース
本編
BS
埼玉県
掛け
タレント
##オス
リング
若い
クリア
##ッタ
外交
##ナイ
##アイ
何度
三菱
ヤマ
郵便局
集中
毎週
モンスター
##さん
住ん
軍人
集落
はず
強力
裁判所
テロ
祖父
##ベルク
ダン
取材
ノル
一覧
コロ
##連邦
##人民
ヒト
うえ
専攻
価値
Al
##ik
フランク
生成
##銀行
平日
仮面
論文
事実上
募集
体重
##ice
実業
残る
##ッズ
おお
将来
反乱
##ランス
中間
優秀
大和
予備
メモ
諸国
護衛
学習
松本
##リーナ
講師
正体
ウルトラ
つまり
##ip
富山
突き
テレ
従っ
当たる
和歌
新宿
翻訳
大阪府
テキ
ワシ
研究科
感情
##ログ
ディー
遅れ
記さ
An
アレク
留学
プレミア
生命
##次郎
ガンダム
##ジット
聞い
美術館
国王
保有
かん
証明
##ob
##一郎
航空機
コミック
ダブル
あい
たく
投資
##動車
英国
クロス
格闘
暮らし
目指す
取り上げ
再建
終わり
グレ
手法
東西
自転
青森
##ワイ
歩兵
名付け
がっこう
ウク
南西
##取っ
ライダー
##人民共和国
受け入れ
流れる
千葉県
いか
##00万
##og
##チュア
ラー
##OC
要請
短期
Re
メッセ
PS
##ンバ
クライ
スタジアム
過程
装甲
委員長
集合
資本
##合っ
##シャー
投入
##フォード
アクション
de
残さ
訪問
エジ
居住
ハウス
交差点
達し
##から
財団
国会
譲渡
王者
モノ
発着
1889
どこ
出さ
パーソナ
##ティン
終え
中部
際し
十分
海上
両方
まつ
ワールドカップ
##取締役
従事
1920
##ネーム
部下
修道
ボタン
ジャンプ
各国
締結
生み
徳島
ビジネス
##ゴル
実力
暗殺
作用
変わっ
藤原
限ら
労働者
##ントリー
食品
山本
ポルト
個体
##ねる
##違い
##ラント
深い
弁護士
武蔵
昇進
##ゼルス
サイド
##チャー
##公園
着用
##委員会
バレ
ホワイト
入手
and
##ナン
規格
##幹線
大阪市
179
##art
##体的
宮崎
##ive
##ホール
育成
##ラク
遺産
三重
##UN
ガー
翌日
動作
脱出
マラ
##ハン
繰り返し
だい
マリ
傘下
パイロット
戦隊
衛星
手が
進化
学ん
マシン
大分
手段
ナイト
作曲家
確立
東京大学
側面
早く
##朝日
レコー
##ell
箇所
多様
応援
初頭
進む
ヒュー
##US
週刊
渡り
コメント
##フォン
協定
売却
普段
ロケット
貿易
レーベル
良く
初め
離脱
おか
東日本
伊藤
高橋
ソフトウェア
相撲
戻る
##チュー
川崎
数学
モチ
末期
ウクライナ
職員
##立つ
カトリック
北西
ラテン
ベルリン
幹部
##モンド
事情
描く
ダー
上映
リスト
イエ
取る
ウェブ
##セット
オフ
信仰
緊急
徒歩
沿い
代表取締役
相談
##if
ベト
72
河川
コラボ
放射
テク
メイ
##ミナル
ミス
買い
分子
実質
##FC
LI
ちょう
活用
アクセス
##やし
しん
トーク
公表
一切
プロデュース
マグ
平方
守備
統計
##ビエト
##ーマー
解体
西側
先行
山形
徐々
エク
下記
殺し
流行
ボーカル
終盤
アウト
伸び
政党
司令官
争い
ワシントン
##ED
マリア
義務
そんな
事態
古く
発揮
大きさ
モスク
ハリ
##ワン
たと
学者
スイス
ソビエト
世帯
民主党
不可能
##ows
軍団
代理
発達
境界
##ボード
##サイト
警備
##ニューアル
あげ
大人
上げ
植民地
フライ
静岡県
ごろ
北東
解釈
チュー
合意
##ベルト
起こっ
1939
恐れ
人生
史上
リニューアル
ハンガ
メル
フォン
##チェンジ
本格的
巨人
##都市
120
天然
##ニュ
単行
全米
ユーザー
##回り
北京
免許
小林
教室
##80
キャリア
フィールド
栽培
エジプト
中世
##ハー
##ライト
SH
体験
##スタント
打率
敷地
##ud
投稿
ボク
小田
ちなみ
##民主
ギリシャ
Wind
##イング
##ヌス
半分
##空港
カット
付い
ゆう
めぐ
現れる
##コール
輸入
1937
答え
歴代
##ピア
##分け
構想
用語
人工
演劇
##ルズ
ベイ
書籍
分かれ
スプ
共和
性質
悪魔
予想
選抜
悪い
午後
##ミス
明る
次元
ムー
複雑
大賞
支店
ジャック
現存
連結
カタ
態度
手紙
類似
国境
ロサン
ベトナム
しば
人員
##理的
クイズ
モチーフ
##セント
ロサンゼルス
男女
不動
連携
##ブレ
隠し
正確
自転車
手術
##ミニ
続き
##ダクション
最多
##パート
死ん
大部
##キア
自殺
働き
##カス
クル
授業
外国人
構築
顧問
扱う
戦死
##ne
広場
観客
修正
社名
知事
案内
血液型
創刊
不安
##の子
さい
寄せ
殺さ
##AG
ランク
##レッジ
ネタ
アウ
##シップ
頭部
オフィ
授与
Ar
人形
興行
よい
無線
財政
##立っ
バレー
極めて
##合う
1万
働い
守護
##プス
きょう
吹き
##ーナメント
##ウイルス
ボディ
事業者
ビッグ
補助
地下鉄
約束
清水
割り
加藤
##ガス
放映
Pro
午前
ダメージ
音声
悪化
Ne
イー
商店
両者
操縦
曰く
機種
##セプト
標高
##道路
項目
伝統的
研究者
小さい
ファイル
遺伝子
グロー
戦艦
渡っ
女王
接触
ラグビー
決意
経緯
混乱
絶対
シャー
学科
パートナー
群馬
##ant
脱退
コル
1936
コミュニティ
##io
駅舎
先生
Sh
ドゥ
##フィア
##ヴァー
##たい
南東
ロング
Co
よし
##マイ
同期
王子
画像
##兵衛
見せる
Sp
PR
下り
圧倒
国勢
再度
議長
戦闘機
##ケート
主題歌
決まっ
##ない
恋人
大部分
新規
ヴァイ
福岡県
装着
当該
テレビ朝日
改め
##ッピング
本当
##ge
バラエ
セレ
北朝
明確
作者
暴力
福井
あらゆる
レコーディング
##テイン
交代
##サイ
本体
姿勢
沿岸
称さ
##スプ
容易
変換
1938
##リウス
赤い
##ームズ
所在地
十字
アント
尋常
関与
レス
来る
ハンガリー
幼少
##シュタ
アム
修了
渋谷
整理
保持
組ん
99
ミュ
いえ
職業
##IR
Windows
違反
De
たる
ブレーキ
ポルトガル
仏教
激しい
たま
メガ
スクール
歴史的
主力
いつも
ローカル
短い
病気
たび
しばらく
長野県
##ルトン
しゃ
##ソフト
上陸
ファッション
76
出会い
出走
NE
##レル
在学
確定
##ッス
ジェイ
聞き
転換
引き起こ
パス
オーバー
合同
##ーリ
申請
対決
##直し
##all
以内
まさ
重視
ハル
跡地
##ue
予算
およそ
##II
民国
ドラフト
フィン
リンク
一員
著書
スポンサー
ソウル
とど
推薦
トーナメント
##組合
カイ
##ケン
ライバル
178
##ベット
有力
グランド
##級生
メッセージ
子ども
監視
言及
もっとも
重量
芸人
神話
競馬場
パーソナリティ
キュー
ヒー
800
##LE
##稲田
エース
##フォーム
通う
名誉教授
ゴルフ
放送局
##IM
177
輸出
問わ
違う
自社
リア
##越し
スティー
公認
##上げる
まっ
著名
異常
除い
##シル
考慮
伯爵
評論
##社長
81
勝負
保守
600
エス
77
岩手
街道
##ツェ
AC
##なた
ロバート
##ちゃ
ペル
##アフ
東洋
災害
##止め
オペラ
##pp
##GM
日本国内
養子
##つき
コム
政治的
ベン
160
##候補
くん
立候補
全長
##ロディ
劇団
中華人民共和国
開い
早稲田
当日
すら
アレンジ
外部
おこ
追放
夫人
関数
##もり
再現
スキー
##フィック
##ブス
タンパ
##ort
ドア
1933
##メイト
帰還
半ば
遠征
トルコ
触れ
併設
##なし
##チス
爆弾
ユダヤ人
スピード
異なっ
数字
トヨ
ケン
子孫
収集
一致
劇中
後方
依存
##ノス
象徴
防止
##クシー
##ーナス
オンライン
とおり
ブラン
亡くなっ
##らえ
即位
再編
西武
楽団
ジャケット
##ION
附属
##変更
楽器
アメリカン
絵画
深く
銀河
マジ
もともと
復興
探し
かかる
1932
SS
当主
誘導
1935
シカ
共産党
85
印象
重ね
##our
権力
戦国
支部
##OT
##立大学
土曜
上野
##震災
先輩
MS
意思
電動
北側
渡辺
区分
武田
駆逐艦
会話
発動
71
測定
称号
MC
過ごし
##AY
一家
上下
コメ
課程
1934
直通
##センス
ハンド
最優
66
様式
97
順位
フィルム
回数
機関車
ブレイ
次男
印刷
##ube
上部
させ
優先
##マル
意図
北朝鮮
信じ
奴隷
##ight
盛り
オーディション
該当
1928
活性
##べる
下部
本拠地
クイ
リュ
コロン
一環
センチ
爆撃
球場
滞在
参謀
大手
モンゴル
在住
振る
シア
歌っ
音源
許さ
盛ん
通行
主体
故障
ホイ
じょう
外見
住居
##ナス
74
コンセプト
取り扱
アニメーション
73
さえ
入れる
打撃
離婚
##ージュ
加工
抑え
駆け
##ヴァン
フィリピン
証拠
最近
レオ
Bl
ディレ
イスラエル
準決勝
フェル
01
シュー
搭乗
モーター
##ドン
侵入
リスナー
文化財
モスクワ
引っ
幼い
##ドゥ
八幡
短編
##くら
##20
具体的
86
戦っ
プラス
東側
戦線
##フィー
キャッチ
同月
戻り
##三郎
親友
th
代替
とる
恋愛
黄色
##クソン
ヘンリー
出来事
##リル
95
提携
##テインメント
長年
BO
家臣
最低
交響
抱い
デモ
双方
##ニャ
アタ
再会
辞任
##向き
1929
プラン
ヒロイン
##EL
報じ
四国
示さ
##ate
井上
YouT
警察署
##ity
ジョー
起源
てる
記し
くれる
突然
幅広
生涯
ジャンル
パル
柔道
上海
費用
学び
ソー
インチ
フロント
学ぶ
##ルター
沿っ
##レンス
ロゴ
規則
ガラス
##ran
##ry
編曲
任意
##文字
抜け
ハート
大将
パフォ
古典
社員
にく
##AK
##さい
##ING
##ss
##リーグ
出馬
平安
言え
日曜
##クタ
クレジット
JR東
##ッケージ
福祉
東映
修理
伝える
##ast
##本線
当て
当たり
##RE
1931
黒い
##東京
No
##民党
高知
白い
##たく
解除
失わ
次々
移り
##中央
ヤン
関心
部品
アート
##ッポン
##立ち
あたっ
##ッパー
同級生
単純
材料
トヨタ
##ライズ
犠牲
複合
##科大学
##カイ
解消
気象
ワイド
Th
空中
石川
到達
##リット
地帯
170
##ib
1923
##ハム
必殺
有限
発掘
メン
##電話
ギリシア
措置
潜水艦
効率
並び
食べる
ジャズ
##モア
栃木
##クトル
取り入れ
ブログ
バラエティ
来日
止め
利益
単行本
単に
基づき
発電所
アイス
伴っ
一体
分岐
佐賀
##IG
防御率
終わる
入力
タッグ
攻略
中山
マスコ
##之助
##しみ
上り
屋根
駐車
サム
##リズム
次ぐ
火災
敗退
##ストロ
##チョ
##ケットボール
##テスト
GT
1927
Mar
起こる
##わし
##課程
今後
既存
##lay
Le
##九州
##アフリカ
##フス
88
流通
##自動車
ファミリー
##テッド
##ニン
思う
シート
オプ
スコットランド
天正
漫画家
##受け
ボル
怒り
批評
事前
育て
##ッシ
エンター
生じる
兼ね
##んじ
パッケージ
ドライバー
中期
市街地
78
あろう
##ord
ウル
フット
アミ
##ボル
レスト
##丁目
1924
台風
冒険
大隊
##コロナ
ミュージシャン
##教育
出発
線路
68
SF
##下げ
おそ
##務省
ヒーロー
##ミネ
##ーマンス
射撃
##おう
取り戻
SU
配備
選挙区
ポート
リード
##たま
コレクション
全面
借り
出席
##かす
代わっ
夫婦
変形
演技
処刑
ナンバー
ポリ
新型コロナ
##end
無人
ゴールド
分解
停留所
##AA
推測
マイケル
気持ち
国土
突破
訴え
##ウォ
特性
Un
##どり
##回る
##ンパス
トランス
##ウッド
##ンジャ
##ect
市内
##務員
抗議
進み
区画
時間帯
前方
会見
最優秀
前期
同名
ノース
食事
テン
ナポ
続編
ストリート
##関係
##ージャー
石油
91
簡単
1925
南側
SC
上演
タンパク
後者
包囲
1926
とう
衣装
退職
いけ
共和国
##ian
温度
語り
後ろ
サル
スパイ
建立
##ートン
##ポール
送ら
日常
退団
議席
除き
EX
看護
##川市
Su
マイクロ
占め
##wit
##リオン
一時的
撤去
立っ
マイナー
冒頭
ゆえ
故郷
定着
一連
176
日本軍
継い
接近
した
援助
山梨
先端
セイ
文献
スマート
気候
選ん
今回
周り
らしく
シカゴ
全域
折り
はる
後任
試作
##PG
##ージェ
池田
##ナルド
プリン
共有
想定
独特
実家
##っき
パターン
##レース
AV
1st
##ステル
経路
回避
メール
負担
抱え
働く
行方
送信
##プター
##づけ
月刊
蒸気
ライフ
評し
マス
落とし
ドラム
山脈
走る
総督
専門学校
回収
シナリオ
最新
もし
スラ
トレード
FIFA
和歌山
##まら
収入
司法
連覇
演じる
67
号機
クラシック
フランス語
出資
相続
実業家
##ンチン
##ソー
##コス
##ンジン
近鉄
##ズニー
保険
症状
証言
教員
マルチ
##イナー
OS
振興
ジェームズ
ユース
発明
攻め
文部
うる
250
読売
観察
取扱
##ペーン
つか
III
岐阜県
98
たとえば
所持
エディ
書記
功績
出会っ
理事長
加わっ
96
ポル
合戦
挿入
##ver
カリフォルニア州
ラウンド
アブ
アメリカ人
差別
塗装
怪我
アメリカ軍
##ロウ
リチャ
あなた
才能
資源
学術
パフォーマンス
##サンド
説得
気づ
キャンパス
##つい
ビット
##ph
メカ
奪わ
新潟県
もち
づけ
伝承
図る
トライ
学区
ポスト
1922
早稲田大学
越え
ニッポン
タンパク質
ブラウン
101
##ティス
話す
とて
ライセンス
無かっ
##しろ
言える
厳しい
漢字
ゼロ
料金
示唆
記号
1919
仕え
NT
トム
修行
##ベス
屋敷
金沢
訴訟
解析
妖怪
って
経過
実装
##書き
苦手
##当たり
通る
##30
固有
掲げ
1918
鳥取
別名
公式戦
ドキュ
死刑
並行
ませ
なぜ
避難
##ヘン
##保険
##企業
聖書
ベルギー
直線
##ネシア
新田
扱わ
年代
110
歌う
チャールズ
受験
##ソング
決める
ディスク
経済学
##te
##惑星
出演者
バイパス
マッチ
##コード
タン
教皇
需要
瀬戸
特典
ショップ
##々木
捨て
手掛け
広い
願い
##ッティ
決戦
##時代
トイ
イスラム
自民党
防ぐ
シリア
広島県
175
原子力
忘れ
CP
題材
見解
##プル
##NS
##ロック
埋め
##バラ
領土
##ich
書店
宣伝
ごう
##シスコ
在学中
コスト
移民
コール
##KO
##ソコン
ソニー
ウィル
Am
歌唱
信用
バス停
##岡市
##須賀
派生
##科学
##しゃ
世界中
降伏
あく
##フェン
実績
資産
ガン
被害者
AS
ワイン
##ラノ
やすく
スカイ
##ンマーク
##ドロ
利用者
例外
主導
アマチュア
素材
##per
リーグ戦
フリ
促進
甲子
選定
レストラン
短縮
いた
##ain
SM
キャンプ
いえる
デンマーク
##好き
倒し
キャンペーン
コンパ
TR
携帯電話
ボーナス
文明
近郊
提示
打点
表彰
犯人
##one
トラブル
##システム
起こす
英雄
##ミック
難しい
ポップ
退任
##ゼント
##っくり
工作
ファースト
養成
##EM
##連合
##ゾン
1921
終戦
##タウン
提唱
##当て
自主
数々
応用
##ジョ
NP
疑問
特技
駅前
##府県
##らさ
存続
ケーブル
視聴者
助手
新型コロナウイルス
関わっ
遺体
けい
信長
封印
##チア
接し
##ーレ
高校生
郊外
##取る
マガ
浴び
受け継
##ネマ
##ハウス
##se
ウィーン
愛媛
勃発
乗客
##ニスト
少将
##メル
ざる
近隣
分裂
大名
損害
校長
##ff
84
少数
併せ
認可
衝撃
しも
国防
ドン
快速
救出
味方
##NN
座席
##az
事例
運航
低く
##KY
##リフ
取り付け
##ポーター
YouTube
はじ
171
世界的
ショート
ダーク
若干
##卒業
ナショナル
三角
ユーロ
台車
CO
まち
勉強
##バイス
DJ
##やく
プール
行なっ
みんな
パーツ
えき
82
DS
##崎市
##活動
破り
デス
ハワイ
映画祭
大佐
##ウルス
課題
最強
体系
##つける
私立
##ore
死者
賞金
ラスト
ポケ
若手
ビーム
民営
反発
ディレクター
ウイルス
移植
研修
##ディングス
転じ
不満
ドーム
持ち主
夜間
売上
コンテン
バスケットボール
入院
支え
ファンタ
請求
損傷
一帯
用途
織田
巻き込ま
非難
金曜
関わら
しれ
ミッション
キャプ
国外
##ゲル
占める
ホル
方言
##ンチャー
委託
ケイ
文学部
でし
##上がっ
中日
FA
プラット
##民主党
高速道路
あき
参考
スーツ
太郎
診断
降格
##TR
代表的
宮城県
原題
急速
##ージャ
ドロ
想い
証券
開館
送る
##なか
先頭
LIVE
マレー
手がけ
##ジュール
最中
##ジラ
かわ
ジェット
リチャード
捕虜
取り組
開拓
放つ
つける
リアル
高級
成分
肉体
日中
ヴァン
一旦
架空
チャレンジ
実質的
コムーネ
団地
暴走
87
従業
##しん
##IL
クリー
厚生
質問
迎える
イラン
ディズニー
AK
社会主義
1914
わたり
別れ
##ーバー
92
描き
木村
日記
テキサス
努力
要塞
テレビ東京
##モーション
##ネー
スキル
焼き
ファイナル
他人
閉店
##エア
シャル
ラブ
読者
ワイ
Be
##EST
##レオ
##IP
##しま
うま
偶然
電波
全線
師事
ごく
##ft
端末
恐怖
北条
駐車場
現行
##入れる
したがっ
##アリー
ML
##コース
ロケ
ピエ
及ぶ
海洋
阻止
自動車道
キュ
取ら
アシスタント
成果
総称
あの
関わる
ステーション
怪獣
秀吉
ステークス
中隊
戦力
69
##ロジー
高松
ヴィル
オプション
とても
##切っ
黄金
慶長
森林
暫定
地形
表し
##覧会
開局
正面
##電鉄
##ix
まる
要因
2nd
戦前
学年
師範
小さく
##返す
700
並ん
道具
アルゼ
1912
駆動
生存
##ークル
ひとり
##原市
改札
##チャン
頻繁
ブライ
かける
滋賀
かかっ
ヤング
##ージー
認める
アダ
たか
もらっ
BGM
スロ
幼稚
空襲
女の子
見つけ
パソコン
ミッド
財産
連勝
まん
ちなん
合体
161
雰囲
従業員
雰囲気
向かい
##エフ
大西
ホー
駐屯
平野
軍隊
ドイツ語
不詳
戦時
家督
繁殖
未満
逃亡
運輸
背番号
##町村
##ah
金曜日
圧力
##ok
西洋
社会的
体育館
造船
ついに
容疑
##総選挙
衆議院議員総選挙
安打
成り
武将
日々
指揮官
落語
威力
天使
##イラー
茨城県
##都宮
誕生日
改編
反映
合唱
秘書
警視
AM
ポンド
北陸
くらい
福島県
詩人
Play
発音
宝塚
##ッセル
タワー
ピーター
##田町
##OP
中野
商人
89
改めて
近畿
足利
タクシー
実用
延期
1917
Con
同僚
##われ
立ち上げ
##UT
159
正義
紛争
助教授
行なわ
当局
おも
開店
キャスト
##バード
オリコン
権限
循環
若者
降り
##スラ
気付
##ヒー
北米
倒す
打ち上げ
酵素
##新聞
157
競争
##ベン
相対
帰っ
1900
騒動
AR
特許
セミ
ピンク
施さ
##IA
カウン
ワー
広域
1910
コス
悪く
1番
検出
男爵
倒れ
##ナイト
特集
##まえ
ベー
町名
しょ
根拠
ON
158
フィリップ
憧れ
ゴールデン
任じ
主流
アルゼンチン
##ld
マリオ
実況
ちゅう
就職
指し
海賊
##カラ
逆転
船団
都道
都道府県
この頃
##大会
創造
プロダクション
インターチェンジ
接する
美しい
火山
タンク
テニス
国連
確率
大橋
岡田
第一
終結
ひろ
会館
全身
ジム
トレーニング
友達
将棋
移っ
繰り広
探偵
署名
上流
エクス
174
講談
小野
LO
ゴー
修道院
家康
83
小学生
##エンジン
時計
間違
##WA
フレーム
仕掛け
あくまで
インス
立つ
スタン
喫し
変わら
##ヨン
79
UE
ヨー
ガイド
中断
##チル
不動産
##たび
フィンランド
JR東日本
本土
##田駅
回答
##タイム
##ダイ
西日本
SE
語る
縮小
応募
##フラン
##ide
期間中
度々
挙げる
ターミナル
招待
##知事
閉じ
##ェル
受信
出産
##bo
もらう
運賃
130
メタル
放出
##バンク
##かける
CS
Se
走り
コンテンツ
変わる
カレッジ
同行
不正
豊富
たけ
名古屋市
召喚
スライ
空母
スリ
##なう
救助
フィギュ
感謝
MV
排除
##フラ
彫刻
3000
総選挙
ポケモン
##ッキング
KO
一貫
En
ヴェル
分校
訪れる
民営化
競輪
##不明
ピン
配布
クリスマス
目撃
ヤク
南海
延伸
意向
雇用
レーダー
名乗っ
水素
ミュージカル
決議
保管
リク
マスク
一面
無視
リスク
##ラリー
魚雷
親王
ノルウェー
笑い
コピー
##メンタ
放棄
修復
パネル
乗降
##イルド
オフィス
##イラ
半年
強調
##ミル
##太子
168
王朝
多摩
ゲート
語ら
創作
量産
上級
上京
避け
航路
学位
開放
##かく
春日
物理学
エリザ
踏み
三振
93
簡易
インディアン
覚え
164
前日
オーケ
市町村
撃破
ボン
飛行機
バイオ
出版社
行事
アレクサンド
配属
Te
モル
アナログ
ガル
告げ
##エー
ないし
官僚
ウェスト
待ち
補給
コア
参加者
勧め
制覇
告白
ディーゼル
##学院
てん
バンク
中将
好意
倒さ
移し
加速
名乗る
プレゼント
##ang
##作用
1911
1913
コマンド
##プレ
コミュニケーション
##ure
司令部
弱い
ガード
##バム
ストライ
コメディ
国際的
ちょ
激しく
やる
属性
融合
##セイ
下車
アルファ
さくら
亡命
有料
なくなっ
落選
キャスター
UEFA
嫌い
##寄り
修士
ロール
粒子
出土
控え
妨害
幼稚園
認知
車線
##イヤル
近づ
コントロール
##ツァ
サウス
##ケード
生放送
コンクリート
カンパ
##ベース
##OD
##エット
ジャーナ
東海道
とら
太田
豊か
##チック
156
阪急
HD
st
大気
94
基盤
質量
##っきり
土曜日
宇都宮
装飾
乗せ
ショック
ニュ
##まれ
サイク
##ナショナル
マサ
栄養
166
カップリング
北方
ソビエト連邦
##旅客
カフェ
不良
ロン
制し
海峡
カテ
##旅客鉄道
##リダ
寄り
遭遇
コンス
子供たち
マガジン
レーザー
##レオン
##FL
琉球
長女
プロセス
##ack
削除
供用
ルイス
##貨店
夫妻
張り
##野市
わたる
史料
ボックス
飼育
限界
プロイ
##務所
##研究
担っ
つれ
心臓
風景
##っかり
瞬間
のり
イラク
地図
保安
1908
破っ
前田
165
オスマン
容姿
徹底
大日本
デル
不能
中島
積み
マリー
##シティ
シンガポール
廃車
陥っ
##番組
売り上げ
##カリ
##裁判
王位
船舶
レジ
予測
169
##ドウ
##VA
前提
CH
寄付
##St
##コロ
発覚
オーク
敗戦
フォード
##取ら
埋葬
He
##age
後輩
エレクト
オレンジ
ダウンロード
##裁判所
経済的
入口
メタ
##テーション
引退後
出張
航海
##ber
バレーボール
結ば
毎回
評論家
酸化
##労働
岡山県
大宮
##モス
##ースター
転向
ライオン
千代
疾患
小惑星
考案
自称
圧倒的
水戸
当たっ
壊滅
##witter
割合
##ith
神奈川
評さ
三重県
##ネイ
Ex
##ly
戦術
飲み
変える
おく
三井
切れ
周波
騎兵
##付ける
補佐
広がっ
渡る
引用
容量
先駆
集まっ
出店
##ーマス
##ッシャー
Web
ツール
ウォー
トー
ブック
地中
to
##ase
起点
東方
ポン
1915
余儀
鉱山
上場
山陽
##川町
流域
##わさ
感覚
##ies
数値
アキ
下し
不定
書く
アプリケーション
1907
スリー
##川駅
変動
騎手
うた
##ジーランド
独占
構内
##大統領
改装
登山
##渡し
米軍
AL
入賞
##ノール
艦長
講演
ヒル
Gr
##ial
入場
##はり
グレイ
ニュージーランド
晩年
##uc
初演
消え
##ライター
##合物
IN
正規
##レム
##バーグ
サンタ
失い
慶應
プロイセン
re
生き残
おそらく
##国大学
叩き
君主
群馬県
ビー
図っ
172
人称
祭り
キャプテン
終点
魅力
流し
旅団
##スティバル
トイレ
遊び
##モデル
ヴァイオ
選ぶ
研究会
オーナー
##上がり
コート
式典
レンタル
動員
報告書
誇る
ショッピング
魔術
周波数
##メンタリー
ヘビー
外観
休日
##oh
あわせ
最小
インドネシア
##ire
偵察
逃れ
なれ
##0万
アトラン
予約
##自衛隊
エー
着手
##新幹線
##帝国大学
相模
JAP
IT
マニ
##ary
##ンジャー
##シリーズ
沖縄県
期限
青山
100万
スル
##テク
02
スミス
日曜日
地獄
レンズ
##エラ
置き換え
皇后
征服
宮殿
農民
##sh
理想
復讐
観点
向き
奉行
内蔵
引き継い
スカウト
かい
落下
##島市
品種
準優
フォーク
準優勝
##iz
切っ
ねん
ch
東宝
DNA
やはり
##ock
ようやく
宿泊
##ビジョン
正解
##プラ
いま
トル
コンテスト
賛成
##ong
女神
大韓
人種
謝罪
ワンマン
放っ
##ust
魔王
もたらし
cc
奏者
人数
兼任
視点
バレエ
高齢
##クセン
勲章
山地
プロテ
アンダー
黒人
マラソン
警戒
ラム
天体
小規模
種目
横断
背中
牽引
エドワード
ペット
##かん
##カロ
ブーム
陥落
魔女
境内
尽力
##ャン
##テス
##シオ
1906
老人
ほしい
##ペル
Pr
拘束
ドライブ
数え
隠れ
配給
BL
かね
師匠
デー
エキ
乗り入れ
オーケストラ
アサ
##サウルス
マネージャー
にくい
協議会
都合
気温
##UM
直径
小説家
鹿児島県
並ぶ
162
保障
セルビア
##man
無理
##ica
##薬品
抑制
ドキュメンタリー
実践
手伝
MLB
使える
室町
##ウィン
リオ
特徴的
歌劇
突入
避ける
電源
佐々木
##キスタン
アラブ
##とめ
松平
講談社
167
連合軍
バランス
##津市
審判
デザイナー
動力
適切
パンチ
変わり
比例
##打ち
エンド
New
JAPAN
定める
AP
領主
村上
ペア
IB
伝わる
成人
ボストン
05
入門
影響力
囲ま
##ページ
アリス
173
京都府
クリエ
がん
Twitter
メモリ
教科
大切
削減
マド
後継者
フリードリ
バスター
天才
##大震災
むしろ
実在
1909
横浜市
前面
東日本大震災
時刻
横須賀
和解
##掛ける
##技術
通学
ネイ
DC
トーマス
双子
士官
山崎
本店
負っ
コンクール
1916
ウィン
東急
同人
車内
墜落
マンション
どんな
甲子園
CR
##マーク
ゾーン
スイッチ
夕方
163
##リード
間隔
両国
法学
ベルト
天保
しゅ
襲わ
シンガー
##開発
確実
珍しい
ナチス
法学部
クール
ドー
##ハラ
函館
ボクシング
##qu
消し
イル
今まで
映画化
##ハウ
SD
せよう
専門家
クロー
庁舎
155
但し
回路
墓地
日産
開き
プレミアム
期生
飾っ
典型
##シュタイン
##ブロ
酸素
##久保
##ッソ
去っ
築い
ユニバー
内務
サークル
薩摩
文章
中学生
乾燥
##OK
前者
体力
原理
##oy
##もん
庭園
戦場
物理
ニック
##テイ
1億
刺激
タイヤ
捜索
##エム
コラボレーション
##大阪
チェーン
世話
キン
物資
##笑い
UN
新聞社
##ンガー
##ドイツ
ローズ
調べ
狙っ
マップ
インターナショナル
階段
指揮者
表題
同意
##詰め
でん
ビュー
##ond
付与
出撃
科学者
会計
オレ
焼失
##トラック
##リウム
同等
観音
交際
ジャー
含ん
上手
##ゴー
##デア
##右衛門
グロ
リバ
10万
欧米
ミリ
ネオ
ウェイ
ガール
2万
##思議
##ラジオ
大野
主役
##ミックス
##回っ
運命
セー
交戦
着陸
フィル
##イアン
内側
妊娠
Vol
ドリーム
フェア
ロス
選考
レビュー
ヘリコ
高架
インスト
軽量
キロメートル
タッチ
##落と
上院
懸念
性的
検察
活発
番地
アプ
二十
キック
人格
月曜
##トー
HP
被災
公爵
イェ
表紙
モーニング
要望
##ファイ
武士
##バック
ガイ
リト
小倉
##リム
つもり
叔父
成田
進める
##教師
任期
五輪
編纂
プレーオフ
レール
木造
マツ
起こり
モニ
ヤード
##リヒ
ウェブサイト
日立
##酸化
cod
達する
橋本
筆頭
コロンビア
すぎる
ブルース
道場
125
首位
隊長
##ニオ
刑務所
称する
シド
フー
##KYO
##バイル
介し
ラーメン
松山
##AX
美濃
##ens
甲板
有機
アポ
外れ
宮廷
フリードリヒ
一時期
##田区
構え
マックス
上杉
立地
主任
活性化
業績
大島
高原
長谷
所蔵
フェスティバル
Ph
##ハイム
スコア
ダニ
##やす
ジャーナリスト
スピン
担う
行列
カプ
重賞
述べる
ゲル
神宮
商店街
ふく
##なく
バイエル
打者
調理
結論
総長
捕らえ
死ぬ
協議
ウルトラマン
ビール
定員
ふる
儀式
ゲイ
##int
液体
小川
高め
化石
心配
ベネ
伊達
旧制
And
視聴率
見な
##ヴィッド
1897
純粋
##ベニア
まったく
##タイプ
##TV
山岳
バイク
パナ
5000
##ug
事務局
降板
リベ
敵対
##オル
08
大坂
室内
尽く
1905
##ment
しり
看板
無効
十二
04
##ドア
源氏
##モリ
##ミネート
後部
##ずる
付ける
部族
サンフラン
行方不明
考え方
プロト
山口県
ヘリコプター
後年
ゆく
##EE
気筒
##エンス
全般
中盤
町内
稼働
白人
正しい
##リアル
配下
条例
Cl
武道
フロリダ
Mus
##ヒット
周期
##ove
Wor
参入
贈ら
満たす
坂本
ハンター
ツイン
新幹線
長編
面白
市営
Sy
##DS
##会長
長らく
テクノ
コミックス
職人
満州
いれ
保健
ターボ
サンフランシスコ
##ook
ドクター
##ーノ
クラウ
下院
会談
緑色
##チナ
ならび
1896
対照
熊本県
むら
とく
個別
海戦
ボート
予告
保証
顧客
行使
施し
青い
リゾ
##ニコ
スーパ
ヒトラー
イリ
走っ
最古
La
##ライブ
不思議
読む
法的
人権
侵略
ダービー
天王
##がい
##フィン
##ローズ
##日市
TOKYO
臨床
グレード
水上
##ガース
##カンド
守り
##ii
##ショー
03
飛行場
はっきり
制服
込め
##ニックス
パック
レディ
##モール
演説
アルバイト
化合物
今作
下旬
台詞
言動
身分
内戦
アーケード
サス
真実
Com
##ガイ
か所
創建
アルコール
きれ
人事
com
退社
挟ん
##馴染
季節
##BN
ABC
渡し
140
レーシング
宮城
ヴァル
配慮
ラテン語
釣り
出会う
外側
ナポレオン
勤め
山頂
カス
1903
代表取締役社長
主宰
田村
ウッド
##役所
正月
##ビュ
##文化
買っ
##ウェル
##ite
無事
m2
地面
序盤
学問
総務
ゲージ
紋章
エンタ
高田
扱っ
##ガニ
Br
いろ
プレス
飲食
岩手県
喪失
ノミネート
空手
追っ
著者
喧嘩
車種
司教
Me
食料
総裁
砲撃
決して
codice
京都市
読ん
僅か
野村
アベ
踊り
スポット
IP
客車
公国
##ニオン
就い
##ぐる
大衆
力士
愛し
##ファン
和田
ミシ
##しかっ
##アニア
ボーイ
大地
##野手
操る
##バーン
恒星
種族
オールスター
##TA
##ナイテッド
闘争
##IV
##ーマニア
候補者
通勤
検索
増大
##Station
分かっ
発し
全部
婚約
博多
App
甲斐
##ットー
アーム
ミル
維新
1890
無限
眼鏡
高野
1901
Ad
ガソ
##ビング
作画
##捨て
広がる
介入
真っ
抱き
NTT
初戦
薬物
都市圏
文芸
返還
責任者
医学部
学名
##むら
技術者
OF
##ネン
歌舞
山下
南方
本項
混合
三浦
島根
歩行
##ish
##まし
高山
##着い
上回る
カンパニー
##ウロ
編集者
##ぼし
撃墜
断念
敷設
同作
しかも
在位
解雇
絶滅
##pe
##レア
スタンド
プロモーション
ガリ
模型
Ed
切り替え
ずっと
みる
違っ
Inter
考古
皮膚
プログラ
電化
衛生
けど
##デター
併用
疑い
結果的
乗員
騎士団
命中
大変
重複
出生
幼馴染
会津
管弦
五十
##ばす
ヘビー級
数十
ゆき
コーヒー
安倍
南アフリカ
開く
##TC
講座
ファンタジー
広報
NBA
三十
在任
療法
確か
中川
プラットフォーム
##ムス
チップ
冬季
##ナップ
セブン
建国
順次
##ational
エリザベス
流用
フットボール
マシ
ストーン
##ミット
ルーマニア
ロマン
パーティー
省略
騎乗
PlayStation
大公
##ame
巡洋
支配下
ユナイテッド
人材
前回
Mac
たびたび
大使館
##ールス
##ick
抜き
##Hz
1904
ミュン
エンジニア
著作権
回想
昆虫
##ズル
ショット
耐え
対処
救援
シネマ
ピク
ハーフ
Sc
グレート
##メイク
抗争
閲覧
栃木県
水中
牧場
コンテナ
##ッスル
衰退
重傷
シルバー
ミステ
WW
ワーク
ラス
歌い
スマートフォン
##iss
バイエルン
連合国
財団法人
総会
死体
##討ち
生物学
分間
##込め
滅亡
##ザーズ
元気
本種
ベンチ
住み
通路
##サイド
特化
短く
題し
カテゴ
##アウト
グラフィック
がち
有利
併合
出入
三島
##ダウン
幅広い
CL
濃度
沈没
我々
集める
近江
貸し
将校
コネ
受章
ラップ
商号
近衛
探検
チェコ
年次
AN
##ロニ
##IX
東南
Dr
毛利
クルー
勝手
早い
上田
京阪
##取引
チェック
マンガ
##ペラ
運河
##ert
##グラム
優しい
支流
青森県
漁業
##TS
09
専属
集会
カスタ
代行
心理学
##学院大学
復元
大好き
論争
上がっ
##引き
重力
評判
アダム
1902
154
通貨
青春
みなさ
上述
警察官
伊豆
当然
京都大学
野菜
カム
北九州
社会人
ロイヤル
新作
06
JC
暗号
##apan
ハイン
どれ
近藤
小山
推移
浜松
##IO
配列
教団
朝日新聞
救う
祖母
保育
模し
センチメートル
##ッピー
振動
PV
目覚
シンボル
従軍
ジョージア
ダイヤモンド
##揚げ
斎藤
残す
三男
市議会
天気
あさ
かた
##ツィア
900
大い
奪い
アリーナ
同国
殆ど
牡馬
ジャクソン
ダイナ
##ばさ
分散
##楽部
ギル
後藤
天井
長崎県
下流
残留
中国語
可愛
統括
##フィールド
ターン
##ナント
主義者
改組
##勝利
投与
覚醒
決勝戦
深刻
松竹
セーブ
##ョウ
##BO
じゅう
城主
フィラ
従い
財務
寛永
お笑い
奈良県
サウ
美少
役員
##マネ
##コム
欲しい
生かし
吉野
##リエーション
##ッポ
山梨県
##ile
歌舞伎
市役所
討伐
ヘイ
させる
ボード
シアター
ジョンソン
済み
OP
フェリー
##電力
余り
発症
見た
ED
クイーン
##ミュー
新築
国有
覆わ
不定期
改築
##カット
小松
AD
広範
史跡
##リティー
倶楽部
神殿
ジョーンズ
サイン
要する
編集長
書房
ウラ
石井
盗塁
##らしい
後日
ID
面し
見た目
ラリー
細菌
講義
特異
住人
##列車
荷物
なき
芸名
定期的
路面
長距離
現状
##oft
フィート
太字
アラン
ブルガ
砂漠
##リュ
滑走
当地
水平
伸ばし
樹立
支払い
圧縮
##しき
##ベイ
##西日本
AAA
りん
##ンテ
##女子
単語
1898
参議院議員
##五郎
浦和
中核
##ージョン
##チオ
信濃
##ラト
ヤマト
こだ
滋賀県
本物
上げる
携わっ
就航
厳しく
経営者
競走馬
倉庫
##マッチ
誘拐
タイガース
招い
Sch
批評家
同市
水道
##アナ
MP
##せん
歌謡
中退
##ux
自衛隊
肖像
至ら
テープ
郵便番号
早期
##電気
定年
中継局
くだ
##ンチェ
朝日放送
元禄
1871
つながっ
##民国
大韓民国
##切ら
リゾート
失う
##ロフ
原料
標的
##生活
幼少期
東大
##シェル
アグ
##ワール
建築家
##ノフ
土佐
##pt
生きる
尊敬
山中
##ろん
ファイター
反射
ヴェネ
汚染
##ath
チュ
見つかっ
結晶
ツー
チャンス
##ee
MBS
切断
脚本家
115
##ニズム
交易
馬場
認証
##がし
司馬
被告
##ズミ
リズム
##面目
挙行
チベット
##ロイド
バッ
ISBN
老朽
朝廷
食い
医薬品
##ve
大尉
解任
所有者
SR
ゴル
親子
うまく
施工
県内
福音
キル
##ory
##ood
エレベ
習得
ステップ
傍ら
元プロ
明るい
愛媛県
メトロ
##キュー
メス
##ンドー
聞く
EP
広げ
##リラ
着工
引き継が
##ンダイ
おき
予防
モンテ
富山県
正教
##レスト
取り組み
メニュー
国務
浮か
##ヒル
違法
##スポ
専念
ミネ
航行
救急
東芝
##張り
初勝利
月曜日
河内
ラウ
わかる
オオ
##障害
親交
シミュ
バカ
チョコ
締め
比率
##ンプル
王立
無し
##塁手
ギタ
現在地
スロー
名鉄
##クル
##コモ
モハ
幕末
診療
手続き
奪取
アラビア
##ime
もん
適し
封じ
典型的
開け
DD
丘陵
1899
インディア
ヨハン
##ベリア
退役
ライヴ
拳銃
捕手
あん
152
農林
精霊
事項
はるか
A型
07
グッズ
レイン
住宅地
受容
代表作
体内
木曜
グア
##ace
マルクス
Blu
口径
明かし
ナレーション
海兵
最年
車庫
治安
観光客
ウイ
東武
加賀
生え
転用
##ージェント
##ンドラ
##グループ
##UE
衆議院
排出
再開発
人組
##ノイ
ボラン
同型
##フスキー
誤解
抜擢
##クトリア
権威
厳密
株主
百貨店
繰り広げ
##ズマ
##バッハ
##ホールディングス
もたらす
##科医
熱帯
カート
そば
鹿島
##ベート
豊臣
過剰
##モニー
調達
シュート
三河
告知
正式名
育っ
科目
脅威
##ドー
照明
1873
創業者
##ムズ
業界
藤田
奪っ
##戸市
問い
RPG
特番
スズ
定数
役者
ヴァイオリン
異名
細川
統制
互換
捕獲
##管理
##ーニャ
固め
土木
ギタリスト
奨励
鑑賞
尾張
沿線
ガールズ
ポケット
監査
##ホン
市川
貫通
ドメ
入居
105
##リンズ
パイプ
審議
イースト
世紀末
##たん
フォル
EM
割り当て
カロ
人質
シグ
ムーン
ミドル
起動
IV
恐竜
検証
中等
学長
##ッセン
譲り
山城
##ポリス
進歩
My
##ローチ
完結
大蔵
使え
発信
反撃
警告
推理
秋田県
金額
不要
数百
胴体
好み
島津
河口
狭い
エフ
支社
諏訪
筑波
役所
フロー
教養
テル
ハロ
排気
##ier
上がる
##aw
野生
明日
標本
生徒会
Japan
敗れる
##イアンツ
##ーキ
AKB
##リャ
加える
ブルガリア
見舞
BM
##ヴェル
Car
ビーチ
友好
ミー
発注
初日
日野
貴重
追跡
NEW
上空
個々
大谷
魔力
##コア
CPU
熱心
ナイター
審査員
##キット
背後
ミュンヘン
今度
多用
##塾大学
詰め
いじめ
ライター
Ver
唱え
##フィール
福田
こく
##シエ
海水
共和党
世間
再婚
1500
顕著
取り戻し
呼びかけ
クラン
GO
阻害
把握
出品
品質
船体
##ウンス
充実
耐久
老朽化
生前
意志
三郎
グローバル
後退
垂直
取り組ん
ルーム
##まさ
Tr
詳しく
学校法人
生み出し
##ヘルム
格闘技
留まっ
造ら
暮らす
クーデター
##左衛門
##シスト
なかなか
民衆
遂げ
シェア
クロア
年末
毎月
満足
パーティ
EC
##同組合
精神的
##ニョ
助言
コーラス
111
##つく
追わ
噴火
だん
##ジメント
繋がっ
##DA
山形県
##ヴェン
コウ
特別番組
管区
勝っ
法則
常務
売れ
先代
al
スティ
##ッヒ
セカンド
水泳
ゴム
石川県
方程
哨戒
久保
##切る
楽章
##ivers
##rom
誤っ
技法
水系
伝達
職務
シャルル
パロディ
プル
極端
ハリウッド
##ゼフ
辞職
乗る
##抜き
食べ物
曲線
ストック
申し出
##用車
1872
##リク
マスコミ
ユニバーサル
SO
化粧
立体
##ンジェ
玩具
石炭
大分県
一郎
水準
強度
神聖
RE
経済学部
幹事
抽選
##ゲット
特撮
サンデー
VS
リメイク
コイン
Col
赤色
クレイ
153
##ヴィス
##イム
遠く
隊員
ストロ
概ね
BOX
借金
下位
##ナ州
アルゴ
浅草
##ium
クリエイ
アバ
ノン
仕組み
キーボード
Ser
レン
##ポリ
アテ
角川
動く
短期大学
##王子
デッキ
筋肉
野球部
番組内
ほん
緩和
151
原型
挨拶
窓口
連動
ホラー
部位
Man
城下
環状
##メール
##ound
守っ
忍者
物体
##っこ
ホームページ
みや
定理
##ッシー
##グラス
シード
加わる
マジック
アパート
ランダム
全国大会
徳島県
##アント
一行
##っち
消費者
102
キューバ
っぽ
##ンジョン
バット
望ん
知り合い
##ジュアル
低迷
##INE
流出
##寄せ
代々
体調
RC
##能力
キハ
セガ
個性
##発電
捉え
大山
入ら
密度
ホイール
Lin
成し
##gle
##プレス
競合
##義塾大学
契機
on
天神
ブロード
国土交通
ノート
師範学校
同局
洞窟
3万
加わり
上司
##ペット
グラス
##PER
##バキア
入植
除去
声明
西方
##マラ
ジェネ
領地
##施設
勢い
##ギス
海底
##町駅
関わり
神田
重大
解答
##ギン
平面
GM
知的
爵位
モント
呼吸
エミ
移さ
##ワーズ
入れ替
CG
付加
忠実
襲い
アーサー
牝馬
信者
短期間
##グロ
公益
紅白
##ビリ
##なす
学級
##ke
落成
ルネ
繊維
世界観
指令
銀座
アシスト
ブー
GR
技能
さいたま
インテ
ライナー
対照的
スキャ
備える
非公
副会長
要件
少佐
アナウンス
わかっ
広大
##ザス
天下
吉本
クロアチア
MF
果実
##らっ
##アスケート
未だ
##学科
白色
食堂
北西部
拉致
研究員
もらい
宇宙船
頂点
一回
バージニア
菓子
経歴
女学校
ペンシル
##シオン
ストレート
国籍
マレーシア
見なさ
方程式
債務
アダルト
攻撃力
##ベリー
1868
バルセ
招集
##EO
##ical
生態
ラッシュ
イエス
ガソリン
造船所
体操
Ma
りつ
新しく
種子
セントラル
##スプレイ
チームメイト
メロ
海域
殿堂
テーブル
葬儀
プレート
タイミング
##HI
メダ
メロディ
港湾
1880
検定
ミラー
##ビデオ
##世保
フォース
ランプ
##ence
##切れ
自動的
チェンジ
メアリー
組み込ま
鎮圧
##ータス
たっ
103
幾つ
活かし
同性
南極
管理者
準々
小屋
Live
もちろん
日米
冷却
ケンタ
符号
118
##ヴィア
牧師
ヴィルヘルム
恵まれ
日光
##ach
阿部
クエスト
因子
COM
骨折
##えもん
評議会
GI
##エス
策定
集配
AB
同志
##ジック
天文学
##浜市
超人
電圧
チリ
結婚式
各社
##東区
Comp
だり
引く
Or
##ヴィン
弾薬
##フリー
##山駅
##ソース
庶民
礼拝
パーセント
反面
しゅう
バルセロナ
届け
公的
不在
アピ
準々決勝
露出
明かさ
面倒
帰国後
ソース
自信
京王
##ネタ
良好
##どう
Wh
カウント
支線
##産業
前線
探索
##シート
幸せ
出雲
つながる
##合わ
ニッポン放送
幹線
改訂
一気
交付
異動
クラスメイト
巡洋艦
挑む
三木
##まい
##ノコ
建築物
シドニー
ドラえもん
やら
ドレス
慶應義塾大学
突撃
ゾン
美少女
右手
TS
婦人
1875
1895
介護
遅く
##投票
交響曲
岡崎
見送
ナビ
近世
kW
地質
電磁
増設
アタック
景観
ヴォー
正式名称
干渉
##AB
アンテナ
マスコット
##プレイ
褐色
シャン
リトアニア
ライフル
スクリーン
##テレ
最適
妖精
芸術家
爆撃機
判事
アプローチ
報酬
名乗り
ミズ
中旬
慶応
フュー
最下
正当
適応
##ッセイ
マドリード
平行
摂取
突如
##ギア
##セッツ
ギャグ
##isc
##ron
プリンス
帽子
セッション
卒業生
バイト
免疫
見直し
Rec
次郎
##ちに
不安定
##シウム
エレベーター
洪水
キム
難易
獅子
##ブリン
ウォーター
立法
カレー
しっかり
##000万
野田
##ERO
新日本
##術大学
ファル
リレー
狙う
##ザード
ヨハ
再発
World
##ニカ
##クチン
比べる
1886
みち
ファー
135
分から
マサチュー
映画館
ノベル
虐殺
赴任
ブリッジ
大聖
マサチューセッツ
永遠
##ern
博士課程
ダル
高める
りゅう
##年度
苦し
サウンドトラック
##わけ
##ass
パレス
PL
薄い
勇者
必要性
ワル
任さ
難易度
##ヤン
##政官
SL
横綱
##ドール
バーン
本国
駐屯地
##コル
セルフ
復旧
辞退
##けん
出荷
ゴジラ
ボブ
撃退
左翼
##メット
かぶ
かく
関節
アイデア
フィギュアスケート
##UB
##菓子
112
漫才
360
ハリー
皇子
航空隊
1892
DE
出身者
##あい
ロッテ
急遽
法令
振る舞
MO
制約
##オケ
日本一
リトル
津波
許し
民俗
青木
陣営
##コフ
スプリング
家系
ダニエル
109
郷土
チケット
1893
和歌山県
美人
##抜け
最下位
同校
##いち
1878
JR西日本
電池
わから
##ニーズ
ムス
識別
ロープ
防災
##ナミ
可決
精度
市制
感じる
格納
大いに
引き上げ
##中学校
ガーデン
##ベンチャー
明け
イスラーム
採択
##デルフィア
Par
駆使
右側
##回し
カーブ
列島
週末
ティー
立憲
きゅう
トニー
押さ
##MA
##デイ
リモ
やめ
##っぽ
金銭
引い
113
競技場
フィラデルフィア
取り扱い
逃走
流さ
##レッド
なす
炭素
皇太子
潜入
毎日放送
開幕戦
引き起こし
##セフ
駅名
ピーク
中心地
技師
##タール
心理
安政
シフト
##コピー
Joh
##とり
TKO
テキスト
ソル
ソフトバンク
王妃
怪物
打っ
##世界
##渡さ
探す
燃焼
夏季
院長
芝居
市販
##ニウム
##stem
セン
姫路
LOVE
##ool
##セラー
セキュ
ハム
104
火星
DF
建造物
モバイル
支給
ツイ
艦艇
121
志願
考古学
みどり
名目
##ost
箱根
三代
350
光線
並べ
所長
農家
##沢市
EU
テレビ局
引き起こす
対空
##美子
チャンピオンシップ
MUS
実戦
小笠
巡っ
ランクイン
5万
##バース
工学部
表さ
就役
1894
1887
##ューン
ニー
ニューヨーク州
ブレイク
使者
変数
長谷川
ピッチ
視覚
軽減
旅館
##ヴィル
バグ
藤井
##住民
##ction
推奨
サーキット
演習
聞か
助ける
母体
療養
ロマ
リッチ
客員
角度
##ッラ
##レール
寄贈
集まり
外務省
登記
撃ち
##ープル
日程
Goo
##ann
SA
##奏曲
ホンダ
松田
ハウ
弱点
側近
ドメイン
分かる
母音
増し
繰り返す
チャンピオンズ
NS
##盛期
早朝
小学館
王女
掲示
降下
アルメ
大井
享保
大王
高木
バルト
単なる
##休み
珍しく
透明
ダンジョン
パンク
めい
過激
##リアス
1891
廃棄
##are
焦点
地中海
服装
受け取っ
小島
射殺
表情
##四郎
スペイン語
##ai
得票
公社
##ros
浮上
北東部
香川県
展望
##ナウ
中東
望遠
マット
豊田
セリフ
大ヒット
##amp
県知事
117
ディスプレイ
グラウンド
会っ
##押し
所領
機関銃
サンド
甲府
農村
ダンサー
損失
トウ
輩出
##シカ
出口
メイド
転校
##デザ
##ear
単一
思考
メソ
抱く
敷地内
麻雀
越後
##ART
出入り
##99
##ヒト
探査
ターゲット
禁じ
多少
##ニル
背負
制圧
時折
とりわけ
##ぼす
ハミ
目立つ
ラジ
教区
##ACK
##総理
##AZ
##大陸
##HS
帰り
会合
##ッペ
脂肪
##えて
ナイフ
売買
国立公園
払い
増強
カ国
作動
望む
エコ
密か
お前
らん
カメ
グッド
##ps
量子
きり
明るく
##上がる
科学的
松井
誘い
商標
For
Love
首都圏
手前
起訴
本質
スティーヴ
収益
記す
みず
仮説
水域
ユニオン
抜い
##ましい
あし
データベース
停留場
Google
シールド
ウィリアムズ
ベッド
##ナーズ
1876
口調
出題
陰謀
光学
##ンスク
爆破
誇り
##MS
##ディス
力学
##協会
激怒
電撃
##原町
努め
電動機
思い出
カラオケ
注文
地上波
かみ
佐世保
AI
育ち
ループ
1870
東京帝国大学
マーティン
教科書
##ゥー
農場
##ッサー
WBC
土壌
仮想
1885
増える
後楽
神学
踏襲
発祥
コンスタン
106
過ごす
ホット
##山町
NAS
シングルス
明石
##ヴィチ
振り返
実体
##ぐるみ
パシ
##ck
大河
##だい
地方裁判所
福井県
##中央区
没し
黒田
ベクトル
名人
##通り
##リーフ
神々
ブラッド
従う
大西洋
##ERS
ロビン
##小学校
##動物
定時
##明け
ヴェネツィア
欠点
救済
##AND
公立小学校
因ん
実態
暗黒
ES
頻度
想像
退学
##ラド
114
##オーバー
両手
火力
各駅
惚れ
歌わ
128
自由民主党
個人的
最寄り
棋士
水曜
Music
デラ
ペイ
1874
りょう
##son
自作
##早く
決着
木曜日
熊野
##エゴ
コーポ
##証券
ロシア語
奪還
##ディン
##ような
ウェル
官房
小泉
撃沈
運搬
国際連合
絵本
盛岡
寄与
1879
最期
ふじ
ブライアン
付く
小田原
神戸市
ビート
たん
本数
##ジャン
乗車券
釈放
##ベール
待っ
討ち
内陸
木材
モロ
##団法人
大塚
##権者
##ウマ
プラザ
1884
##北区
入隊
貨幣
##タス
氏族
ウェールズ
##act
普通科
累計
##ほど
教育委員会
アパ
新曲
ポスター
アドベンチャー
見方
ゲー
キャッチコピー
発現
ボランティア
##ボク
##メディア
116
真理
じん
OVA
あだ
クリスト
犠牲者
たかっ
化し
オリックス
左側
監修
or
ドイツ人
狙撃
家老
我が
南西部
ストラ
根本
##オープ
冷静
招き
##期間
アンナ
飾り
支える
レオン
ユーゴ
ボリ
##ドニア
##ディアン
ワイルド
優位
調節
##ミナ
デバイス
おう
##nt
##ハルト
機材
新生
正常
名詞
日向
呪い
破産
エントリー
##名古屋
コンビニ
リクエスト
1888
バナ
1869
出張所
親衛隊
バリア
貧困
カントリー
保全
サト
ナイン
取れ
不利
傾斜
全車
楽しむ
好評
住所
楽天
電流
##リンク
メリー
122
強盗
淡路
変異
失点
プロレスラー
##hy
##マックス
シュタ
##ピュ
小笠原
著しく
##ゴール
##プライズ
退官
花火
国土交通省
果て
知名
小隊
広がり
TOUR
アイヌ
しろ
##ox
染色
CF
連合会
セラ
##ケティング
近代化
ワークス
辞め
五位
##トロン
##橋市
Apple
乗組
コンピューター
コンパクト
真面目
アンケート
労働組合
永禄
門下
##千代
役職
工芸
キット
台北
野党
##old
##ダンス
被っ
##HO
本尊
123
まつり
逃し
移設
シロ
バリ
薬剤
##電車
任ぜ
転落
後世
止める
湘南
真相
後楽園
巡る
流入
砲塔
起きる
次いで
あや
没後
B型
##ホー
校区
ボウ
119
オタ
同地
##川区
##谷区
##団体
ぶん
##ムシ
正教会
キス
喫茶
対峙
高まっ
基金
投球
ピエール
##国際
こん
ニコニコ
大久保
##uk
##ブック
学士
改定
急激
発する
##もの
回り
緊張
無関係
再選
初当
商工
初当選
共同体
ブルック
はら
倒産
円形
右翼
##返さ
マウント
魔物
##KE
もうけ
砲兵
バッテ
##売機
##オープン
開戦
##タミン
科学技術
捕食
元素
ペルシア
拒絶
##tt
寄生
実写
一見
中立
ロイ
殺す
論理
133
修士課程
マイン
大事
寿命
磁気
メディ
他社
好む
144
カウ
兵力
合衆国
南京
##ニアル
知名度
##ina
社内
プログラミング
せよ
宮内
バリエーション
好ん
原田
滑走路
及ん
##ーパー
カジ
悩み
##HT
賭け
##いろ
目論
旗本
##シナ
とん
公会
##ちゃん
##ヴィヒ
厚生労働
党首
福岡市
室町時代
望遠鏡
伊東
安価
香り
羽田
間違い
宮崎県
楕円
##ます
サーバ
石田
相互作用
サクラ
解説者
ミラノ
##ホーム
学生時代
帯び
音響
##ヴィー
寛政
左手
還元
##AI
##ょく
##デート
繁栄
踏まえ
現職
##ある
##世代
つとめ
##ンチェスター
治世
ファイト
前進
採掘
現金
政務
##バマ
横山
##ゆき
隠居
JRA
ディア
消化
絶望
先駆け
バンダイ
運休
Mic
二丁目
ドミニ
##デント
ray
兼務
真珠
ルパン
先進
ピアニスト
組む
FR
##橋駅
108
##トレ
総額
##サービス
ペース
マカ
##ank
飛ぶ
苦戦
イチ
事業所
重要性
##マト
##IE
孤立
矛盾
工程
高知県
馬力
体格
HE
##記録
##ild
宝石
旗艦
赤字
造り
トランプ
ベア
盆地
誤り
水産
##CE
##ッシング
プライベート
立た
##ポイント
苦労
ウエ
ムハ
安田
エスト
決断
こんな
ビートル
##ream
天文台
液晶
##ジェリア
クリスタル
泣き
NO
絶え
マキ
さらなる
植え
自国
##オブ
##ンマド
Mk
バーク
遠藤
高崎
多大
症候
ニューヨーク市
先祖
とある
五郎
127
ムービー
入れ替え
タブ
傭兵
橋梁
##情報
##かせ
EN
Op
軍用
##ローラ
素晴
電鉄
文政
島根県
笑顔
茨城
載せ
じゅ
情勢
オマ
演算
柴田
オイル
SUPER
##経済
##OCK
狙い
出向
近接
テキサス州
##ton
著し
##PS
打席
軍勢
アルミ
会い
ヶ所
割引
幼児
##トリー
バク
チン
トマス
犯行
YO
##デジ
##下ろし
重い
弾き
原稿
博し
残存
補強
返り
124
##AF
コラム
住友
勝手に
ファミコン
##ほん
マネジメント
勧告
大震災
太夫
マウス
所得
LED
ヨーク
浄土
優勝者
##11
総理
告発
ケル
持続
替え
民放
首席
中京
大津
##ドルフ
ポルノ
火曜
インパ
不振
落とす
ピット
##ハイオ
書類
おと
代数
グラビア
直轄
ペンシルベニア
勾配
##ュル
地上駅
とどまっ
インディーズ
手続
起工
アフガニ
サンダー
歴史家
もり
参議院
独裁
リボン
サイクル
中佐
VTR
オハイオ
##テイメント
##キャラ
パワ
ボイス
奇跡
吉川
##やま
芸能界
上限
プレーヤー
##ジウム
冠し
実証
ネコ
ヘリ
欠場
アフガニスタン
移る
チャイ
京成
##ject
##ode
格好
##メイ
##ition
1882
彗星
大神
勘違い
プロテスタント
大聖堂
ジー
名づけ
八王子
吸血
忠誠
ダブルス
作風
エロ
擁立
懲役
##HC
##ラード
シミュレーション
##oci
ショウ
Ste
##ハウゼン
バッテリー
ふた
グラフ
##替える
##リップ
中国人
ワクチン
クラーク
イヤー
イノ
アッ
投下
文化的
IBM
##les
大学生
国産
当社
豪華
管制
見事
掘り
外務
UFC
帰る
Intern
多発
追悼
一級
サント
##セッサ
聞こ
習慣
プロデビュー
ひら
押す
東山
菩薩
107
昼間
荒川
据え
西口
首長
重点
ねじ
教える
増やし
奪う
##電機
暴行
一目
川口
継ぐ
##ヌー
##野町
ユーゴスラ
飯田
##iel
技術的
陸奥
##もそ
たけし
入部
国分
##ショップ
厩舎
客室
髪型
皮切り
##ボス
官位
そもそ
アトランタ
そもそも
駅伝
アンリ
##クラブ
招聘
進展
全体的
145
交わし
##文化財
水路
セキュリティ
どのような
動機
##クトリー
最長
基調
DR
広まっ
アウグ
排水
国民学校
##ソル
必須
首脳
審議会
訪ね
##ナラ
##自身
ICカード
サンディ
抑える
##GA
高等学校卒業
レシ
視察
ちょっと
##ゥス
読書
##ブール
最上
幅広く
ギャラリー
乗組員
春秋
##目的
##ンダード
浅野
##大阪市
創始
##がわ
##ピング
ママ
再興
シンク
フェラー
両側
レスリング
パキスタン
##gr
マーケティング
きん
上方
産地
##ニエ
襲名
まい
一斉
食糧
ツッコ
##サギ
##長官
時々
フォーマ
##ome
##ビッド
Qu
成る
種別
スケジュール
##チンコ
幽霊
フラッシュ
詐欺
始発
アイランド
危険性
特有
バート
マケ
モジュール
上がり
公布
##ぱい
##AST
麻薬
##カロライナ
裏切り
蜂起
##カーン
アンティ
転送
##af
##ックル
剣道
1881
##ダス
邸宅
永久
##ンガム
リミックス
##ork
センサー
池袋
最終戦
##サイク
147
警部
専務
内閣総理
内閣総理大臣
O型
ノイ
##音楽
##所属
か国
##つか
BBC
疑わ
亡くし
126
無所属
有無
##英社
下げ
異例
長岡
アップデート
秋葉
シニア
行か
##ower
Ab
ヴォル
迎撃
一撃
位相
石原
裁判官
理事会
##リッツ
CC
ディオ
アール
##立た
全国的
アピール
受託
##グラフ
めぐる
ジン
広島市
##irl
スケール
オファー
南東部
カレン
水力
キリ
RS
MVP
町制
イスラム教
悲劇
BR
組ま
アンソ
市電
##ree
和平
##フルト
負う
正しく
Met
飲食店
適合
破損
校名
しき
営む
水曜日
法廷
チェル
外伝
失踪
##がん
##ンダー
LE
選び
##ラブ
目覚め
歩道
シェル
カルロス
タル
間接
アロ
追う
いし
順番
穏やか
##えん
オブジェクト
##ATION
ウエスト
警官
ONE
##はや
放置
気動車
触媒
レク
通商
ボーイング
##アミ
ホスト
選択肢
狩猟
ひろし
タカ
一角
##事故
秩序
タイムズ
稽古
とくに
公民
セールス
司祭
##カメラ
哲学者
運ば
仕える
##作り
有罪
アカウント
##ソングライター
Pl
佐野
重要文化財
オム
芸能人
次期
観戦
文化放送
ヤクルト
シンガーソングライター
従兄
蓄積
##ごと
教官
公募
対面
ガラ
鳥類
こなし
くら
収穫
バード
桜井
菊池
文部科学
見学
##ケイ
##リューション
功労
塗り
計測
法務
ムスリム
虐待
西村
導い
##ance
諦め
##ブリッジ
ネー
触れる
加熱
大関
カウンター
わが
マニア
主砲
回っ
##ky
直営
時代劇
ムハンマド
反論
##焼き
##機関車
蒸気機関車
受容体
上旬
子爵
西鉄
寸前
##BI
ボルト
怪人
運び
チーフ
感染症
返し
iP
##ンガン
アビ
美女
ユニフォーム
##ose
伝わっ
西暦
狩り
研究室
DO
あお
入会
西ドイツ
ユーゴスラビア
スケート
##ノキ
##10
外野手
特攻
家屋
本田
教諭
##払い
セリエ
エンタテインメント
半径
エリック
水雷
スプリ
アース
マント
with
ノーベル
まれ
浸透
祝日
詳しい
##ツィオ
マニュ
ゾンビ
越前
震災
症候群
愛好
自衛
ピラ
生育
発車
モニター
ゼネ
メー
通知
FW
路面電車
集英社
##二郎
刻ま
ISO
土器
##ords
レア
貨車
最年少
掌握
侵害
##モー
有限会社
担任
基幹
揃っ
偉大
単体
ベースボール
##ott
ゲームソフト
換装
##フェル
Ge
斬り
##ロル
コミューン
リポーター
戻し
福山
題名
LP
車輪
バブル
決まり
突っ
神奈川県横
愛情
語源
皇族
武蔵野
聖堂
##ヶ谷
##短期
##orm
十三
管内
イタリア共和国
差異
ラインナップ
一門
##ake
##短期大学
##メーション
バスターミナル
##ATO
薬師
難民
札幌市
エッセイ
検事
旧姓
並びに
##olog
祖先
内装
##ブランド
1600
宗教的
運送
##ゲート
水野
1877
フロア
佐賀県
鳥取県
待機
ローン
小売
トリオ
アンドレ
開発者
岡本
連敗
アドバイス
工房
あだ名
Go
自覚
フェリ
主将
伏見
吸い
名所
TD
オカ
党員
セックス
##がく
強制的
銃撃
迫っ
遊撃
##LD
フォーム
出港
ワーナー
すご
外交官
わざ
追求
アルゴリズム
デュー
書簡
擁護
安全性
ブドウ
与党
向い
FL
痛み
##京区
新人賞
John
ケネ
告示
行進
##ピオ
アーキ
出場権
原子力発電
##ブリッド
差し替え
MUSIC
測量
ポンプ
同居
アテネ
わたし
名門
日付
難しく
集まる
##原駅
タイアップ
オックス
括弧
総司
危惧
フード
常識
改題
複製
##ウザ
ニックネーム
System
##さま
##マリ
お金
アジ
医者
##キュア
BE
149
相違
##ヶ丘
##ンドウ
小柄
サッカー部
台頭
##もう
##処理
南米
農地
##ンダル
オーディオ
136
本州
高麗
##バコ
生体
##ail
Net
##GB
キャップ
ブリュ
AFC
他者
役目
たくさん
##ラスカ
MT
射程
##さと
引き分け
決まる
革新
##パール
三好
ぼく
##ラーズ
##並み
つながり
##名古屋市
美容
順序
##サンダー
ジョル
乙女
年版
##ラマ
島式
自立
アーチ
##コーチ
##ごう
テオ
友情
ビリー
##工業大学
ショッピングセンター
船長
社会学
脱走
##ボーン
ハド
気づい
##roid
下関
堆積
134
常連
集積
DM
理念
那覇
かな
渓谷
##わす
閣僚
エンターテインメント
##pr
有数
じょ
奇妙
146
僧侶
行える
中尉
政界
ペルー
##シュー
分かれる
少尉
海兵隊
北上
和泉
##ont
本機
広範囲
造形
Jr
かかり
封入
食用
AA
vs
阿波
##エリア
便宜
録画
強引
稲荷
PK
のび
採取
##au
##ベック
おかげ
##land
航空会社
でしょう
斜面
疑惑
ジュー
論じ
親族
アルメニア
代官
副社長
##ニアルバム
リタ
図ら
##カム
NET
香川
のりば
都立
川越
##研究所
州都
##島町
テイ
太鼓
所要
弥生
付き合い
シンプル
容器
中型
動向
本堂
王家
##換える
au
太陽系
鑑定
史上初
##バンド
右腕
内田
性別
遂行
クリスティ
停車場
##ピレーション
サマー
ネーム
控訴
利点
囲碁
##タゴ
たた
婚姻
熊谷
先述
崩れ
幾度
天国
リース
クモ
鉱物
##づくり
民事
写本
1883
当事
就く
食材
##アド
工夫
モール
後援
あて
##ise
##テール
交え
##ドーム
取引所
USS
追い込ま
越える
パラメ
今井
通い
##ンスキー
定住
襲っ
大輔
はん
##ターズ
見つける
##リヤ
ref
アーク
仲介
在来
播磨
##兵器
ミックス
シチ
追撃
親善
多額
山内
遺構
##航空
##ヴァル
ハンドル
##社会
代役
真言
強豪
足り
##UL
クリスチャン
木製
混同
NG
逸話
OB
仲良
参事
148
ハイブリッド
有馬
マリン
依然
予言
在日
##DP
幾何
離れる
##ぼう
付随
親会社
自分自身
ミステリー
製作所
占い
ルーキー
踏切
##ータル
##ェン
火曜日
##メーカー
国語
免除
テイラー
放射線
おさ
新興
初出
ばら
断っ
高温
間違え
任せ
凍結
##att
国会議員
口癖
立川
テネ
府中
鉄筋
##ロコ
##プロダクション
細長
勇気
武力
FF
pr
駐在
仙台市
##ous
取り戻す
ウィルソン
社団
乗務員
ハイド
醸造
アトラ
肯定
音楽家
にほん
コク
略奪
ザクセン
記念碑
時空
行なう
迫る
道中
頼朝
##女子大学
挑戦者
南朝
学部
金色
IM
除外
コロナ
サク
収納
##レージ
ビートルズ
公衆
軍艦
ソックス
ネク
物理的
ジェリー
大森
Wii
まり
ちょうど
星野
ベルク
##CL
縄文
##落とし
##ロボ
##事業
##天堂
手塚
解明
木曽
オートバイ
灰色
##職者
えん
高齢者
フランツ
愛知県名古屋市
ふさ
組み立て
宮本
an
孤児
##ピット
##グアイ
外国語
サロン
受付
赤坂
集約
加算
野外
支払う
青色
入り口
##ics
##ナタ
巡回
ha
##ンジュ
嫌っ
支持者
ウルフ
石垣
##ヶ原
反し
エージェント
知れ
##ツォ
追い詰め
##yn
ミラ
グレン
オフィシャル
パウ
宇治
プリンセス
金剛
担当者
英文
ケンタッキー
屋上
枚数
##ビット
生没
チャージ
実務
##ult
##デリック
みつ
含める
##スプレ
遅い
##よし
もはや
家庭用
WOR
出身地
膨大
講習
みたい
##ere
動詞
##ストア
##ラート
県議会
NC
紙幣
白石
##契約
田舎
##願寺
RO
ダイエー
##カナ
連邦軍
一方的
手がける
おじ
仮定
##ンドル
##ッテル
停車駅
佐久
国内外
セグ
##延び
##トリウム
ゆかり
整数
Sm
各々
嫉妬
スタンダード
私たち
補償
##ソウ
##地帯
##貨物
##ae
見守
陸地
輝い
##グマ
酒井
小田急
安藤
伝記
##ぶり
##じみ
アントニオ
ハードウェア
ネル
好ま
捧げ
グレー
順調
直接的
ダグラス
最速
ポニー
情熱
SNS
##レコード
聴い
デルタ
##リッシュ
喜び
愛する
栄え
他方
遺族
標識
高まり
ハーバード
政令
さか
携わる
浜田
##ラシ
自由党
国体
所管
##レータ
台地
見出し
保っ
曜日
##メリカ
あらか
住吉
エリート
伊予
役場
##トス
会う
弱く
El
武術
##GP
趣旨
##ーシ
満点
ジオ
東口
##ンシー
ドラマー
##ニッシュ
##スポーツ
げん
転生
シベリア
町域
フェニックス
すみ
クラウド
##ale
##ダーズ
呪文
軽い
川上
フォックス
交互
ハミルトン
##インズ
てつ
満たし
拡散
投じ
元帥
紀伊
制裁
##anc
リーチ
コック
抹消
大内
ラク
外し
柔らか
##パイ
##フェクト
シャトル
かず
GB
打た
屋外
撤回
高額
##テラン
生没年
mi
文部省
色々
ジョニー
ハインリヒ
##フェンス
回線
イラストレーター
フォーマット
ココ
北軍
##データ
Linux
Fran
##ジャース
尾崎
鎮守
占拠
打ち切り
ブッシュ
手掛ける
繋がり
腹部
デジモン
本館
階層
大江
##落ち
パール
##UD
ツッコミ
ボイ
一瞬
地理
進路
預け
総司令
アシュ
直ちに
Cor
公職
##殺し
高かっ
ニュージャ
##ッタン
##楽器
##itt
常陸
フランス人
厳格
クローン
招か
高価
弾圧
当てる
聖母
はな
レスラー
造成
1860
御所
ハマ
パレード
移籍後
スロット
正統
##テー
リアルタイム
けんど
##協同組合
978
##ECT
アミノ
##本町
見舞わ
イタリア語
ハンマー
新制
一生
トロント
全土
語尾
秋山
打つ
##ネイロ
悟空
##自治
ストレス
伊賀
137
増築
1800
##セラ
信頼性
##サム
On
うつ
動物園
白鳥
ドナルド
つる
##モント
代表者
タイガー
MHz
大学校
無償
進水
障害者
エクスプレス
##ward
社名変更
始動
遠隔
数千
未明
犯し
転写
スープ
島田
イカ
新潮
酒造
ビン
本部長
フェラーリ
プロサ
Android
エルフ
燃え
誘わ
カザ
エマ
##デレ
樺太
道徳
没収
BD
ケネディ
極東
500万
Gu
リマ
郡区
ばん
多彩
女流
ツァ
知り合っ
執り
##じっ
進軍
##ームス
活動家
あらかじめ
ストップ
対話
親しま
##ッケン
レジスタ
丹波
本家
隠さ
##留米
CEO
函数
別々
MR
トルク
パチンコ
他国
ください
ニュージャージー
戻さ
全滅
改変
ピカ
##クール
破棄
協奏曲
##高生
感動
バルブ
都心
##場所
中性
##リッジ
ぶつ
ブロン
等級
##性能
侯爵
ボーイズ
ダート
ナポリ
vol
##ラリ
##電気鉄道
一橋
公司
##ARD
対談
ステレオ
WA
深め
All
ゴースト
代わる
##ナード
##開始
事業部
ボケ
##ッケー
##box
カテゴリー
ヴィクトリア
遭い
##ッダ
受け継い
ストア
一揆
長州
家畜
河野
亡くなる
ボウル
津軽
飼い
いと
卓球
##ラフ
母艦
答える
ギア
拍子
イエロー
あか
暴動
田園
ヤマハ
##ジング
ジェフ
##価格
rd
ハリス
##mer
専修
授け
本郷
##デュ
松下
骨格
##LS
攻勢
着け
レポート
##って
財閥
フランソ
消失
132
高性能
赤軍
樹木
砂糖
調教師
松尾
パシフィック
冷房
JA
ドール
主教
ミカ
##のり
消防署
決定的
小児
##ict
ギャング
微分
放ち
キャッシュ
アリゾ
大成
金田
多目的
牧野
製薬
文学者
減っ
明治大学
##ames
イント
フレーズ
そっくり
ヒント
裕福
展覧会
有形
究極
スターリン
利根
ベリー
学制
完璧
和名
##ケア
フォーミュ
シリン
歩い
不十
炭鉱
不十分
混ぜ
WE
太守
日露
飲ん
近所
繋がる
吹奏
##ロメ
##me
##ーマル
小沢
包括
厚生労働省
リュー
##ランプ
平等
戯曲
積ん
エウ
戻す
歓迎
転移
##チーム
ミニアルバム
相棒
閉校
鎮座
##感染
半数
郡庁
カブ
惹か
色彩
温暖
Gre
飲料
##ナンド
マンチェスター
モリ
ともない
複線
イリノイ
基部
親戚
クビ
休養
通報
##チャル
##和田
同誌
##スパ
免れ
たとえ
ハーン
王室
高地
##宮市
ベテラン
執政官
ビクター
##ボウ
##向け
##小路
魔界
まんが
少なかっ
樹脂
こなす
負い
余裕
ミク
考察
死に
致命
Mi
##ファレンス
切る
##せい
##KA
ニンテ
BEST
##半身
リンカーン
否定的
ブリー
機銃
ビス
亜種
運転手
運ぶ
挿絵
グローブ
中田
##予報
大石
143
NFL
##むね
いす
ぜん
賠償
きら
##eat
北極
生き残っ
##スターズ
愛人
当事者
##ペース
スペクトル
生み出す
公安
Ac
安芸
次回
##ML
救わ
##ビィ
がわ
刺史
地裁
Open
南軍
下ろし
有人
県庁
支所
##少年
GS
蹴り
上層
修業
神道
##責任
佐伯
長時間
ジャイアンツ
モナ
三田
効果的
##バリー
##テープ
プラスチック
ゲリラ
負荷
飛ん
アルファベット
One
エヴァ
不信
及ば
##マンド
サイバー
媒体
字幕
##通し
日蓮
伸びる
柔軟
先住民
斜め
汎用
パレスチナ
大砲
As
動い
ブン
増殖
支配者
##旅行
取り消
飾る
ホップ
要員
対局
落ちる
通告
部長
##ニティ
電灯
写真家
リバー
武道館
目立っ
DX
尽くし
ソニック
きょく
神奈川県横浜市
IR
##ロア
NEWS
##替わり
空き
代謝
##MO
っぽい
リュウ
気付い
布告
抽出
##グリ
おおむね
富田
聴取
金融機関
おこなっ
伝道
待つ
RA
模索
由紀
アレクサンドル
キエフ
墓所
##イー
同梱
巫女
##職員
フランシス
##シャツ
弘前
確信
Is
渋滞
コンポ
駆けつけ
142
##やり
ウイング
原始
一般社
##able
AG
世論
速い
Mo
しの
ホリ
校歌
広東
選手団
秩父
Bill
原作者
GK
イザ
出家
徴収
現し
推し
陥る
##ステーション
##edia
オールナイト
もも
あえて
ジョセフ
WBA
きち
NPB
クォ
##キンス
フォーラム
##ニク
飛鳥
スティーブ
型式
不二
部分的
講和
オックスフォード
フォーミュラ
駿河
挿入歌
本気
無数
##収入
一新
相応
金子
スノー
##オニア
常磐
椅子
国旗
フェイス
##がみ
頭文字
原発
プリキュア
JST
元老
1864
ROM
レバ
異母
##フォー
宣告
東亜
同性愛
次女
##すけ
1200
ゴミ
水面
艦船
129
アドレス
NASA
ハナ
##de
大夫
##っ子
系図
賞賛
##ミュージック
細かい
##だし
##免許
標準的
139
生誕
産出
調子
ヒューストン
##遣い
フランクフルト
玄関
HT
祈り
##ark
たどり
ドラッグ
中枢
聖人
ミスター
旋回
##ru
優秀賞
覚悟
##VER
##タナ
タバコ
Bla
幻想
##イトン
マーケット
乗り換え
リーガ
非常勤
書物
ひど
四日市
奉納
##ade
司会者
レアル
王族
地盤
係数
軽く
腫瘍
##産物
Mr
設ける
邪魔
テーマソング
八重
反省
##ットン
750
増やす
フォト
アーマー
末裔
##取引所
山陰
編集部
##ENT
途絶
井戸
##ife
寄稿
ウー
引っ越し
動かす
援軍
ファーム
##ash
辺境
合わせる
意義
##城市
使節
争う
群れ
かわい
長老
アカデミー賞
哺乳
一般社団法人
pro
出番
嫡男
##パル
##own
志望
洗礼
全面的
デン
受賞者
SN
構成員
主権
名声
血管
##デラ
最大級
共産主義
ドッグ
カ月
公明
br
##IB
Part
突起
##乗り
##メス
##シュタット
志向
レンジャー
##レーン
以南
特例
連装
セク
徹底的
静か
まつわる
面会
##キック
寛文
##メンタル
親しく
商号変更
合う
##コック
フォワード
嘉永
引き受け
ホールディングス
中原
告げる
##ava
造営
138
保つ
遺物
電報
##ゥル
スターズ
アポロ
##ツキ
強大
知人
##ノム
##ソニック
220
##バイザー
指標
北野
途上
ハイパー
争っ
集結
留守
Ass
スウィ
##ッスン
カセット
四季
斉藤
チェロ
単発
等しい
副作用
キラ
続行
真空
硫黄
クリーム
受け継が
Ann
取り扱う
000万
導く
形容
西川
##成績
全集
指数
きわ
拷問
ラフ
体型
商会
##デザイン
仕上げ
##より
援護
##ヨー
八戸
##細胞
分泌
めぐっ
自在
大敗
最悪
営ん
戦法
##UC
クハ
円盤
安置
Per
実用化
カンザス
パパ
年上
商船
アルト
異性
母方
クラッシュ
会派
ヘッドコーチ
アセ
御殿
南北朝
##トラー
##病院
日系
西南
配達
陣地
脱落
全曲
##キース
##ひろ
看護師
知らさ
パワーアップ
##ダース
##改正
慢性
大友
逃げる
夏休み
受け入れる
##ans
台数
##ペンション
ぎょう
不適
進入
次長
こうとう
デトロ
倫理
博覧会
新羅
創設者
##ung
こども
コーン
##ッチャー
教育機関
いったん
GL
はじめて
召集
ランス
上手く
降水
131
Inst
住職
##軌道
イギリス人
成し遂
みなみ
Tom
##AGE
マケドニア
サポーター
特権
馬車
##が丘
対称
##体化
名称変更
封鎖
豪雨
遮断
同区
ロウ
原子力発電所
森田
##返り
ニンテンドー
人体
141
マンハ
##プレックス
手伝い
##スティング
##サンス
ミン
##レックス
湾岸
##デュー
カプセル
カスタム
##プール
試合後
メダリスト
##yl
##アメリカ
ニコラ
武家
##去っ
好成績
尊重
##ディスク
取り除
京浜
##ードン
##サーチ
BC
外来
補充
ぞう
応答
幸福
曖昧
成熟
##テナンス
##YS
グレゴ
搬送
インフラ
ナトリウム
##ロイ
家事
##越え
ぐらい
##がれ
すず
休刊
風俗
##ョー
##国際空港
合弁
慣習
##ッリ
報復
ハンス
チョコレート
ヒップ
乗用車
##KI
出世
##デジタル
克服
金髪
せき
リム
八木
原爆
天平
本校
譲っ
密着
留学生
ルートヴィヒ
今川
平家
水源
ポーズ
称賛
背面
1862
エグ
タマ
準拠
被告人
##之介
踊る
##観的
ドリ
起因
##ディーン
全日
ムーア
コスプレ
デトロイト
准教授
変遷
We
レイア
##ax
レバー
ハロー
発作
##祭り
勝つ
マーシャル
厚い
もたらさ
睡眠
200万
砲弾
聖職者
築か
遅延
水田
楽しみ
処置
合わ
吸血鬼
朝鮮人
リハ
参拝
クライアント
音楽祭
ノット
任官
応え
210
##ESS
剣術
北口
密接
ふるさと
土砂
カタログ
娯楽
##如来
4th
なに
長け
1863
片側
留まり
テロップ
片方
石橋
##タント
カエ
無罪
UP
イグ
ネズミ
喫煙
一般人
##ンジャーズ
回し
記念日
がら
通話
閉館
専門店
ホセ
Fl
ソード
脅迫
ジャンク
ミニゲーム
スキー場
融資
皮肉
通じる
##エンド
プロサッカー
歩く
実習
常時
ウィーク
別荘
釧路
鳥居
減らし
##しょう
デヴィッド
##ブリック
くま
気味
多岐
##ソール
##まち
ダッシュ
サーバー
##ンクス
フロリダ州
TC
真田
那須
##フェース
のぼ
##ents
##ゴス
はい
一流
園芸
わか
##南市
資料館
暗い
強烈
明記
アーカイ
資本金
対岸
法政
デッド
竹内
ナル
誇っ
だら
収束
Mag
回る
警報
三角形
歌劇団
##アンス
飛行士
優しく
頂上
##ニール
##ign
##津駅
##ぎり
テクノロジー
##感染症
遺言
持株
Records
##ator
仕方
気分
##ユー
鋭い
##テルブルク
ZERO
テール
防空
##ムビア
アレックス
##士官
インク
誘致
桃山
慎重
ティム
収める
文法
日活
##かわ
20万
sp
見習
コンボ
1867
意気
派手
ピー
離陸
カタル
##デジャ
ホームズ
シップ
最短
マンハッタン
丸山
抱える
持ち帰
##ビアン
公正
##エイ
##ALL
すす
ナム
人文
好物
##市場
薄く
窒素
大国
BB
原案
広瀬
廃校
##キス
フィギュア
ミシガン
PA
アンジェ
プラハ
やむ
エリー
休憩
納入
ルーツ
en
##we
UF
##アルバム
劣る
参画
条項
フロン
鳥羽
50万
イレ
領有
共闘
##lass
##iam
アルミニ
ゆる
曹操
記念館
消息
日本ハム
いかに
地方公
ささ
国営
断絶
シーク
##CO
悩まさ
##デジャネイロ
出動
失脚
ME
マーガ
馬身
##谷市
アトラクション
テレビジョン
コロラド
リオデジャネイロ
日比
市道
本多
##新宿
病死
##サイクル
##リッド
笑っ
大勢
頼り
中西
握っ
rp
低減
満ち
折り返し
ハワード
救っ
##up
いかなる
オース
役人
取り壊
ピース
##ley
##rans
特設
築城
マルコ
じゅん
##ンジー
写真集
頭脳
破綻
組成
通訳
バスク
##ローグ
コンスタンティ
旋律
引き換え
##ンタム
れい
出典
流す
出展
業者
##保障
点数
##ual
アクア
ダウンタウン
挑ん
投げる
ブラザーズ
体質
##ロド
##ートー
##テンベルク
##タ州
##有鉄道
##リオール
##アリング
##ニウス
日本国有鉄道
バッハ
周回
鈴鹿
4万
自家
##継ぎ
ヤンキース
内藤
長期間
系譜
未遂
直結
エンジェル
仕立て
潜在
楽しめる
大洋
魚類
愛国
ボーン
急性
慰安
##学園
近づく
手配
通用
##XT
コミュニティバス
諸説
遥か
##港区
閉じ込め
古河
競艇
品川
準じ
##ニアン
##ari
着任
JCT
職場
大村
戦闘力
ブロー
亡き
エチオ
朝倉
エスカ
派閥
ギルド
サテ
倉敷
松浦
##本木
##マリア
賛同
交通事故
##ink
メガネ
家政
素直
まるで
合金
喜劇
巡り
補正
四郎
矢野
進撃
アイン
ろう
初等
##ナギ
取り組む
ラッセル
##もっ
アンドリュー
いじ
目黒
##oup
主翼
臨ん
東京駅
CBC
於い
速く
##チェン
Inc
夜行
ヘルメット
マクド
大阪府大阪市
要し
##フィス
##ype
なくし
一色
生命体
ヒュ
胞子
合宿
左腕
ボクサー
Bar
男優
シチリア
救い
Rob
単式
原産
本願寺
津田
いろいろ
##ザール
不法
硬貨
##osh
##ジム
テネシー
千歳
未完
##条件
発電機
特色
オットー
十一
##ガメ
飛び出し
のぞ
ディフェン
シェイク
四方
シアトル
ケンブリッジ
エム
俳句
傑作
千秋
理学
ミュージックビデオ
掲げる
リンゴ
あげる
##提携
##ata
ユーザ
業務提携
メンテナンス
リハビリ
プライム
遂に
ウォーカー
##野駅
ソナタ
好調
##意識
勝者
大社
春季
##業者
囚人
西郷
出羽
##バイバル
辺り
##ベーション
平方メートル
メイク
##キロ
ふれ
祭神
NPO
青少年
##ザル
##プライ
公立中学校
家具
弾丸
##enn
擁する
ビルボード
##炭素
エチオピア
Ro
スクエア
##クラス
よば
##製品
Micros
尋ね
逝去
鶴見
ex
飼っ
##ys
Will
朗読
##イロ
エルサ
積載
罰金
転属
素晴らしい
デビル
ヘッセン
サンプル
以っ
エアロ
センス
by
奇襲
辞典
平田
ルーズ
甘い
あきら
遭っ
おん
##共産
デイリー
対馬
出血
どおり
宣教師
意外
バナナ
精密
フランソワ
2億
アレン
もらえる
さき
痛め
##導体
未知
##じて
トヨタ自動車
くじ
ラヴ
掃除
ブレード
シール
店員
去る
信念
専任
マイナーチェンジ
フィルハー
任天堂
田辺
器具
どころ
地蔵
フォール
諜報
旭川
##しょ
パナソニック
合法
変装
PD
グラム
広義
##フォーク
製造業
マイアミ
マツダ
Hot
##シミ
##キル
ゆめ
名物
工藤
特命
Art
東京ドーム
##ハル
振る舞い
保護者
町長
遊園
もらえ
歴史学
崇拝
##まね
サヨ
ハヤ
##料金
減らす
日本共産
日本共産党
アルミニウム
ne
軍事的
意図的
無人駅
年金
部員
アスレ
ビジョン
##ini
怒っ
過半
何者
公使
アオ
殴り
育つ
デート
##付い
1865
Day
買う
ワンダー
テナント
ステン
ツェ
##リントン
オズ
魔導
##IDE
主席
分断
服部
大破
常設
意匠
築き
作り出し
ウラン
半導体
転身
##リナ
真似
セーラー
史実
##しゅ
##コク
##ディオ
理工
欧州連合
チーズ
小麦
野球場
##チョウ
スピンオフ
奨学
有志
ふたり
ぼう
黒色
##規則
UC
寿司
総統
1861
アレクサンダー
高圧
##ボルン
継ぎ
興奮
アーキテク
反転
生地
ゴン
##生物
アデ
POP
愛用
痕跡
##ケー
##文書
わかり
復刻
慣れ
##ゲイ
##重工業
フレイ
下さ
##化学
全編
km2
##十字
自治区
リヒ
元和
エール
年俸
##試験
陽子
1866
批判的
使命
決闘
混雑
分かり
Gen
MB
FS
アムステル
日清
装填
意欲
下野
南口
点在
##oll
こい
割れ
##わしい
観光地
サンディエゴ
路上
試みる
中古
ヤクザ
ミネソ
強め
互換性
ザン
陸上自衛隊
執行役
濃い
直面
##アラ
ビタミン
新型コロナウイルス感染症
MA
加盟国
WWE
出航
##チャーズ
クルーズ
バーグ
大師
##きん
Microsoft
渡す
無くなっ
##RC
スライド
促す
スワ
産駒
元来
小樽
湿地
##エール
##時計
刺さ
コーポレーション
調印
リヴァ
収蔵
織り
##ブライ
##ベラ
##40
切り離
単身
##orn
退け
処女
源流
バッファ
皇室
##レンズ
村田
物流
ブロードウェイ
係る
呼び出し
##証券取引所
のび太
特筆
##パーク
琵琶
充電
引き継ぎ
ナチ
堤防
##わい
掲示板
##屋町
カツ
剥奪
古典的
三宅
研究家
勤める
立案
匹敵
石灰
解剖
##UND
連立
エフエム
ピック
##ノミ
いっぱい
さく
北斗
アクティブ
次世代
##row
タコ
長寿
##レクト
##戻し
クマ
##ストップ
スカート
打倒
しめ
中毒
宝暦
調教
##ネーション
届か
定番
マック
プロセッサ
ロシア連邦
仮名
##カラー
同窓
##メガ
ニコライ
カヴァー
警備隊
##コンピュー
##ita
MAX
えい
文久
##エンタ
パズル
吹き替え
ダメ
冷戦
納得
##直す
マニラ
元首
賃金
Do
##モノ
立てる
450
ジミー
南端
孤独
うけ
ハッピー
釈迦
サハ
県民
はし
優勢
##co
PP
がた
マール
作り上げ
ひょう
不自
店長
演奏会
NEC
座標
ゼネラル
クライマックス
名残
抗体
フェイ
即座
ソーシャル
凱旋
火薬
生み出さ
##board
マイクロソフト
ふり
祀る
シューティング
屋内
巡礼
氷河
演出家
戸田
駐留
スネ
ヴォーカル
レーン
##外線
クイーンズ
リック
操業
経っ
置換
##III
サビ
写像
寝台
恒例
上回っ
指向
Java
##島駅
##グルス
何人
精力
安定性
荒廃
##ヴィッチ
sh
##オンズ
太子
以北
##リーニ
亜科
平原
エンターテイメント
大川
木下
##がけ
ラング
##記念
サード
視野
##事態
ジル
Res
吾妻
硬式
生存者
公言
トレーナー
守ら
マナ
信徒
教育学部
メド
幾何学
挟ま
総数
立ち向
##ボーイ
妄想
面白い
廃業
跳ね
ヘア
ホークス
宛て
International
文部科学省
ロードレース
事象
定時制
ヒット曲
ラファ
頼み
##ブレム
陥り
##張っ
取締
風呂
生ん
##hel
##コースティック
Pre
二酸化
松原
及ぼす
名簿
##降り
男の子
つくる
鋳造
ミシシ
耐性
##ショウ
悲しみ
盗賊
フランチャ
トロン
永井
吹き飛
ウズ
##ばら
散歩
一体化
肖像画
課税
##ara
発令
飲む
レッスン
工学科
マニュアル
共著
シャープ
興行収入
動揺
エビ
CB
キャンセル
乃木
かえ
腕前
トレイン
本文
##こと
吊り
帰宅
最高裁
カミ
連ね
スピーカー
仲良く
ゆっくり
ジェノ
アウグスト
間に
バビ
大都市
##ポジション
##ューズ
所要時間
マフィア
入国
驚い
オーダー
過ぎる
アイアン
##コミ
新潟市
##きょう
断層
##ルティング
プエ
##レク
ソロモン
転入
##ヘル
##松市
カリブ
発案
##期限
イマ
##コーン
連行
なくなり
##主義者
モデ
天津
徴兵
配合
シンセ
エナ
ヘー
ワープ
断片
キッド
地方自治
出自
##連れ
##付き
SHOW
前部
研究開発
ケリー
調和
##udio
スナ
手順
クラウン
##ミッション
##ニカル
##かかっ
ルネサンス
桐生
弁当
地表
フェザー
アクセント
ジャーナル
テリー
##リンゲン
240
エレクトリック
ルノー
問う
馬鹿
阿弥
消す
画策
常任
過酷
遡る
食物
##ゆみ
メリット
内外
若年
##ey
超能力
##rist
##テック
テー
固体
生殖
牛乳
摂政
イケ
代用
つくば
不幸
くり
増刊
後続
留置
アコースティック
染色体
享年
オーガ
合っ
局所
使い手
NATO
百済
アムステルダム
菅原
訴える
バレン
見かけ
サンクト
穀物
ずれ
破る
架け
細い
フェス
TBSラジオ
公務員
別府
話者
落ち着い
##YA
インストール
志摩
セントル
CA
宰相
##どん
富士山
反動
木星
貼り
##生命
##ーツァ
承継
大火
奉仕
民謡
読ま
宗家
顔面
##トリア
アソ
##ony
うら
左岸
獲物
トミー
古川
新井
適当
##ギャ
提督
帰郷
##げん
一味
指輪
リタイア
ゴッド
勧誘
製鉄
##ount
WORLD
体長
みなし
タラ
言語学
受け取る
ディビ
日本橋
プロペラ
大同
激化
フォント
アンダーソン
効率的
ブリティ
##っぱ
アンチ
見下
##営利
共用
内包
高層
なんて
##シマ
一定時間
カタルーニャ
メルセ
GN
不調
振付
煙突
公示
レイク
発光
除籍
##ランカ
ランナー
平地
##rit
WD
引き継ぐ
バウ
接収
ベネズ
ゾイド
給食
退場
TE
##口駅
TBSテレビ
##き出し
Air
却下
放火
持株会社
寄進
海老
給与
隷下
喜ん
有用
本書
受注
赤十字
楽しん
添加
この世
外さ
承諾
開園
端子
##yo
アベニュー
自慢
マイナス
暴力団
山手
除け
区立
豊島
コーラ
なが
偽装
##スタイル
プラズマ
移す
調べる
重臣
社殿
##コブ
蔵書
託し
##ヘッド
ライアン
屈指
難波
近代的
カップル
Ind
近辺
結城
##スティック
MD
灯台
高島
いきなり
久米
巧み
正室
カンボ
慕容
ゆり
包ま
転居
ビジュアル
若き
チャーチ
1850
何故
##がき
ヴァージョン
対外
戦果
天明
赴い
##ラビア
##ato
ラト
一言
幕下
頼ま
##フット
##ma
オセ
##納言
伴奏
GH
アドルフ
子供達
歩行者
張っ
##なら
##沿い
楽譜
酷似
幹事長
なろう
動か
ウォール
##ムル
##作所
スズキ
高等科
東海道本線
整え
##ステン
バーチャル
くに
番付
高雄
##バナ
若く
##製作所
概要
スタメン
義理
マーガレット
良かっ
##ットル
ローリング
##ッペン
##金庫
兄妹
摩擦
だし
無駄
インパクト
抽象
##だけ
入選
各所
新記録
コカ
可動
南下
##屋敷
優等
エルサレム
中身
過半数
KD
北欧
台本
ロジャー
迅速
探知
中津
化け
##振り
フォート
両端
経験者
移り住
リフト
##車両
筐体
##グナー
メルセデス
発想
藤本
最終日
筑波大学
レジェ
渡さ
村山
郵政
FO
##ーマーケット
中小
日高
SW
ハチ
渡米
##めき
##カーズ
ウィキ
見込み
ベネズエラ
ナー
##ユニ
ドロップ
ドミ
ペンネーム
つづ
慕っ
聞かさ
郡内
##リッヒ
制限時間
ゴシック
新党
模倣
バルカン
東日本旅客鉄道
直流
三条
敢行
遠い
Xbox
崩し
輝く
麻生
フランシスコ
カンファレンス
Super
はや
##バリ
書き下ろし
テイク
運ん
持ち込ん
##ンプソン
刺し
添え
カメラマン
立花
##長調
絶賛
居城
洗脳
本町
都内
ミシシッピ
使徒
舗装
##ニクス
店主
ウサギ
##ラーゼ
監禁
れん
国軍
巡査
リン酸
法制
##たす
ハイビジョン
千里
補完
##ana
アング
東ドイツ
平均的
ヵ月
鉱業
コンゴ
古巣
静止
ニール
属す
諸侯
ロータ
フィッシュ
##サリー
古来
歌人
ステータス
##lex
オルガン
同点
実父
採集
パラメータ
真言宗
冷凍
アテナ
##ライバー
##ポー
グルメ
テクニック
会議所
It
##ya
##ずみ
##温泉
女子高生
多様性
意味合い
商売
カジノ
仮称
地理的
##福祉
CBS
末端
稼ぎ
##ワット
##ヤマ
##ばり
非公式
ひかり
思え
##ラルド
コロニー
招く
##デンブルク
カンボジア
##ason
スーパーマーケット
ウマ
ミルク
佐渡
小銃
##興業
女子プロ
うか
さす
地理学
失格
改宗
天満
疎開
百合
水分
胸部
無名
フェロー
両腕
マサチューセッツ州
一説
やり方
ケルン
##十郎
##前駅
不具
衣服
魔神
is
##ニバル
##てい
##ウンテン
成す
表向き
##LC
##書紀
日本書紀
ピュ
##レンジャー
コナン
積分
近縁
##ざし
##ざい
Star
処罰
満了
右岸
物件
狙わ
ミハ
売ら
変貌
次官
##キサ
##急行
##芸術大学
配分
テンポ
CV
満洲
##ータイ
ハイス
ヴァー
にくく
パト
佐竹
浄化
文学賞
立方
##南区
追いかけ
Ag
かし
松江
塩化
競う
候補生
なつ
茶色
東北大学
マッカ
オハイオ州
早々
祈願
##パラ
総合的
岡村
ノルマン
分家
レシピ
なぞ
開花
##ler
アワード
MG
国府
釜山
内閣府
素子
工廠
狭く
Off
収監
家電
##タケ
少々
達人
幼虫
番外
ワールドシリーズ
川崎市
かき
天狗
清掃
##ードル
タービン
サンプ
アイオ
商事
プロトコル
留め
盗み
ピッツ
マッカー
反抗
塩基
莫大
##フレーズ
炎上
モロッコ
at
関連会社
##クタール
中堅
年下
##オウ
代打
ブリティッシュ
プリント
ジャニーズ
ボスニア
モーツァ
##ストリ
資材
##ミッド
シャイ
不死
いくら
崩御
トゥー
パトリック
再戦
まさに
激突
サスペンション
主催者
ATM
出陣
初心
成し遂げ
祀ら
たまたま
飛騨
Girl
極め
河原
国有化
地主
有害
菩提
##植物
ケーキ
退治
尻尾
婚約者
発酵
アイスランド
インテル
##チド
##タイトル
生き残り
ナノ
Pe
てい
公転
月間
##und
方向性
パド
事変
教育者
フレデリック
関税
##モーター
馴染
##ガンダ
##ソス
翌週
動脈
中央大学
促し
稲葉
##基準
ノア
雇わ
高句
高句麗
##じん
OR
##TE
急増
直撃
法政大学
1848
ハッチ
景気
哺乳類
##ヘア
かす
##高速
グラフィ
波動
蝦夷
フランクリン
窮地
奄美
更なる
最盛期
能登
おは
ロッド
終始
すり
VHS
壊れ
神秘
Wi
アルバニア
岩崎
戴冠
ノイズ
学芸
一橋大学
##本部
##失点
ネパール
支出
表彰台
全英
開閉
子役
ナビゲ
ユリウス
##かう
原子炉
School
版画
##チューム
アーキテクチャ
ハドソン
クワ
世田
プラグ
肺炎
you
##井市
チェス
ジェイムズ
サンクトペ
編制
##持つ
急死
##ストル
集計
##通常
##ネスコ
参議院議員通常
参議院議員通常選挙
可変
##alk
どん
稼動
育てる
便利
疲労
騒音
##TER
同曲
モントリオール
ヘクタール
中頃
カニ
全権
調停
日経
火炎
サヨナラ
撤廃
##々しい
et
支障
信号場
同志社
ウォーズ
交点
新造
数学者
きわめて
藤沢
遊ぶ
##ンパイア
ハーバード大学
Tour
微妙
本能
ビルマ
サラリー
東京都港区
あつ
たろう
売っ
乱入
瀬戸内
例年
Char
軽量化
本番
退い
##ガタ
野口
発砲
志村
近づい
##こん
オールド
汽船
##じり
ディープ
繰り広げる
本戦
##外国
##メンテ
右衛門
動かし
ジオン
苦しみ
プロフェ
標準時
スパルタ
必死
揺れ
選帝
ヴェー
不具合
原曲
サンクトペテルブルク
CT
##60
休暇
左派
遊ん
##テロ
コンペ
##クサ
バンタム
民兵
コスチューム
タケ
VR
300万
づくり
ベーシスト
##vel
コンピレーション
一応
##ばん
##chn
同人誌
迷惑
##キャップ
混在
ROCK
換算
緑地
噴射
玉川
##ワース
パナマ
##らせ
##北海道
##着く
Project
レイアウト
たて
上皇
私鉄
ギャラク
待遇
##ナート
##助け
##教大学
おま
宮古
納め
SG
城壁
##ニュース
Amer
うどん
図り
スロバキア
シリンダー
平坦
暴露
コンプレックス
フィニッシュ
魔術師
飛ばし
イース
##カリスト
アリー
望み
評議員
ライブラリ
チャーリー
サング
フライト
十字軍
リバウンド
##生産
セントルイス
貯蔵
逃れる
ありが
イブ
久留米
##ited
NA
供養
提起
ウィス
まとめる
生産量
デイヴィッド
支払わ
ろく
##デンス
恨み
##ッテン
Rad
がく
アーツ
##ナール
藩領
覆う
##ero
摂津
天然記念
天然記念物
進言
##寺駅
フェルディ
太刀
待合
ER
##IZ
##ave
ログ
祖国
ロシア人
キノコ
規約
打診
##21
すい
##ホテル
激減
絞り
貯金
伯父
称え
間違っ
大司
犯罪者
Mon
使用者
扮し
貧しい
ミズーリ
漏れ
ギャン
30万
NR
儀礼
転倒
安土
法定
AF
増幅
大田
##コスロ
解禁
ペドロ
回帰
M2
サントリー
##レーヌ
サタ
驚く
##クリ
##way
##ッケル
Eng
デカ
秋季
##方形
全力
開山
子音
##GE
執り行
加茂
サザン
精力的
co
日本郵
イヌ
##ヴィエ
官職
勅令
チェコスロ
Pa
部数
4000
断面
ライオンズ
あいだ
ナッシュ
Bo
西田
白山
体色
迂回
サイコ
カザフ
##ジェット
レーサー
ar
炭酸
届く
##eth
都営
陽性
競輪場
話さ
ドット
ハット
各局
宿主
経費
翌月
インターハイ
##んじゃ
休業
舞鶴
西海
##会議員
遠ざ
##ンタン
すけ
##テージ
大きかっ
線形
キャサ
国政
献上
弾道
##ペイ
メリ
イニング
##ブリー
うん
##URO
オイ
見抜
サイモン
つぶ
母国
長尾
ヨル
掃海
##アイランド
ワゴン
義勇
ロビー
ウィング
Har
たまに
##障害者
戸籍
担い
##ボックス
ヴィン
上越
##椅子
ディビシオン
利便
出せ
梅田
ヨーゼフ
初年度
軽巡
3m
ユダヤ教
新編
6000
アラスカ
入所
執事
燃費
選帝侯
分ける
共鳴
##賠償
ラジオ局
支局
発進
パーソナル
Je
松岡
ユウ
自伝
賃貸
おこなわ
活動中
反する
##王国
目録
移送
##ger
機密
重ねる
敬意
決済
電信
往来
足立
パイオニア
主婦
グラント
風土
延び
自爆
船橋
Disc
##メンバー
##さつ
創始者
双葉
艦名
黒髪
シャッター
大垣
アルビ
1830
迫ら
サイエンス
行き来
増備
ヨハネ
##利用
##リーブ
座っ
##だん
##フットボール
分配
##ダイス
ホス
平凡
LS
村人
部落
騒ぎ
東京証券取引所
民法
特記
合唱団
国々
アルバート
奥州
##ティウス
アルマ
##ャンマー
繰り返さ
##IGHT
車掌
Billboard
迫害
アルフレ
##のぼ
##que
モーツァルト
MM
噛み
川島
ドレ
##ノル
アズ
ビュ
天候
Ele
嫌悪
眠り
赴き
プライド
普遍
本殿
洋画
##マール
##ドラゴン
喫茶店
ゴードン
掘削
採っ
碑文
Best
マフ
呈し
アルカ
改良型
反響
シャツ
投獄
紳士
##ボリ
落語家
オリン
宅地
##さか
EMI
ラバ
悪役
独身
衰え
政治学
遊園地
大原
##ラール
ホモ
ラック
連想
毒性
関ヶ原
##マーシャル
サーカス
十六
安心
旗揚げ
フランチャイズ
岩石
攻防
レモン
入試
##ーチン
##ばこ
一騎
##red
##ASH
明示
終える
##ぐり
ポリス
薬品
カーン
クレア
War
麻痺
##グレ
がり
なれる
結社
荒木
説い
203
キャッチフレーズ
ホーク
負債
ウォルター
提言
機雷
隠す
歯科
パンタ
##ホルム
エストニア
ミャンマー
欠け
直列
黄色い
葬ら
プロフィール
海上自衛隊
##ric
ワード
反則
スカパー
醤油
##野球
オレゴン
クロウ
MX
処方
##ren
グライ
管理局
知行
ウン
##ino
クロム
ルドルフ
誓い
焼い
##気圧
平定
ぬい
大胆
総督府
マザー
絡み
陰陽
原画
ウォン
さいたま市
ブース
始祖
擁し
ハンブルク
降水量
ヨシ
初版
岩波
ピラミッド
鍛え
##機構
アンディ
キッズ
定期券
日比谷
JP
一括
首領
旧来
若松
退却
放送中
##フェリー
320
ホルモン
ノード
アドバイザー
無敵
ヴェスト
従兄弟
注ぐ
交通局
Gl
##uber
勝て
風貌
メジャーリーグ
メチル
二級
対潜
##きゅう
Univers
##アニ
最高峰
参謀長
TH
参議
新入
長身
問題視
親方
返す
##かつ
カラーリング
成り立つ
カワ
ルカ
届い
組長
議決
ミシェル
作物
入線
哲也
##ゃく
土屋
##リーガ
カルシウム
サテライト
##ンガル
ベートー
医療機関
極度
##オリ
観念
ちなむ
大抵
##コウ
ステンレス
At
アクセ
共々
##投げ
##ラクル
不当
ゲオ
##サック
多重
悩ん
真剣
公明党
不完
公家
##フェルト
##ミュエル
JIS
##ミントン
ユネスコ
売春
領事
ボイラー
低温
##ute
##強い
##ram
230
バース
救命
ストローク
短距離
##尾市
##受ける
市域
水深
別人
書道
舞踊
##リングス
なくなる
及ぼし
養護
##ノイド
キン肉
##津町
マルタ
演歌
終わら
##高校
##フィールダー
礼拝堂
##ッティング
消火
##メトロ
継続的
喜多
ひがし
御前
ミッドフィールダー
広州
許容
発刊
##ザース
##ジャパン
ロータリー
放射性
カク
後漢
棄却
母校
総括
化粧品
オト
征伐
##ings
盛り込ま
損害賠償
##ギリ
つくり
コマーシャル
ヌー
青葉
分立
波長
##ution
##サラ
High
頼ん
建設省
ポッド
歩き
ヒンド
外科
断ら
こだわり
所有権
JS
プラント
門司
##td
##食い
##ther
グリー
トキ
##かえ
##じょう
##app
問題点
長門
大映
開港
四男
神楽
隕石
ウズベ
阿弥陀
バージニア州
ソフィア
##リィ
##らう
##ka
尚書
##ノア
##レイク
排気量
ロイド
助成
構造物
一本
ブルックリン
EL
##ペスト
詩集
##らん
さし
容疑者
父子
ペンシルベニア州
キャノン
学派
##ヨーロッパ
##ツィヒ
JR東海
##ett
スカー
ノーマル
理科
義経
##たら
##バット
夢見
##アム
困っ
奔走
襲う
止まっ
シュトゥ
クリミア
一派
数年
相馬
コーディ
細長い
数年間
旭日
##ケーン
店頭
スチ
日韓
築造
##カロライナ州
いすゞ
ペナル
挑発
神父
##ement
キラー
##ぐれ
ナレーター
##行き
##寄っ
##販売
オリエ
マクロス
ガイア
日刊
##ルタント
墳丘
##ントス
キャサリン
BAS
起業
ファイブ
野望
日本航空
ライプ
遠距離
ましょう
テロリスト
クリエイティブ
REC
##ンプトン
サミュエル
ロッキ
フック
聞こえ
あふ
内定
複素
不完全
猶予
中年
山間
流派
ジェーン
トリプル
容赦
##れん
在任中
リンパ
校内
目の
辿り
USB
リモコン
晴れ
視界
ならびに
隆盛
##OCA
メロディー
握り
##rd
セクション
コンサルタント
ウェーブ
吹奏楽
艦載
##IME
##REAM
##食品
同郡
山号
サウジア
バリー
アレル
ストライク
クレーン
不審
別冊
制式
##oto
慰安婦
レインボー
消耗
都市部
mg
宿舎
近似
ラテン文字
##ゼロ
ジュリア
メカニズム
じんじゃ
見通し
コナミ
la
タク
向こう
##FE
付録
別途
車椅子
まとも
バックアップ
志し
接合
##ウリ
手足
培養
起こさ
格子
離党
##直さ
そろ
ゲン
隔離
フラワー
いまだ
##ーニュ
コパ
大阪大学
みなと
つなぐ
RNA
切手
海運
重なっ
##ane
PAS
荘園
##まま
ロベルト
解く
アゼル
噴出
##オラ
Black
フィクション
フィルハーモニー
養父
繰り出す
ディフェンダー
下級
##差別
公卿
ミュージアム
オンエア
信州
お気
協調
##に入り
お気に入り
東郷
はち
町田
ver
有り
淡水
開会
エステ
多々
従属
不全
直属
講堂
遭難
願っ
試合中
自力
ミツ
充て
含み
適正
##ホル
##ージン
特別賞
理学部
現実的
屋台
棄権
飾ら
ぐる
迷宮
トーン
ホウ
算出
トリノ
GHQ
子どもたち
含有
祭祀
##サイン
投資家
浮世
叫び
建っ
ばね
山麓
左衛門
##TH
##コンピュータ
浪人
##ロップ
乗合
大多
##レンツェ
伊丹
至り
めぐり
ブラス
天野
寺社
##CH
キネマ
セミナー
厚く
英語圏
バンコク
イリノイ州
教鞭
施策
重さ
サウジアラビア
連射
##ins
バックス
##ティエ
宮中
##フェイス
終焉
抹殺
教義
##措置
勝敗
呼び名
##ガード
ウォル
##マイカ
レート
史学
架かる
声楽
##井沢
##ater
西欧
進級
富士見
エント
ml
##あげ
価値観
ホーン
苗字
計量
##用語
オーラ
マキシ
西岸
書記官
みせ
司る
不倫
きみ
自由主義
##タリー
チョウ
グスタ
桑田
##ガラ
中高
実子
大学卒業
##ンチャ
クリーブランド
真珠湾
初心者
低地
結末
ローラ
市長選挙
効力
##ner
アルプス
速さ
高等部
エッジ
音色
##いん
フロンティア
ドック
総務省
美し
JR九州
Int
##レナ
DA
尽き
##ケス
負傷者
オタク
SK
オバマ
小池
##さり
ベビー
砲台
##プトン
レプ
##19
原点
栄誉
##AWA
興業
##リブ
##ずら
ロマンス
アストロ
充分
##まつ
反乱軍
アッシ
Amaz
EF
やく
奮闘
河合
防護
##ジェスト
Fi
準急
##チウム
西山
生き延び
フルート
##ダラ
見習い
不快
##ろす
歌劇場
シモン
要領
察知
武者
死神
浮遊
美味
証人
マルク
副大統領
文化祭
サラリーマン
JO
知性
コンタ
鉄道駅
レバノン
##ons
ノック
多項
追及
高岡
建て替え
やり取り
希少
欠陥
ジャム
ヒート
付着
椎名
訳さ
##パック
1858
##RO
Mod
NBC
ポールポジション
死傷
1859
内野手
Ltd
強かっ
##売り
マヌ
一線
溶け
立命
##トゥス
外相
##セックス
請け
チェコスロバキア
紫色
X線
見受け
行政区
##ぼさ
タキ
北端
##学者
ラッシュ時
浅い
金山
飛躍
Vo
県都
マクロ
マヤ
村長
GE
一大
器官
ローレンス
メモリー
SMAP
##フー
マーチ
狭義
返上
マディ
サマ
八百
##ald
##おか
乗り込ん
##スピア
LD
LINE
##作家
並み
##そり
##去ら
付き合っ
##タニア
Sou
手助け
一条
特務
カーター
大物
導き
頭取
ストリー
強要
赴く
##ゲス
機関砲
公民館
合理
アヤ
ロスト
##のう
バラード
粛清
##タリア
FBI
破片
天台
##巻き
基底
外出
豊橋
##バーズ
勝ち越し
代理人
はく
ピストン
自機
##IAL
##ウイ
##INAL
下っ
##ドコモ
キャピ
さわ
サブタイトル
短時間
解読
##ツー
##ONE
減速
星人
##ep
並列
羽根
ケー
Can
ギュ
実権
豪族
ベストセラー
ルーズベルト
信託
もて
挟み
杉山
トール
片岡
##シャワ
打数
物事
##道具
##詰める
天気予報
ボンバー
始末
##べり
##主義人民共和国
ポピュ
完走
速報
##シズム
Mc
ブルク
在職
##ごろ
##ICE
RT
放浪
キャロル
##分ける
スプリント
ベートーヴェン
両社
味噌
迷い
##カミ
前衛
取れる
パーカー
合作
オア
改める
入党
前橋
照射
Tシャツ
協賛
##本市
核兵器
浸水
十字架
定か
6万
##渡す
ニュージャージー州
To
旧暦
走者
気圧
超過
##ンスト
##レベル
NTTドコモ
吐き
開口
カルタゴ
ノウ
共感
一因
205
##オール
##講師
ホース
朝鮮民主
朝鮮民主主義人民共和国
イントロ
民家
##計画
Dream
##カゲ
Spec
##illa
リプレイ
格闘家
カモ
患っ
水族
世襲
##マート
##監督
##mb
##高い
撃た
##ベガス
クリーク
反逆
極限
##let
構える
1854
党派
廉価
律令
仕掛ける
請願
明和
校地
バファ
##IVE
パーソナリティー
アッパー
議事
説教
代理店
##ボクシング
知能
##方法
カスティー
ベラル
ディビジョン
飲酒
mmF
ペトロ
延喜
石碑
フィレンツェ
埋め立て
ネルソン
私的
旅客機
UFO
##12
ヶ国
川内
シグナル
照準
##ストラクター
債権
##ベリ
義塾
Power
われ
兵役
明言
知恵
ゴルフ場
コードネーム
エディション
炎症
車輌
##sp
##DI
いん
ポルシェ
振り回
ハイム
銃身
位置づけ
現実世界
マスターズ
##光寺
クア
レフ
下水
閣議
庄内
落合
理論的
盗ん
##ロゴ
つくら
OK
円筒
##QU
##理事
結核
##VID
驚異
##レーツ
##sc
執行役員
##変わり
将来的
出兵
##ドス
給油
載っ
8000
万博
視力
##ベー
ダラス
腐敗
1000万
八十
ヘブライ
##ーチャー
気体
隙間
カービィ
プロトタイプ
火器
無断
聴く
オープンソース
オークランド
スティーヴン
日報
法華
討論
##ハーゲン
米子
ブエ
##ドキ
思い出し
防衛戦
##ELL
早川
入浴
尾根
##ヴル
巻き起こ
瀬戸内海
白川
作曲者
止まり
マウンテン
帝都
学校令
##ology
ふん
再起
エイリアン
手動
水色
##ルカ
##ッチン
目的地
##シーン
##ツキー
プロパ
大小
ものまね
バンクーバー
キャバ
フアン
シェイクスピア
補欠
##ドライブ
ヴォルフ
カテゴリ
ギブ
外務大臣
ケア
田原
ファラ
教育学
##エンタテインメント
ひさ
手数
インデ
ストライキ
おば
お嬢
シリ
文脈
##南省
ユニーク
CON
点灯
オムニ
同県
##まわり
久保田
パニック
素人
##金属
ヘルマン
見積
##タリ
##止める
##密度
##効果
電気軌道
万国
ライド
スローガン
アリア
格差
血統
韓国人
ウルグアイ
##ven
二郎
図柄
着目
頼っ
幕内
演芸
コメンテ
望ましい
##any
中小企業
セバス
一宮
ユリ
回送
スロベニア
銘柄
##ンドロ
ファイン
ディフェンス
川村
##の丸
##CA
##こく
三味
水害
ダイア
キリン
番線
耐震
重く
学校教育
実力者
ディーゼルエンジン
学業
##PO
満たさ
アルジェリア
パラリンピック
おもちゃ
非常勤講師
顕彰
健一
大沢
##gen
浮き
巡航
水晶
溶岩
サンパ
サファ
クリストファー
Colle
コメンテーター
FOR
前頭
大差
随時
##ble
##スワ
1855
##ぐち
利便性
スミ
語学
大蔵省
##ius
イサ
一夜
産卵
##倒し
ウェルター
フリゲート
ナン
バロック
入札
MON
信玄
##lic
乗馬
裏面
スクロール
##行為
1840
秋葉原
下総
寸法
望ま
爆笑
貸切
##sch
異端
細かく
##IST
クレジットカード
相対的
買い物
北九州市
ホールド
延暦
解像
##ラップ
診療所
途絶え
割っ
UH
執っ
##テット
##新田
パンツ
ルナ
経済産業
アルベルト
コンサルティング
絶対的
##ドラゴンズ
里見
##ボーグ
ぬいぐるみ
山村
角形
##ギニア
多項式
産経
ピンチ
最適化
分化
なさい
OH
##くる
##ACE
強硬
地上デジタル
まき
児玉
TM
ブースター
ステッカー
シュル
##バイジャン
刑法
リポート
##人物
アンモ
来場
##西区
せんしゅ
不適切
以西
紅葉
サングラス
充当
##インター
iOS
me
市営バス
電機
捜査官
光景
近海
##機能
発端
聖地
クック
ワルシャワ
ジャスティ
デパート
海面
自走
補助金
儲け
アゼルバイジャン
立命館
後見
溶接
枠組み
##ぱら
勝率
大将軍
振り返っ
ふみ
辞書
チェン
片手
蛍光
特急列車
家業
折れ
BMW
社交
突出
バーデン
中日ドラゴンズ
CIA
be
人間界
資本主義
糖尿
信用金庫
同調
##コット
トマト
用水
ジャングル
先制
##教育大学
志賀
セダン
憑依
潜伏
##inal
ブレーブス
犬種
##電池
##ATE
めぐみ
アンソニー
太陽光
妥協
移築
臓器
原告
浅井
豊後
インフル
##エンザ
アッシュ
クオ
##めん
##天王
譲り受け
幽閉
ハイウェイ
拠れ
祇園
##ラウ
Suica
HS
ジョナ
バド
もろ
持ち込ま
Hi
用品
相性
##UF
Fac
一層
薔薇
##時点
DT
SON
アメリカ大陸
交配
##衛星
##暮らし
さらさ
催さ
養殖
権現
簡素
ノリ
アルテ
##hem
忍び
赤穂
供与
刷新
出かけ
550
公団
手伝っ
ラスベガス
マッド
Amazon
選曲
青銅
緩やか
7000
ウルス
##行政
備前
人類学
イソ
ミリオン
##ガルト
##まか
テュ
##水産
体当たり
工科
実験的
ハンドボール
番外編
リリーフ
パトロ
打ち出し
六本木
演目
送電
通販
もっぱら
連続ドラマ
オウム
後押し
金星
養老
コモン
留まる
##ヶ崎
ひき
四球
握る
フライング
アーカイブ
間に合わ
##ルツブルク
増田
紀州
##ージョ
ショーン
祝福
開場
##カール
##ダード
手間
##カレ
##富士
650
親しい
クリエイター
トラウマ
##マシン
丁寧
熱血
##共団体
204
地方公共団体
クィ
セメント
強固
粘土
素早く
清算
経理
政宗
映し
##クシ
サッカー協会
##ジーミル
当面
阿蘇
独立行政
独立行政法人
NM
##work
見れ
##ッサン
##神宮
艦橋
##ホマ
遊撃手
採ら
不況
輸送機
タム
臨む
キース
鍛冶
揶揄
フィー
ディス
RECOR
現時点
飛来
ジャマイカ
落とさ
GA
Night
負わ
野心
着ぐるみ
素顔
北海道大学
カリス
宇部
弱体化
微生物
注釈
##支援
なみ
ヴュル
一転
京急
##メア
水族館
Sec
争奪
因縁
西宮
##フマン
ベラルーシ
デハ
線型
ふれあい
ラマ
終着
課長
##モト
##イアント
カレ
妨げ
小牧
広め
乏しい
メリーランド
軌間
##iversary
北海
外装
バーナ
気絶
抜群
##医科大学
国宝
愛さ
業態
アメリカンフットボール
ミドル級
批准
松島
##イルズ
Inf
イブン
観覧
スクウェア
預金
##gh
##ations
テック
レジャー
##ペディア
スケッチ
お菓子
訂正
##ロラ
楽しい
自害
##バンス
##IK
クローズ
立派
Rock
コング
旧称
諮問
TOP
Christ
従え
攻撃的
##ene
ファイナ
ボヘ
南道
プエルト
アルフレッド
二酸化炭素
くろ
共存
RK
se
サミット
国交
##ゲー
##70
文藝
船員
PH
乗り出し
いざ
日常的
サリ
バタ
四十
隼人
デュオ
健全
##工科大学
引き取ら
人柄
冗談
好意的
短歌
ブラウザ
##千万
##TO
##さき
Cr
廃藩
楕円形
受講
著しい
##ちょう
##多摩
エンブレム
キーワード
大平
奇数
##ism
##ブリエル
激戦
人造
糖尿病
オクラ
サバ
かま
感想
絶大
##満了
グルジア
流星
富士通
かたち
部署
##サイズ
##重奏
##次官
乗船
当ては
ニン
ピュー
点検
つと
生還
さんま
イレブン
大木
柔術
為替
エンジニアリング
デラックス
デイヴィス
インストゥル
団長
幼名
火事
石室
覚える
対等
百科
作り出す
##lo
女装
捕ら
治水
シュヴァ
御用
##テラ
東京都内
作詞家
四丁目
大連
カルチャー
Life
##去る
ヨハネス
兵員
リングネーム
Soft
去り
強行
月面
##パルト
利用客
入省
肝臓
低気圧
WEB
ヒンドゥー
ガイドライン
再利用
大本
昨年
サボ
準州
転々
##air
グリル
クランク
ケント
##hone
アザ
上洛
人型
荷重
受け取り
ウェスタン
マルティ
証明書
可愛い
停戦
増発
返済
引き起こさ
対比
USA
CLUB
合理的
松永
給付
ネック
##CD
ほっ
架橋
解か
讃岐
ファイア
ルイジア
セネ
山東
デュエット
ダブリン
アクト
久々
肥後
雷撃
草原
プロポ
警察庁
吉本興業
小室
喋る
空挺
330
ソン
同法
渡航
担保
苦しん
アミューズ
ジャンクション
乱闘
##なみ
金属製
分身
劇的
吉良
##コンド
##制度
行こう
東海大学
城下町
##fer
多様体
拡充
降車
進ま
宿泊施設
介石
授賞
注射
##小説
文化庁
敗者
泥棒
エステル
委任
司令長官
ハノー
不可欠
強奪
編み
##ARS
慕わ
イニ
滅ぼし
##ィー
メッツ
帰属
##ng
教え子
大別
ガリア
宝永
##ビウス
##河内
競技会
無形
踏ん
##集院
共通点
取締役会
策略
対象外
インディアナ
花園
##ラック
レオポ
アブドゥ
KBS
学期
##よそ
エキス
八代
廃駅
後悔
膨張
##ブルドン
##ision
連結器
例外的
無差別
警護
フレンド
図鑑
売る
多種
かねて
基質
##ゾーン
##持っ
グー
見立て
造語
鹿児島市
保留
長安
##離れ
ピッツバーグ
リビア
商用
上原
##ほう
##レーティング
##ナーレ
兵庫県神
ナナ
ANN
モーション
待た
##社員
##かかる
##ンバーグ
スペック
William
ボトル
便宜上
Tok
名作
縁起
良き
貝塚
飛車
ヒューマン
捕縛
数ヶ
ファント
上る
下手
出願
工法
転職
植物学
へん
北村
大作
連発
ドキュメント
ありがとう
Si
兵装
部会
##ナーゼ
キログラム
はた
同種
洗濯
シンセサイ
ジーン
##ワフ
怒ら
兵庫県神戸市
共作
次ぎ
##yc
熱狂
##ki
複合体
奨学金
鉄道車両
ユキ
発起
揃え
驚き
##店舗
エンタープライズ
翻弄
幕張
河北
##チー
マクドナルド
カマ
関連性
本質的
オロ
ロブ
童話
見込ま
超音
アンカー
乗り越え
##ッシブ
たった
三国
##木町
ヒドロ
失業
年月
##プロス
書院
地球人
カネ
容認
プラチナ
古賀
魔族
カバ
ケータイ
四川
谷口
##RNA
安永
##留め
直し
ダイジェスト
1857
カスティーリャ
自生
たつ
剣士
未亡
##プラー
未亡人
デリ
個展
男児
病原
闘い
##キウス
日常生活
硫酸
##びき
彫刻家
断り
王宮
ウィンブルドン
田口
##uro
発売日
##リオット
ルター
乗じ
平井
##アーズ
##ボロ
3億
フッ
問屋
葛飾
チャップ
アイコン
京都府京
唱える
彼氏
##メート
セクター
農園
Dav
##iko
大司教
張本
##ホッケー
##スラー
ヴュルテンベルク
GU
眠っ
##ペス
アメリカ合衆国大統領
トラップ
バファローズ
さと
襲来
身代
陣屋
ジョイ
スパイク
脆弱
働きかけ
連鎖
##デール
ギミック
共生
判別
##グラード
ノーフォーク
National
操り
東端
Win
エラー
吉村
マカオ
接着
監査役
デビッド
余剰
白河
##PC
戦闘中
恐慌
##オロ
緊急事態
パルス
壁画
チャネル
叙任
消える
##ico
苦悩
高まる
天地
金利
##フォルト
殲滅
谷川
庇護
西端
##やさ
川端
公平
下着
圧迫
クリントン
おそれ
TAK
ホロ
PRO
感銘
代表戦
LAN
同然
急進
1856
##重なる
スティーブン
テラ
##ローン
ギャル
竜王
カト
将兵
特産
オークション
バレンシア
ブレス
他界
伝送
後進
限っ
##らぎ
秘め
270
##ブレー
分社
有明
##麻呂
強姦
ハプス
スカル
公判
支那
行け
協力者
副官
とどめ
市議会議員
マスト
##ブー
話し合い
響き
ギリシャ語
MAN
面々
スキン
おっ
クリーン
##たか
海水浴
クイン
ニーズ
##フライ
##マルク
##クレ
グスタフ
Pol
ケープ
ドリル
受領
突進
##曽根
##ゼー
##ull
##スキ
戦略的
三遊
鉱石
鉄砲
トランペット
##witch
巻い
銃弾
##esents
ハリケーン
蘇生
丹後
廃線
##out
RAD
変態
用地
##言葉
ドジャース
##楽町
##野球部
よこ
ラベル
##ズス
ハプスブルク
ジーク
ヒン
主戦
全額
##erry
取り外
ランチ
気づき
地方自治体
永田
直人
配偶
ソリューション
乱れ
虚偽
カリフォルニア大学
Her
トゥール
返り討ち
Comm
請け負
アクセル
ケベック
コリ
均一
コスモ
##ネンタル
##当地
##制限
了承
##ダスト
熊本市
WAVE
クラフト
1853
ブリュッセル
Bro
ソマリア
閉塞
##ッホ
繰り上げ
des
完封
OL
Time
タウ
##ama
アライ
相関
##西省
##スラム
タスク
有能
疲れ
ウラジーミル
OG
ブレイン
スラヴ
紡績
鳴き
今年
退去
妻子
##バータ
両立
脱線
##制作
##ステークス
Rev
くす
##不良
体調不良
歌声
前年度
ソラ
代々木
推力
パケット
リール
敦賀
畠山
##掛かり
##inc
ジェル
ホームラン
補う
シンセサイザー
イヤ
##リーダー
東京メトロ
撮り
町村
発効
モモ
プレゼン
板橋
##ドライバー
農業協同組合
グリップ
トライアル
サンパウロ
エルンスト
News
あす
艦首
サイレント
インストゥルメンタル
変速
280
おおよそ
##ling
フェン
フリート
離反
村立
##着き
無失点
名跡
カーネル
体育大会
コントラ
##連邦共和国
トレードマーク
シルク
吉岡
綬章
軍需
トロフィー
##嫌い
ウォルト
スモ
実弟
##ローラー
着せ
貯水
##チカ
##ムント
##ムラー
ac
望月
民主化
大通り
沈ん
築地
養育
##ズラ
##ぜん
##打者
モータースポーツ
おはよう
あず
幕僚
清朝
##利き
肯定的
Pet
休み
居る
通達
ナンバ
准将
流動
滑り
間際
エイジ
だいがく
理性
門人
震度
##13
全国ネット
三味線
スム
ホープ
下降
側室
海中
精製
誤差
##インド
##テリア
のん
へい
憲兵
##なじみ
パンタグラフ
溶解
片山
ノーザン
解像度
吉祥
軽井沢
銃器
##ンタイン
ますます
暴れ
買わ
連合国軍
磁場
##年始
##フィクション
年末年始
国造
新社
##りん
チョン
廃棄物
ジブ
##のめ
半減
文禄
らし
点火
Sing
伝来
廃墟
##崎駅
##aph
野戦
メルボルン
浮かぶ
Act
フランチェ
##ファーレン
ロビンソン
歌曲
##褐色
##ファーソン
皆無
アマゾン
氏名
インテリア
ペプ
##評価
Associ
伊集院
抜く
持参
##ien
レンガ
乃木坂
コイル
優駿
##置き
だらけ
劣化
##影響
複数回
フットサル
アエ
人道
赤松
##ouse
医療センター
アソシエ
グラミー
有名人
即興
果物
萩原
生駒
西尾
カント
華族
黒幕
高野山
アロー
停滞
本島
注い
##ショナ
Red
ご当地
みゆき
##ダック
信号機
同書
直樹
##ッチャ
都督
従わ
漁師
スタンプ
Club
押さえ
ペナルティ
堀江
rpm
すば
美しく
##コート
名古屋大学
Award
叔母
巨乳
##チカット
原動
語彙
##25
##ディウス
ゲームオーバー
バースト
コスタ
Don
しら
瀕死
邦題
##ARA
年寄
カイロ
大東
越し
鬼太郎
つま
越中
闘士
ファンド
売店
若しくは
##ッロ
##ータン
さよ
ケニア
初音
陶器
##ッラー
クロード
リットル
取りや
風刺
スチュ
女児
from
下がっ
細部
アッシリア
十八
同窓会
##カワ
コネチカット
OEM
大泉
宣戦
白血
##フレット
##みつ
うさ
絵師
開ける
##リオス
勝ち点
らく
バッジ
怖い
艦上
相談役
JT
三原
譲受
##ずり
染め
##衛生
命じる
注入
臨海
##込める
兼ねる
またがる
到来
増資
那珂
終日
##バッグ
マッサ
Cont
ダニー
部活動
オペレーティング
アリゾナ
YOU
混成
佐久間
一躍
全盛期
店内
##ビナ
##機器
いち早く
ニュートン
死因
千代田
イースタン
汚れ
重なり
##残し
レーニン
尾翼
できるだけ
休戦
##ブリア
ケーブルテレビ
持ち合わせ
サトシ
血縁
##ジャイアンツ
##aster
学力
水着
舞い
おしゃ
漁港
結界
費やし
##ネスト
##小牧
##シアム
パスポート
読売ジャイアンツ
使い方
合格者
アイオワ
慈善
##ster
岩田
##ital
ケンタッキー州
電荷
##unes
内野
深海
アレルギー
フィルター
シュトラ
カラス
レッズ
熱い
セレクション
1級
錬金
スティック
モンタ
モーリス
度重なる
##ura
##ロワ
アガ
大門
年代記
心身
瑞宝
##ウォー
ジョブ
NWA
##ボット
##出そう
##技場
代償
##酒屋
##委託
サスペ
ゲオルク
オクラホマ
カルト
妥当
戦役
フレッシュ
##マガ
##ンドルフ
交友
曲名
達也
黒川
##不全
空白
##ガキ
##キャスター
サックス
島内
恋心
憲章
納税
練馬
若狭
##クトップ
上段
両面
土浦
交通量
ダウ
ボビー
帯広
ジャイアント
デニス
東京都千代
王権
SV
判例
帰投
列挙
青島
##グレード
iPhone
さよなら
エーカー
刺客
##伏せ
ウィンドウ
アフター
逃げ出し
##シアン
##サキ
##ebook
倒壊
貧乏
##仮名
生態系
基板
服用
feat
シノ
全勝
##na
ジェームス
帰化
シャドウ
メーター
未発
##ぶし
カエル
残党
##ロニア
愛好家
##ネード
クエ
上告
##ポル
海岸線
目の当たり
ルシ
##テップ
301
大介
浅間
配し
##ファイル
抜け出し
焼け
##年金
基督
##ors
情報処理
ポピュラー
桑名
##port
ギャラクシー
ゲルマン
ふさわしい
戦災
サザ
上がら
郡山
##り物
Up
Yah
イオ
上っ
古今
スタイ
クロック
スリランカ
修学
##クティブ
運動家
合間
赤道
下層
侍従
欠席
魔人
預言
果たせ
JR北海道
東京都千代田区
貰っ
バッド
配当
県議会議員
カリウム
おもに
土俵
導か
1400
両軍
##調べ
冷酷
門前
乗り物
##ルドー
反対派
本丸
築く
サービス開始
パトロール
規範
ナムコ
かわり
相方
選任
フン
慣例
ツーリング
有る
洗練
気づか
居酒屋
あっさり
身近
祭壇
##ダール
##AMA
飢饉
##検査
作品賞
##ジャック
Mark
テュー
##ボルト
取り囲
嫌う
##方面
##OME
鳩山
パスワード
バッファロー
JNN
教習
Anniversary
am
信条
篠原
ブダ
リミ
歩み
取り込ま
苦しめ
ひまわり
ニューオー
いわく
平塚
ペンギン
飲ま
##ジュー
本科
誘惑
##保護
支配人
SPEC
##どころ
乗り場
##ージェンシー
海防
ジャッキー
ピクチャーズ
九州大学
ワイヤー
前座
ジャガー
ロドリ
老舗
##ワールド
背負っ
ルーク
##葉樹
ワト
ニューオーリンズ
##さく
事件後
標準化
同族
西日本旅客鉄道
開催地
Tra
停泊
風船
公営
広げる
覆面
##終了
憎悪
旧道
ジョナサン
星座
互角
譲る
##プレー
##5000
ジェン
言い渡さ
EV
検知
殺到
コンテ
1852
ポートランド
le
匿名
有権者
##チモア
揚陸
遠山
##fl
本曲
略し
製法
いたる
例え
##ザック
コソ
フレー
流体
熱海
ディスカ
アンコール
スレイ
布教
少なから
保護区
下げる
切ら
初年
捕鯨
運転士
郵便事業
##ピース
##バチ
##urn
コンビニエンス
引か
アトリエ
弦楽
##yd
ジャワ
ベンツ
役立つ
目玉
礼儀
##du
不祥
##雑誌
見送ら
モナコ
7万
人名
汽車
Ju
未定
用法
繋ぐ
翌朝
ジョージア州
Fe
シラ
大家
銀色
##あき
##ye
##22
260
複線化
Song
大黒
面接
##パンマン
##トゥー
レジェンド
##IF
中道
景勝
##谷駅
##前線
JFL
宇和
戦中
連帯
ジョーダン
芥川
##コト
##こち
バチ
回廊
ジェイソン
ギャンブル
戦記
蒸留
場外
Fr
アーノ
アサヒ
ガブリエル
触手
##UP
##育て
サイボーグ
ミッチ
土井
ボルチモア
##ヴン
##ぶつ
らしき
##区域
##キャニオン
おまけ
同化
幅員
悪影響
祭典
Sal
カザフスタン
嫡子
受け止め
絵柄
オールスターゲーム
トリガー
在庫
亡くなり
Techn
大多数
ゲノム
Des
北緯
##チコ
限定版
未発表
ユン
挙兵
覆い
ボディー
一塁手
北魏
数える
総監
1300
##ボラ
##OSS
肥前
メモリアル
あゆみ
工兵
##去り
快適
##イチ
タイトルマッチ
山川
手下
薬局
##oss
世俗
叶わ
速力
##ze
消費税
輝き
フェルナンド
綴り
クーパー
瑞穂
色素
オンタ
できれ
数か
##ろしい
業務用
数ヶ月
Ze
トリック
茶屋
##レフ
いずみ
地質学
カオス
##街道
洛陽
##GS
登頂
ランカ
キングス
##アリ
ウォッチ
重巡
池上
わざと
養女
驚か
偽造
母子
見なし
コミュニケーションズ
ミクロ
官吏
##舞台
検察庁
UR
name
政友
日吉
##タカ
インフルエンザ
ルクセン
壊し
米沢
転出
##フォンソ
伐採
3rd
##でん
甚大
パイレーツ
取り上げる
##サール
デュアル
エグゼ
王様
紀行
##停車
##よい
##井町
四条
頓挫
##グア
ウェイン
##irect
健在
Port
ペリー
##atch
##キュラ
裁定
##YP
##ゴラ
ジャンボ
ブンデス
サリー
有田
##las
##木市
さかのぼ
コックピット
Yahoo
おに
園内
10000
TW
着物
RECORDS
肥満
オデ
高騰
高官
##バオ
行先
下表
佐倉
催し
決心
グランドスラム
007
体積
ドミニカ
##ライオンズ
復帰後
ポップス
トランスミッション
解き
貞観
ムル
##博覧会
大仏
存命
ATP
天空
愛宕
正直
行え
青梅
東名
##まじ
琵琶湖
Val
五丁目
##リエン
大雨
監獄
祈祷
##メロ
フラット
スキャンダル
尋問
様相
##解決
取り扱っ
前向き
生計
たど
地価
ストックホルム
##ガール
##らわ
拡幅
王政
産ん
がる
主軸
##por
平衡
没落
##ティティ
##ルンベルク
NEXT
増す
薬学
団体戦
ナイジェリア
如く
灌漑
獣医
おこなう
懇願
街区
##ema
キャンディ
ふう
武帝
##ミール
##醍醐
アトランティック
エプ
啓蒙
執着
洗浄
辞し
叙せ
net
地層
##清水
不祥事
君臨
チャリティー
##キロメートル
ピックアップ
堂々
建武
硬化
コバ
宇多
小西
明智
樋口
大工
窃盗
ギャップ
書き込み
パウロ
産生
平方キロメートル
出仕
##の中
##しめ
誌上
ライプツィヒ
オペレーティングシステム
建つ
残骸
宇佐
はめ
アワー
被災地
災い
馬主
三遊亭
iT
シャーマン
##rol
赤く
非対
経験値
つば
東岸
##やき
フィーチャー
保守的
ゼル
委ね
見出さ
宇野
恐らく
風味
高台
エリス
クッパ
砲身
誓っ
鋼製
##の内
デコ
三塁手
混血
表せる
高倉
##バダ
天守
高槻
難い
いただ
中略
奉公
奥羽
登り
ディスコ
寄せる
引き出し
いら
自我
##BL
フェルト
八郎
夜明け
##ニシ
PM
さだ
接種
##ship
曹洞
##lt
##出る
ファクトリー
##ソフトウェア
gr
本性
近傍
ルクセンブルク
未成
パラダイス
トゥル
DREAM
##イール
##iver
IF
リベラル
リエ
ローター
仮設
推計
異議
目前
マーベル
非公開
##endo
共学
貨物船
後醍醐
障害物
上水
光子
富裕
ウォーク
フラッグ
イズ
コールド
カンヌ
Enter
NPO法人
ロート
公害
##ety
正義感
LA
イヴ
催眠
舞踏
取り壊さ
pl
##ッガー
##マツ
ざわ
オリーブ
##aka
必然
##たる
荒れ
長崎市
たばこ
##せつ
受け付け
感染者
埴輪
聴き
ファントム
滑らか
##使用
ヘルツェ
保育園
オムニバス
提訴
##ッショナル
遊戯
##スキー
クラッチ
漬け
面識
##ral
名字
##ISS
AW
バトラー
一塁
宝物
州立大学
##プラス
泣い
ウェイト
ベルン
CN
漁船
##サンブル
日立製作所
ブンデスリーガ
筑紫
##15
藤村
MAR
にゃ
東邦
破れ
キャンベル
同定
イワ
ゴス
##ハマ
##ッキリ
過度
Tw
余地
四天王
宮川
重なる
ちゃんねる
FINAL
エニックス
坂上
乗り入れる
冒険者
党内
いわば
##クロス
卒業式
Special
グリッド
纏っ
ジャス
対抗戦
マッカーサー
前夜
ウィンター
ジョゼフ
中流
音節
持ち込み
太い
##ムラ
東インド
つなぎ
##ike
シークレット
ボヘミア
ひめ
信じる
カリスマ
物品
省庁
日本製
捕まえ
1849
とれ
加古
株価
いとこ
PSP
教職員
取り込ん
スピーチ
PAR
下がる
安保
軍曹
国立大学
延べ
暗躍
室蘭
顕微
カレンダー
平山
添付
##ケース
##MM
いわき
毛皮
##ジロ
因む
参列
投影
造園
難航
アニメーター
スライダー
FNS
##院選
欲望
##ぶん
助演
師団長
凶暴
##ブラン
##ミヤ
ルーシ
ウイグル
新線
##バサ
##oph
村域
請負
賭博
院内
##コフスキー
##デレラ
HO
浮気
##EG
織物
マッキ
割譲
##スン
ヘルス
練り
躊躇
土日
最寄
##ンバラ
WH
原宿
採り
直訳
神官
モテ
平壌
Pi
市政
##中区
##ットガルト
ハンデ
内面
年限
##シャイン
目さ
ミケ
指針
ニュルンベルク
ホン
没年
自粛
ついで
不合
出所
##中学
ローテーション
みずほ
まこと
アディ
傷害
無力
ローラー
ワークショップ
なな
皇女
囚われ
整っ
栄光
着い
販売店
温厚
走ら
##都心
フリーランス
水質
遊歩
オンタリオ
ヒール
##れど
子育て
氾濫
##の日
京都府京都市
備中
撮っ
水銀
国分寺
半身
##転換
新体
濃く
誤認
##ese
ギネス
北見
##バルディア
サスペンス
主君
優し
卓越
細く
フィッシャー
黎明
##ラーレン
チュニ
冷蔵
跨線
いや
尾道
パーキング
カッコ
大船
香取
Min
ポテン
三塁
時刻表
正午
太宰
源泉
##ersion
バター
付か
召し
寒冷
恩恵
高射
##ん坊
M3
TP
繊細
##ナビ
##住宅
Geor
花嫁
##ベア
持ちかけ
##ille
ドバイ
成年
##ha
ボーカリスト
フィリップス
プー
ベニ
探査機
祝う
筆記
##しさ
こっ
##メタル
筑後
打ち切ら
Blue
タグ
人力
専業
救世
草津
##eral
1851
堀川
抜ける
シャーロット
アテナイ
Fla
永正
消極的
天皇杯
シュタイン
耕作
##ッツァ
##クラテス
コリン
壁面
身柄
通す
##ano
境界線
軍部
##EP
GC
そちら
託さ
##がす
ゲオル
wik
簡略
週刊誌
収縮
福知
##14
伝播
深川
##差し
アクシ
MY
いな
べし
来訪
夕刊
城内
賢者
万葉
右派
冷たい
アンサンブル
ヴィー
VF
ジャンヌ
ニコラス
浴びる
LM
##ゼーション
料理人
##アーノ
争わ
ベラ
中途
教材
本庄
自律
##キーパー
根本的
ラボ
レシー
幼なじみ
貫く
高砂
##ゼット
見つから
マダ
農耕
##広島市
##リアーズ
商社
溶液
裏側
##リアー
ファウ
大崎
##宮駅
揚げ
埠頭
嫌わ
居留
見逃
マヨ
##ウェン
ムラ
付さ
慰霊
##パード
ベータ
レパート
貸出
アイスホッケー
Cent
医院
日テレ
油圧
歯車
パブリック
地味
風習
##ッチェ
ハンセン
##ブレッド
北アフリカ
ローソン
ティア
がかっ
古事
捕え
##ラシア
シリアル
ネガ
ホルン
帝政
武藤
独断
##ILE
支払っ
Aut
土岐
存在感
加害
同義
格付け
##ッカーズ
主計
未熟
被爆
##改札
アップル
実行委員会
##ific
EURO
コモ
SPOR
イナ
##会議
フランケン
企て
好奇
限定的
殺し屋
Li
参詣
初回盤
キューブ
傷つけ
同線
少量
爬虫
##談会
ライス
商品化
DOS
Er
さほど
##カライズ
##オリンピック
##ビック
Robert
地雷
渤海
Trans
武官
赤城
イタリア人
キー局
ランニング
ルーカス
un
祭礼
置県
酒場
共同制作
ヴェストファーレン
内地
別当
ベンチャー
マンス
画期
PART
##マイズ
ディーン
送り出し
JF
バズ
コンポーネ
カエサル
極秘
##セー
##しむ
天理
攻撃機
スペイン人
ガリシア
Tokyo
北川
国歌
ノンフィクション
やん
フォレスト
モーガン
##OLL
マスメディア
Nor
所定
1700
##ツィオーネ
ケイト
世の中
末尾
運動場
岡山市
WBO
枢機
王冠
##ats
帝王
##人者
第一人者
IBF
苦しむ
天草
置き換える
最小限
ケロ
ミッキー
治め
##ルトゥ
セイバー
リモート
メドレー
毎時
試行
##ペー
##ユニット
レノン
Em
百姓
##競馬
仏像
由紀夫
発熱
##tern
安定化
jp
万能
支持率
iTunes
顕微鏡
新車
とうきょう
回顧
##サード
ステアリング
文字列
申し入れ
魅力的
ミハイル
驚異的
レズ
レパートリー
テント
四位
##ILL
モダン
降っ
ロックマン
##ポリタン
コンスタンティノ
1846
アウェー
チェリー
リヴァプール
シュトゥットガルト
拾っ
1820
加担
クラリ
検察官
トレイ
振っ
パク
眠る
グルー
ジュン
バラバラ
レンジャーズ
組み合わせる
ヘヴィ
贈呈
入間
卸売
館長
ゴルゴ
WOW
シェフ
PT
試練
ポニーキャニオン
右足
正則
アルティ
ストーム
イアン
北道
彦根
各駅停車
KC
山名
##田郡
気付か
ビック
打球
##olution
von
降る
通信社
くみ
北区
掴ん
DAY
盗ま
総領
##地下
チューナー
##地下鉄
堺市
密集
致死
親密
カルロ
##ッツォ
いたずら
上総
言論
##ris
カ所
ヤー
寄宿
##わざ
狩野
つくっ
プロフェッショナル
お嬢様
協同組合
執拗
白井
近親
速やか
カズ
残虐
アスリート
UD
光明
飯塚
##議長
怪力
臭い
合い
##仙台
2500
劉備
法典
ストリーミング
ざん
ブタ
自発
インフォ
静岡市
弾頭
飛ばさ
##ゴメ
取り出し
##ッチメント
レジスタンス
あま
マネー
ジョルジュ
オメガ
ラッキー
仲裁
退位
チャット
COVID
Facebook
リーズ
具合
積雪
サラブレッド
農林水産
水没
##ior
スクリ
デュエル
産む
##んと
アイディア
##OLD
850
機械的
レガ
裏腹
地域圏
イオンモール
モラ
ルース
サバイバル
制動
##たし
##高等
ワニ
営業部
マネージ
暫定的
失望
形質
##上駅
キャスティング
ファイヤー
隔て
##南町
##キャラクター
カッター
規律
##リエット
新春
咲く
赤ん坊
アンパンマン
平城
##ヨシ
国定
肉食
API
外野
直下
送付
ダイレクト
短編小説
##運転
無効化
レプリカ
リヨン
スパーク
XX
修繕
脱獄
クジラ
志す
或いは
病床
タンカー
応永
フェデ
パンフレット
岩倉
転任
呼応
付け加
SB
時速
遊牧
##ets
シンシナ
曹洞宗
漫画雑誌
有効性
欠い
航空自衛隊
##ush
追い込ん
5億
はっ
決算
私生活
##カープ
シルエット
田代
ガンマ
ヘビ
伸ばす
夢中
大麻
鋼鉄
ウェン
隔週
元号
委嘱
登用
##手段
##東洋
カウントダウン
実効
尊氏
##プラノ
ウズベキスタン
ズーム
下北
幼年
竹田
頼む
四重奏
計上
反復
検閲
治癒
##露目
##披露目
##amb
邪悪
リマスター
8万
真ん
##シュート
##ウィック
##ript
気付き
実物
客船
戦わ
##歩い
同郷
生後
##90
##帰り
フォア
因果
松前
贈っ
鉄鋼
岡部
故意
返答
頻発
組み込ん
陸軍士官
手数料
陸軍士官学校
Edition
ビア
傾倒
振ら
沢田
神崎
車軸
重度
よしもと
寄港
嵯峨
ミシガン州
ミネソタ
リサーチ
成虫
##16
日産自動車
挙句
藤岡
##サーン
タックル
安い
講演会
気質
滅ぼさ
監察
銘打
##合わさ
プリメ
今治
育児
##浜町
プエルトリコ
島々
亀山
重用
##18
植物園
エレクトロニ
ゼウス
レフェリー
一座
ヘルツェゴ
許す
宗派
310
フェミニ
テクニカル
スバル
根岸
洋楽
タブレット
長者
##札幌
計算機
イケメン
FU
Group
スチール
アステ
##ロク
スタンフォード
借用
探る
逓信
麻酔
キャット
のぶ
ばい
復員
クレーター
先立ち
小数
着想
苦痛
あけ
イヴァン
伝授
大柄
救難
至近
セレクト
先立っ
募金
坂田
##シーズン
アイデン
料理店
中性子
匂い
産物
自動改札
ポルトガル語
ヒメ
藤子
##ヤーズ
##ティーノ
神事
明神
デスクトップ
体勢
元祖
熱中
試し
Sun
多賀
類型
フィット
官庁
小型化
イエズス
シンシナティ
ナオ
ぞく
反感
横田
##ツネ
エカ
給料
ヴェルディ
真ん中
カノン
大金
知多
##進め
中南
念願
イルカ
ウィキペディア
快く
部活
SRCL
ドコモ
届出
楽園
こころ
前任
新報
##アール
通例
出場者
スキャン
張本人
ベンジャ
##oot
##za
##石器
##ブルー
エスパ
間近
抑圧
補修
引き渡さ
Type
カスタマイズ
ウエスタン
一歩
本貫
##リータ
著述
##ボート
可視
羽目
酔っ
いこう
有線
謀反
オーブ
##テレビ放送
オックスフォード大学
交番
頭蓋
飽和
##訓練
ツイッター
跨線橋
DB
視線
##イスキー
##ショット
ネイティブ
アリスト
リーマン
岸田
##RA
ジョヴァン
FNN
早世
沙汰
軍政
滅び
内海
徳間
絶縁
島原
生き物
歌謡曲
圧勝
寺田
祀っ
##返っ
225
けれど
国税
日数
##製造
硬式野球部
じい
局面
構図
登る
みなす
丸い
二男
印象的
取りやめ
##ギル
林業
誘発
隠蔽
ガーディアン
履歴
東京電力
スターリング
立ち向かう
二塁手
延宝
##ICK
配線
##スケ
出征
捕まっ
口座
改番
##デシュ
##放し
パッチ
奥田
西海岸
Po
下宿
尽くす
正反
特別支援
六角
初恋
生理学
##END
戦力外
ダイナミック
W杯
握手
Champ
レディース
7th
令嬢
円谷
機首
2023
正反対
セクシー
値段
##張る
##ートニー
Lu
広島東洋
ナビゲーター
広島東洋カープ
よみ
##ブリュ
マグネ
みん
ペーパー
敗走
褒め
黒澤
カタール
ナウ
マテ
下る
恵比
##バージョン
カーボン
VI
分教
麻布
##こし
分教場
事柄
##ポス
桑原
切り替える
モノクロ
税金
##ホークス
##ばっ
開拓者
多忙
桜花
アタッチメント
石巻
お披露目
よかっ
ハラ
ミキ
団結
叫ん
醍醐
##rop
ワシントン州
数量
老中
誠実
Bu
官邸
##ican
アラバマ
海抜
##ニム
##AGUE
弾い
粉砕
製紙
##lor
結びつい
Radio
ボンド
低速
破滅
間柄
沈黙
##メンス
法人化
審判員
キッチン
ギガ
小名
ジョーカー
急行列車
ICOCA
ボリビア
持ち上げ
##ival
ベンジャミン
坂口
聴覚
長髪
##八幡
社会民主党
##ファイターズ
AB型
バリアフリー
##ビール
ストレ
垂れ
最大限
##OWN
ベック
田畑
秀樹
飛翔
ジェファーソン
好奇心
地頭
狂気
取り締
書体
やっと
小中学校
軍令
##指定
##ハーサル
消去
直行
##退職
Store
ディーラー
LEAGUE
自衛官
##ップス
GPS
雇い
##田川
##ANT
返り咲
宣教
漂流
親しみ
てれ
全焼
##tain
##JI
##HA
ハニー
指定席
落ち込ん
取組
東京工業大学
追い詰める
法学者
かれ
供述
ともさ
とに
##メト
##フスキ
単線
蒲生
応援団
Exp
スナック
おろ
ヨン
家出
##ルート
小平
撃つ
細工
鳴門
##ワート
##ヴェー
ビクトリア
移籍金
取扱い
十五
##券売機
自動券売機
脅し
願う
コースト
アトラス
取り消し
よん
霊場
##寄せる
ひな
方位
陽気
頭角
##ストロング
受理
リハーサル
常盤
神輿
##がた
##ナンデス
ナス
殺そう
売上高
均衡
##輪車
##ITY
しお
保ち
##カルド
##シェン
伊那
##験者
##ated
Med
星雲
長良
ララ
##がらせ
専門的
アスト
破裂
肥料
負け越し
チューブ
初主
インスタ
初主演
Max
City
過失
新居
天王寺
ヨルダン
お客
時事
##ったり
フラツィオーネ
カフ
##OO
##TP
##ルドバ
かぶっ
急逝
逆襲
チャー
##コンシン
従前
野手
##23
プロレスリング
YouTuber
サンプリング
di
キプロス
ランチャー
国教
競艇場
騙さ
##奈子
フィード
未完成
やさ
バッグ
入港
鶴岡
##ロッテ
##リスク
引き渡し
ストリーム
持ち出し
FEST
ハブ
電器
ブエノス
違和
中央委員会
ヘルシン
払っ
##ルーム
住宅街
マグマ
統計データ
セーフ
下す
離島
##論文
ジェンダー
Serv
ハノーファー
オラ
ビザン
とにかく
コト
屋号
##ORY
セルゲイ
1843
クロスオーバー
##ney
コンポーネント
カサ
##こみ
侮辱
新書
##キナ
##庁舎
タカラ
トータル
リソース
健太
1847
スマイル
下田
困惑
敷か
水溶
罷免
人工衛星
くち
奈々
##ael
オアシス
吉原
チェンバ
##フレンド
遷移
Fire
GIR
同情
山林
取り付ける
打線
水槽
銚子
住民投票
周防
御家
##ベスト
##用品
サイコロ
使役
限る
クリニック
サムライ
孵化
1100
下半身
素性
ファッションモデル
枢密
竜巻
TA
運転免許
マクラーレン
Ang
ワンダ
戸惑
##ージナル
叩く
ヴァレ
機械化
コーディネ
よろ
戦列
##its
コソボ
ちん
シマ
以東
##ミド
org
イスタン
リサイクル
イーグル
伏せ
被弾
##飾り
ウィスコンシン
ツィ
猪木
引き取っ
軍事力
ぶら
##面積
れれ
先手
名探
変革
シャワー
管理下
サタデー
名探偵
症例
##to
浴びせ
##エビ
##ative
お姉
シング
創価
甲州
破ら
##チェル
カタカナ
保守派
稲垣
1845
申し立て
税務
ソフトボール
連載中
工作員
内訳
無意識
誘っ
##ギター
WWF
光秀
合致
新町
##コロムビア
WC
静岡県立大学
廃し
音楽性
チューニング
ワイヤ
収支
覆っ
##開き
テネシー州
リチウム
兵衛
勘定
更生
con
なだ
西大
雇っ
交替
西園
日本コロムビア
##ーツク
フルーツ
知識人
吉備
##ユーズ
Fri
NK
ケプラー
原油
向ける
整形
##グラン
バスケ
違和感
ケビン
劣勢
宿場
減り
契約満了
te
機長
鉄道会社
夏目
小坂
羽生
麻衣
##中市
運転席
出版物
チャーチル
シス
捉える
##ッショ
デフォルト
新庄
##ミオ
##チュエ
マルティン
上り線
##トム
インテリ
モットー
面影
こうえん
380
全日制
RB
しな
低価格
##王星
##調査
##位置
調査会
立ち位置
初舞台
松村
東京都新宿
思惑
約数
##西市
##ざき
円滑
FE
ねこ
銅像
マッカートニー
射出
英米
##語り
FIA
##17
下り線
スン
切腹
立教大学
##アンド
人衆
石狩
パチス
チャイルド
主導権
NAD
入江
故人
施す
矯正
藩政
ブダペスト
誘う
フランコ
掛け声
古事記
追贈
上半身
役柄
軍務
新宿駅
カンタ
寄席
##GO
読み切り
ドレスデン
隆起
書き換え
アクター
ポット
副議長
番長
綺麗
##そく
256
アームストロング
コンビニエンスストア
修道士
画期的
ゲッ
モス
懲戒
最年長
ラバウル
経済産業省
分隊
嗜好
精通
顔立ち
致命傷
Ev
ぶつけ
郷里
飛ばす
##ドックス
コントローラ
ケルト
外壁
抱か
新鮮
発表会
貸与
ドニ
完備
龍馬
##マーケット
ロイヤ
内心
凶悪
包み
現代的
パチスロ
バング
信越
##マド
従事者
ブランデンブルク
偵察機
旧式
材質
水谷
##天候
大気圏
コンタクト
スクラン
増援
父方
オーロラ
赤ちゃん
騎馬
Mor
##代理
包括的
ポロ
予科
勇敢
合祀
下落
低かっ
悪人
##ビオ
スティール
商学部
独り
##ACT
飛び降り
ブーツ
サンゴ
ビジター
ファルコン
Association
LC
美貌
とどまり
つう
戦況
治虫
重心
環境省
##タイヤ
本山
##名詞
ラピ
随所
##びれ
ウェルズ
So
タモリ
掴み
戦闘員
打ち破
まちづくり
実録
拒ん
##木場
アジト
議院
##ダーマン
1844
立命館大学
ポテンシャル
アブラ
一向
一人娘
Direct
生む
##ナダ
フィア
団員
##届け
Nint
号館
戦功
特製
ボム
足ら
エナジー
ほく
熟練
Reg
コミカル
読み上げ
大腸
進駐
重症
おや
財務省
モト
手腕
物産
協同
坂井
対象者
日時
粉末
King
アユ
放り
駅員
東京都新宿区
Nintendo
正徳
死別
続投
書記長
環礁
試合終了
がたい
払う
軟式
##治郎
スナイ
白く
連なる
開会式
かさ
花序
騙し
##キラ
並木
終末
しみ
実名
引き連れ
機関区
東北本線
Switch
街路
都会
##スカー
ノウハウ
ケンブリッジ大学
Good
ラオス
リカ
参与
アトレ
クローバー
しず
ヒルズ
レポーター
東国
##クトン
ふと
即ち
携行
沈め
##変わら
ペルシャ
振るわ
##ドンナ
よら
小金
##ソーム
重要視
カクテル
落札
##uck
アクセサリー
安堵
##キスト
プロット
ブックレット
イデ
賛否
名古屋鉄道
##ittle
ズボン
成形
杉浦
##over
駐日
ピート
同心
幻覚
無敗
個人情報
##ビュート
ひい
東京都渋
ぶっ
##アイレス
ミヤ
円錐
##リスタ
##グラウンド
従者
##マネー
エドガー
ドナウ
合図
空い
##市駅
##掛かっ
10億
レオナルド
きちんと
奪回
改易
##ペア
トップクラス
オスカー
市議
防具
##メー
##24
架線
黒く
##イベント
チャーター
キロワット
BIG
きの
わん
三越
ヘルツェゴビナ
エヌ
ガルシア
ばあ
否決
1841
農作
理想的
はつ
農学部
聞こえる
伝染
嫌がらせ
態勢
最前線
長大
コンプ
コレクター
1815
プチ
占有
おとな
マタ
榴弾
ブエノスアイレス
終身
##沢東
経営学
1832
##ナンシャル
コペン
トンプソン
汚職
チンギス
KAD
萌え
本流
リーフ
##リーンズ
見つかり
推挙
精鋭
黒海
ユーモア
SPECIAL
ミレ
沈着
づける
ガンバ
ツル
転覆
返却
左足
コンソール
厳重
国名
悟り
膨ら
退院
1842
KDDI
##チュウ
苦情
##知り
気象庁
ゴート
旧名
各部
連打
ティル
##IVAL
GDP
m3
ソルト
ロースター
岩国
異星
##之内
アルカリ
グアム
##スワローズ
富ん
ジョシュ
##んどん
立憲民主党
らい
富岡
ビースト
ギー
##んどう
サヴォ
堀内
Dis
埋める
本艦
触発
責め
##チレン
##相手
##aut
ディック
ちく
囲む
##どか
国家公
利害
晒さ
続出
管理人
Of
四角
孫娘
潜在的
実兄
感知
捧げる
魅了
##井駅
ドイツ連邦共和国
JR貨物
カルボ
James
切り裂
目論む
京極
平氏
足場
コブラ
ノヴァ
ルビー
恩師
戊辰
##xt
##デッド
加増
嘱託
稼ぐ
国際法
キングレコード
やりとり
支庁
長江
化学的
MI
RD
在り
毛沢東
##ろさ
研究生
スポーツカー
##チャンネル
代金
直系
脊椎
##アート
##すぐ
ユーラシア
KE
サタン
1806
保安官
写し
助力
##半球
アラゴン
ムード
震源
追いや
エディンバラ
実母
着地
一本化
四肢
天竜
ひこ
ラド
側線
困窮
散乱
##クラフト
スリップ
メトロポリタン
##通信
バレンタイン
UK
平民
書状
桃太郎
ロゴマーク
nm
っ子
給水
雑貨
##付く
##っとり
ピンク色
東京都渋谷区
櫻井
##モロコ
##巻く
Stre
##ISC
年後
特訓
豆腐
透過
206
1837
年後半
Tri
ミラクル
恐ろしい
東横
ケンカ
奥義
岩井
東欧
残念
##沢駅
きっぷ
HDD
城山
##プタ
マルセイ
学習院
高尾
##マム
東京湾
タイタン
##ield
Ter
代名詞
持て
散布
私有
賞品
近距離
##百貨店
##商事
段階的
岐阜市
ギルバート
大喜
結集
花粉
西北
##メイド
##enter
##アドレス
カブト
マスカ
大英
インド洋
##キンソン
ジュース
北山
済ま
随筆
##ルスク
メイキング
##落とさ
ハビ
多量
全仏
すごい
航続
組織的
五十嵐
スラム
##TD
柔らかい
オード
残酷
ALL
メロン
補習
溢れ
統率
群島
##製薬
クン
セブ
戸塚
談話
##AMP
##ession
偏見
水車
関口
大竹
侵食
新川
問い合わせ
Game
大道
旧約
栗原
検挙
濡れ
##ライフ
延長戦
愛車
シャーシ
ミト
光年
兵学校
##体育
刻印
杉本
現す
貫い
巻き込ん
結びつき
自動改札機
川沿い
赤羽
Heart
縦断
部局
ストン
のぼる
子宮
巻末
悪事
組曲
支配権
シンデレラ
##AME
アーノルド
イスタンブール
エックス
学説
前輪
解け
##ムナ
自然科学
Adv
Soci
公方
長期的
マディソン
ヨウ
亜鉛
##ヶ岳
みの
抜か
欠番
謙信
静脈
エレクトロ
マシュー
アヴェ
ブルーノ
暖房
船内
##ゾー
オープン戦
欠かせ
蔓延
##レッタ
チャール
Alb
カージナル
派出
コペンハーゲン
エージェンシー
大当たり
悪かっ
惨敗
物価
陸海
##ORE
##otten
曾孫
機内
##iew
羽田空港
キティ
モリス
外す
皐月
朝鮮語
802
ビルド
大倉
旅人
躍進
関根
IL
Sil
長き
フォロー
信任
##払っ
ベジ
ポジ
豊川
MOV
mus
皇太
##55
##百合
ドーピング
##OKAWA
ひばり
ムーブ
尼子
減る
パーフェクト
モビル
一途
仁川
##ience
##蹴り
映像化
朝日新聞社
メソッド
チェルシー
タイト
化学者
##ガム
フレッド
##マイオス
公用語
島民
忠告
手持ち
短大
面する
##崎町
ひどく
執り行わ
リサ
##チョフ
WOWOW
タイル
媒介
秒間
キャッスル
先駆者
筒井
定年退職
ブカ
ベオ
労働力
バークレー
イット
凄まじ
牽制
細分
習っ
課金
風力
##メロン
##ブルック
ギャラ
##ICA
しげ
農協
乗り込み
##ody
えり
優れる
巡業
振舞
##ME
340
分譲
ラジオドラマ
弾き語り
一夫
##モフ
外科医
生家
鉄路
立ち上げる
神明
諸葛
はじめる
義父
西条
関係性
デリー
投降
死な
##イッチ
##ピラ
先進国
稼い
中央区
モノレール
ヘルシンキ
欠如
誓う
タイ王国
クレー
内乱
執る
生産性
禁煙
##ティアン
床下
洋子
石器
表れ
##ニヤ
呼び出さ
XP
キミ
サメ
マティ
手形
民政
関白
骨髄
##レンツ
シンフォ
KADOKAWA
サプライズ
ニッケル
停電
安く
服役
濃厚
財源
隣国
アドバンス
補佐官
きれい
TT
和音
容積
文句
##けい
##ンスタ
得票率
客観的
##書店
同志社大学
高松市
##モロコシ
水島
流路
疫病
カーニバル
カージナルス
QB
サニー
充填
名手
埋立
現世
板垣
確執
開基
キャリー
人間関係
鳴き声
的確
##知能
ファンク
人工知能
ふつ
品番
マヌエル
原典
大まか
就き
旺盛
若葉
##ナリー
スイート
##obile
気球
引き抜
ステート
マシーン
2級
とらえ
ボギー
ラルフ
亀裂
同好
##ージニア
##フィル
ブラックホール
カートリッジ
フランチェスコ
塩素
徳山
同盟国
得意技
短編集
採算
蒸発
プラットホーム
勤労
月光
功労者
シンジ
石山
##my
高速化
パンダ
中之
落城
使いこ
Sum
文言
申告
David
ソユーズ
入城
州道
##エロ
##もる
イデオ
保た
江川
竹中
総領事
斡旋
規程
電極
アンソロジー
BP
ちび
##わう
ラトビア
Mich
本誌
要衝
象徴的
兼ね備
トウモロコシ
新潮社
UTC
切符
抗原
振り回さ
自動車メーカー
Os
十勝
幸運
掛かる
沼津
##ideo
鍵盤
##関東
バレル
大祭
実数
踊っ
Gal
Lib
ゴロ
南岸
チャック
ペレ
単装
要職
Child
づらい
##リニスト
ジョアン
インデックス
Bre
多田
居場所
##ヨウ
##年齢
バディ
白亜
##いう
ラテンアメリカ
ひっ
バロン
マッハ
ヨット
生年
脚部
遺し
##てん
東京都中央区
ロドリゲス
坊主
失速
敵機
ヒカル
上人
被疑
##デビュー
人口密度
陸上部
菩提寺
帯域
知覚
金賞
##盛り
##ANG
浜松市
ボウリング
##人数
スマホ
爬虫類
図形
性交
作業員
状況下
突き刺
政令指定
政令指定都市
叩い
メット
二宮
民進
遺骨
##弟子
フェンス
##ヴィッツ
1836
機動隊
アレクサンドリア
ラファエル
キヤ
##ぶさ
アニマル
創出
西野
##政権
思い込ん
立ち会
校章
カリキュ
テラス
ヌード
励まし
フレンチ
千秋楽
Jo
怪談
浩二
辛い
##くっ
コンコース
北海道札幌
市民権
支部長
Company
待合室
北海道札幌市
取水
パルマ
ドリー
##ディオン
Kar
城郭
##ステージ
耐久性
ハイスクール
AE
FD
苫小牧
美術品
希望者
おし
リコ
阿久
ノルト
不変
大明
##ティックス
1814
ニュート
不自由
##モバイル
##文学部
##週間
ウェア
沼田
自決
##ヒド
事故死
##ATA
大企業
##マイト
バラエティー
恵比寿
IG
小石
紙面
なおかつ
ドラゴンズ
強襲
新進
ワーグナー
売場
踏む
探検家
American
士気
正五
故障者
Lim
Pal
##動画
有料道路
セルビア人
アバター
Class
欠く
止まる
球体
相変わら
素早
調布
ジュラ
メタリック
相変わらず
##バイン
##UST
スルタン
エフェクト
非営利
裏切っ
##ora
DL
一段
掛ける
相場
鮮やか
##ワル
予め
片道
女子大
RKB
神学校
裁判長
三沢
九十
即時
居候
転勤
中心街
doc
ニセ
愛子
ナツ
イベリア
数週間
##xy
西園寺
中井
##ヴァイ
1812
Sw
ヒスパ
水位
煉瓦
1789
搭乗員
大樹
スペンサー
エドゥ
東経
目立た
文学科
技量
パット
亀井
名勝
購入者
ニコニコ動画
賢治
スレッド
リンチ
応急
病弱
英名
諸語
##ense
##NC
##86
スーダン
褒章
クラスター
##フォース
大軍
画素
立ち並
華麗
返事
遠江
Sn
擬似
習い
魔道
##関数
##割り
##ルドルフ
葛藤
ファステ
バーミ
恒久
昇叙
リッチモンド
Cap
視認
位置付け
飛行船
##OTO
気配
##江市
1835
亀田
人的
貼ら
阿武
##投合
運動量
1839
意気投合
Il
懐疑
操ら
課さ
##グモ
エスカレーター
Mer
イシ
年々
三菱電機
公然
小原
##チュード
##民主共和国
かたわら
クラリネット
ミミ
北岸
ホームゲーム
ナミ
##博物
もとより
##博物館
工具
自然公園
ケイン
動け
宴会
憲法改正
ラッピング
ロータス
回す
形式的
みき
変則
ヒドロキシ
偶数
化身
殴ら
##学園大学
IW
##伝え
発起人
千葉市
ブレーメン
環状線
助監督
畜産
##位体
##スクール
予備校
FK
マクシミ
##ガイモ
済む
祝賀
##メド
##ella
##ニングラード
試験場
トロイ
同値
ロックン
関西弁
Ap
仙人
遭う
同性愛者
##ノブ
ひたす
長屋
##SU
およぶ
グラハム
1803
商務
夕張
渡来
マウ
聴衆
カリキュラム
HM
スワン
総局
オルガ
やろう
ナイツ
穏健
黒字
##諸島
##ッツィ
秋元
学園祭
ブール
二塁
優遇
首謀
リーディング
民生
要人
207
Out
ツリー
IDOL
びょう
ミノ
杉並
超高
実業団
数か月
Champion
ファステスト
聖歌
花弁
ディストリ
ウィザード
ヴァルト
400万
トレーラー
一変
用心
硬い
芸術祭
##エンヌ
カブス
終止
取り込み
##フォーマー
アキラ
コロコロ
ひたすら
my
届ける
微小
譲ら
靖国
ブラザース
おおさか
艦載機
リガ
レトロ
石見
##戻さ
ゴールキーパー
宮田
是非
説く
風邪
ブルゴ
HC
it
朝夕
河岸
ランディ
金持ち
##aj
##ote
前世
博文
じゃん
Af
リセット
密輸
曲げ
ホイット
メカニック
上面
対艦
##ンデ
##ベックス
被災者
##ノラマ
##ソリ
##チェスター
##ipp
直立
開学
##なぎ
##ティション
巨体
##クー
##小屋
エト
リンダ
常用
スコープ
##ストリー
引き下げ
ヒンドゥー教
##ウォーキー
信夫
刀剣
客席
##ny
曳航
##エンター
量産型
久美子
客演
村落
魔獣
はじまり
満州国
エミー
変光
江南
##アカ
##でる
##ファル
ツイート
薬剤師
ラント
##mun
ヘレン
分担
心情
松阪
##ッディーン
受諾
探求
##ツジ
Girls
KB
##親王
##読み
入れ替わる
草案
プリメーラ
ベンガル
リリー
低床
当寺
個性的
嫌気
##しぎ
吸気
水軍
##ANCE
サイパン
分室
##ザンヌ
爆発的
メイト
##ワイン
ミルウォーキー
ピレ
蓄え
##li
Sport
号し
眺め
転戦
##ジメ
カロリー
セグンダ
ペダル
極楽
開示
浄土宗
Sol
マキノ
ミズーリ州
中心人物
デーモン
描画
綴っ
軍医
民族主義
ペリ
居合わせ
牛肉
ブラウ
千葉ロッテ
州間
観賞
連日
##ライス
ユニバース
FOX
Sound
##状況
ちゃんと
気づく
逸脱
ウィズ
積み重
ジョヴァンニ
ブルター
ローマ字
Kn
なぎ
レベ
酷評
##FT
15万
サンシャイン
480
最低限
境遇
登っ
##ネコ
ISS
セレモニー
NEO
宮内庁
風土記
応える
無実
プロポーズ
タップ
Jose
Miss
ジングル
デア
光る
外れる
待避
述懐
プラモデル
ばし
加納
浙江
清国
presents
文科
##消し
知事選挙
HR
WIN
両用
白紙
##ヴィング
##サイユ
福建
購買
アイド
マネージメント
腎臓
##管区
本格化
参事官
着る
瞬時
童子
##テュ
211
1831
いちご
ネーデル
人魚
新製
臆病
予知
##府市
レギュ
独奏
##ネグロ
##シャス
ティン
戦乱
脇役
離散
##cript
シェイ
警備員
デューク
ヴィラ
##VEN
ガチャ
説話
雌雄
##45
##保健
キレ
弾く
祝い
童謡
##ウキ
##得点
温暖化
天台宗
台枠
属州
港区
経典
##ツアー
ナゴ
名神
足跡
御家人
両足
音頭
ミニチュア
大晦
怒る
悪夢
見捨て
1818
クーペ
東武鉄道
ハク
法改正
芳香
アロン
千鳥
因み
尼崎
ちゃっ
クリップ
入植者
文人
管領
ウシ
常駐
大晦日
パティ
ラル
##ロギー
マグニ
FX
和夫
黒木
チューリッヒ
Paul
##野区
パブリ
##採用
売り場
マルセイユ
レンジ
##ザイク
ラット
##ジスト
ステイ
ナイル
上智
呉服
札所
引き受ける
エイト
着色
致命的
リフレ
川田
随一
Cal
名高い
##ena
アゲ
レギ
専ら
##浜駅
##ティマ
##ume
相続人
口論
榎本
##ディション
オースティン
リグ
脂肪酸
ブルターニュ
勧請
##だち
##イングランド
アダムズ
ピョ
拾わ
芦屋
不意
亜目
変種
既婚
生産者
イシュ
帝京
彩色
松坂
ライカ
ひどい
Free
心筋
防い
##PA
修学旅行
du
除名
二条
南区
淀川
若林
ホワイトハウス
差別化
見守る
欠損
金庫
審理
開墾
##タム
##会館
209
スチュワート
満塁
カーテン
神戸大学
ロペス
暗示
スピリッツ
1821
フェルディナント
プトレ
ミゲル
臨済
Studio
オマージュ
ブルゴーニュ
光沢
士族
欠ける
Ep
der
##ンタイム
中継ぎ
身の
##強く
##ぷい
Bas
VO
撃っ
溶媒
##bps
プライス
付け加え
PI
サガ
ペイント
叫ぶ
如何
阻ま
##iro
送り込ん
しょく
大帝
履修
船首
酢酸
エスパー
オカルト
いさ
レナ
内政
森山
姉妹都市
ロッキー
定例
王太子
総集
##ヤシ
##very
包ん
甲賀
##カタ
起こら
イデオロギー
磐田
木戸
竹下
ノルマンディー
普遍的
ウイスキー
超越
##ホフ
##ジカル
##ンステップ
入れ替わり
のぞみ
子女
漁獲
生死
筑前
高等裁判所
図書室
被疑者
ドリンク
結党
STAR
モニタ
##GBT
##ビッチ
運動会
馴染み
プファ
定格
数時間
画質
##ネーヴ
Rotten
ph
備わっ
履い
満期
Tomato
とし
改心
深める
ニューイングランド
引き離
すっかり
パッド
異形
##ソロ
ATS
やつ
甲冑
謹慎
高裁
##be
公論
神谷
##四国
##真宗
振り付け
浄土真宗
民進党
Sam
中距離
##トリス
##ヤク
##26
華やか
##半期
自治州
1801
エタ
ボロー
会戦
作ろう
同胞
火葬
##次元
上官
柳生
胎児
頭上
##コント
##決め
208
アルフォンソ
NNN
晋三
トリビュート
Light
戦没
星団
螺旋
かわし
デモン
糾弾
##マスター
いっしょ
##ボクサー
リニア
操車
肩書き
##ナガ
##ウォール
ソースコード
遊歩道
Let
マナー
次作
呼び寄せ
そん
どんどん
マハ
出塁
##ストレーション
使い分け
偽名
傲慢
動植物
同党
滅多
ビスマルク
六甲
服従
県営
##フジ
暗号化
リップ
模擬
創立者
暴力的
中納言
装っ
バシ
快挙
##ザイ
ことごと
正五位
欲し
河村
##ジスタ
せつ
ソプラノ
タツ
駆除
クララ
切り替
いとう
石造
##スペ
明治神宮
平均値
倒れる
注ぎ
##姉妹
オペレーション
じけん
ネバダ
モニュ
列強
滝川
無機
##科学部
呼び方
ミラージュ
ブリスト
農学
デザート
365
プログレ
ヒューズ
NRN
マッサージ
ことごとく
五島
便所
新橋
##フォール
まとまっ
かわいい
平ら
放課
##さえ
May
人為
鳥栖
##先端
正当化
ナショナ
ヘイズ
不服
造っ
Sky
##33
DeNA
芸術学
倣っ
名阪
##歩き
シャア
三女
##lin
同好会
三和
右肩
吉井
マーキュ
##立てる
すき
ジグ
暮れ
サーベル
MiG
ハープ
小豆
挙がっ
術師
通年
音楽的
アクロ
ユーリ
地上デジタル放送
##代理店
要約
課せ
関門
##テルン
SI
メラ
モータ
死闘
義兄
組織化
Rich
プライバ
カド
何事
矢部
日本銀行
グレッグ
さつ
クリック
デンバー
ラッパー
懸賞
本庁
アップロード
キャピタル
無人島
アントン
定額
##ツク
サンズ
立ち入り
セグメント
ヒゲ
ディン
ニーダー
##音楽大学
行進曲
ワースト
##シム
俳人
##oud
電話番号
コントローラー
アラブ人
パロ
大理
横手
泊地
ひとみ
まわり
オバ
スパー
新宮
深度
ウィー
コンペティション
Mart
テンプル
植木
コリンズ
ボナ
大岡
強風
無期限
##ベロ
ウォーレン
エレン
溜め
かかわる
機動力
シリコン
アスカ
案件
##料理
GEN
安達
診察
##ware
##じま
過激派
エッグ
京都駅
講じ
##コレ
ざい
意地
##ウオ
##PR
件数
神仏
##URE
序列
##チックス
##ランドル
共同研究
1838
悪霊
現生
菊花
##福岡市
ストー
南洋
煙草
弘化
病理
赤外線
##新町
##出せ
木更
清原
鋭く
願望
ターナー
ゼミ
産み
ことば
使用人
クラウス
成田空港
man
崩落
頑丈
##ローナ
巨人戦
効か
ジュネーヴ
展示会
Ke
Vis
ブリス
絡ん
##体字
事務官
形容詞
併記
呈する
全廃
館内
当たら
University
敬語
エアコン
自発的
ジョイント
郡上
ネクタイ
総集編
ペンタ
総当たり
NSC
##政府
特別市
人工的
コルト
枚方
##バトル
##かしい
ジロ
一同
嫁い
相模原
モンテネグロ
グラー
正気
在来線
和也
軽便
##住友
多数派
##irst
コープ
手首
新道
アンプ
ハードル
Tomatoes
疾病
紛れ
##ラッシュ
##ヒム
##oun
宮城県仙台
宮城県仙台市
##タキ
##台駅
ステファ
営業開始
押し付け
伽藍
我慢
挫折
緯度
##ベト
##気味
フィッツ
Hen
発布
##ret
##レーナ
ごとく
大量生産
スイング
しゅん
DDT
再演
生やし
聖徳
腐食
##役場
##シャトル
##選挙法
1810
公職選挙法
大成功
TB
##の毛
##ニアム
コミカライズ
Str
義務教育
未成年
ps
かご
完売
オペレーター
加害者
シンポ
ザク
下賜
怪盗
生える
レコーズ
切り札
理工学部
エレクトロニクス
プトレマイオス
放課後
マドンナ
時半
##ナリ
もとづ
法名
衝動
##ッダー
機動性
バンパー
Alex
アスタ
ナチュ
##ふそう
島嶼
接点
生理
賀茂
アストラ
網走
蜘蛛
髪の毛
東海道新幹線
うかが
バラン
和睦
変電
文武
本件
水木
同駅
Your
RADIO
決行
##シク
ジュール
東海岸
かえって
治める
金貨
##世田
ジャガイモ
##交通機関
公共交通機関
チャイナ
国司
庶子
桟橋
改革派
補欠選挙
線維
長嶋
##AE
##粒子
生まれ育
練習生
バドミントン
神名
##ヒドロ
##ぷり
CAS
張る
UNIX
山手線
教訓
羽毛
たいかい
交流戦
目論ん
たかし
マトリ
大文字
##press
##保安
海上保安
ストライカー
シュタット
海上保安庁
デスク
慶喜
有望
両名
太一
講道
##味料
サンリオ
カリフ
ロイス
激励
実用的
カウンティ
オレゴン州
脚色
信用組合
##飲料
##バスケットボール
スマッシュ
モニュメント
今村
企図
業務委託
飛躍的
he
三陸
父母
##白河
革新的
Du
義昭
##ロース
##掛かる
ソクラテス
呆れ
自軍
アーバン
居住地
ベネディ
配電
BLUE
特別支援学校
挙動
新鋭
代表曲
動的
茶道
エリオット
オオカミ
ござい
アセン
レックス
##部長
熱狂的
パープル
刑罰
発火
高見
プロボクサー
能力者
グレゴリオ
Rem
特科
風間
##確認
ハーブ
佐々
ヴァンパイア
コロンビア大学
ハロルド
京子
全幅
油田
三菱ふそう
Arc
インスリン
きく
吹替
家光
戦績
揖斐
##ーザ
##プレート
製鉄所
うさぎ
シュトラウス
打ち明け
アップグレード
ミッチェル
Ear
堪能
後頭
本陣
林道
芝生
##マリーンズ
##ティヴ
##インタ
ダイエット
IOC
紅茶
##ij
トラス
登校
遠方
風速
##ティクス
不合格
めん
##ノ島
##Pa
##事典
百科事典
吹く
##カツ
著作物
作用素
日蓮宗
一騎討ち
修飾
英訳
##飛ばし
プロダ
WS
ft
ムサ
信奉
寛容
森本
直近
プラグイン
JAS
エヴァン
元ネタ
女房
準ずる
網羅
頭痛
文化会館
自動化
こめ
自治会
レット
1828
セナ
モザイク
干拓
繁華
古文書
美作
##ウラ
レコーダー
コスモス
各務
断定
##フリート
映画界
501
すぐさま
セオ
三上
挑み
荒野
##ティーン
サンライズ
封建
工芸品
超高層
医科大学
常備
当人
節約
##イェ
名曲
外惑星
竹本
MH
RX
伴わ
吐く
携わり
水原
焼く
##革命
カイザー
MOVIE
Pop
ウリ
一日
##透明
丹羽
長兄
##部屋
1833
ポータル
##残さ
アトム
Thom
やむなく
フランドル
叱責
##あわせ
##スコート
全通
和彦
廊下
下段
備後
西区
##攻撃
開発中
MSX
リッジ
予報
法務省
##決定
ハイデル
エアバス
枢機卿
下回る
壱岐
注力
シャフト
マインド
KT
ハッシュ
林家
遂げる
千葉ロッテマリーンズ
Mem
WHO
##ちん
##禁止
ステファン
チア
マッケ
一掃
三ツ
効果音
カビ
映っ
皇位
##キャスト
##azine
コクピット
総武
ダイヤル
秀忠
per
うみ
パウル
##かも
ラビ
修得
見い
##アク
社会保障
シュウ
ドッキング
没頭
流布
行軍
高位
ローゼン
ヤンキー
コメディアン
オホ
屈折
帝位
脂質
ジョーク
MAG
バプ
器用
旅立つ
##ho
##理士
トレイル
コウモリ
アイデンティティ
ムン
リブ
構わ
限度
走行中
世田谷
まえ
病棟
相鉄
##着陸
万国博覧会
まな
下町
休場
##line
山陽本線
兼ね備え
ハレ
ミラン
創り
心中
欲求
田島
##ニェ
買い取り
アレクサンドロス
預言者
Sk
操っ
生田
裏付け
セクハラ
ベオグラード
Ber
大隅
社屋
##モル
##ws
フルネーム
Mat
飼料
アルタ
三井住友
SPORTS
柳田
##るま
##ars
##enc
ストーカー
1790
##マーン
コロムビア
パース
全豪
幻影
戻ら
新発
白黒
パラレル
フェリペ
##KS
就任後
迎え入れ
Lab
アングル
ボリス
受給
悪意
##ough
ルーシー
再録
無双
送迎
##かれ
ブリテン
操縦士
独学
##uss
##obe
ゲイリー
無口
賜っ
取り決め
GRE
VT
悩む
コサック
葛西
音質
イノベーション
マクシミリアン
ペロ
内臓
小国
新世界
##どき
ゲット
新約
##bur
とどまる
海防艦
ロザ
叢書
Hz
さとう
Office
燃やし
目立ち
障壁
##部市
1834
Pat
リスボン
回数券
日の
県境
サーチ
グラブ
海水浴場
専売
手作り
模範
野郎
##ゴロド
結婚後
エイベックス
別称
荒井
大宰
##ティコ
翻訳家
あわ
テトラ
ピストル
悲惨
新種
ミステリ
沖合
インタフェース
アリゾナ州
4億
埋蔵
緒方
掃討
楽しく
##息子
移り住ん
あう
せっ
ミント
温室
ステルス
tr
##イカ
ネーデルラント
クウェ
ボロ
多年
断続
溺愛
##unt
但馬
僅差
衣料
覇権
近畿日本
Boy
Na
ワース
共謀
宣誓
式内
クライン
福岡県福岡市
バングラ
クセ
トゲ
##テレス
##ポタ
##こもり
立ち寄っ
トランスフォーマー
##vex
図案
プファルツ
体裁
初旬
シネ
叙爵
手元
危機感
マーキュリー
セビ
副部長
太く
銀貨
##ADE
1793
シンクロ
安房
##テア
名古屋駅
不規則
南宋
涼子
降雪
活発化
オウ
空爆
絡む
農産物
ジュリアン
##ady
ナンバリング
Hy
しつ
山野
記入
##リド
##マニア
##ッグス
エクア
ドラムス
##berg
シンポジウム
天界
拝殿
持ち帰っ
西国
試料
救急車
シエラ
手榴
##DER
追い出さ
メディカル
Instit
位階
##27
1825
暴走族
ごみ
井伊
明瞭
遷都
コブ
##ベツ
Hol
##モード
思想家
公会堂
居留地
ケガ
コマン
藤枝
ハイチ
福音書
手榴弾
対日
専門職
みらい
モレ
##そば
白血病
KS
不気味
##サミ
守護神
ふたたび
マゼ
リラ
同館
要所
全高
##不足
Perf
Bir
##ライザー
ソープ
会期
電位
専用機
ベストテン
スパイダーマン
Bel
Di
府道
明朝
甲殻
答申
##キリ
スタック
下方
不便
慕う
陸戦
駆け付け
アインシュタイン
エアー
元亀
明白
起草
##フィルム
フラグ
戦勝
知り合う
FESTIVAL
ヘラク
ヤギ
叙事
復古
梶原
温帯
鶴田
##ブレター
個室
笑う
##沼市
ブライト
締めく
併結
市原
根室
##ビリティ
トモ
左目
##バレー
バーナード
別所
宮沢
精算
ニャン
くう
分光
壮大
敷い
熟成
花崗
日本刀
##ージング
##erv
韓国語
供さ
跳躍
##見市
##込もう
装甲車
##ソフトバンク
##の間
ドロー
空調
メンフィス
ぎん
マーカー
小字
新装
正平
##り合い
##敷き
Video
中庭
##ナカ
##にち
アスレチックス
陶芸
ローカルニュース
sc
両院
##商品
ビルディング
不通
多角
殉職
渡河
白馬
ニクソン
リヤ
引き出す
ノースカロライナ州
ノーマン
刃物
採点
枯れ
ようこ
##AYA
ホイッグ
分水
没する
303
デラウェア
年長
港町
知らせ
ダイビング
##ブリテン
コンパイル
トマ
旧領
配偶者
好投
インフレ
プーチン
城南
暴風
##ツカ
235
Big
バーンズ
福岡ソフトバンク
バルバ
演算子
福岡ソフトバンクホークス
生母
電子メール
ミッドナイト
推し進め
対人
憎しみ
房総
##スタジオ
看護婦
光源
別個
除隊
##円墳
##グラフィ
コンパイラ
原始的
su
##yr
##後円墳
アイゼン
前方後円墳
day
讃え
食料品
衰弱
公子
本宮
親指
##サート
アンドロイド
Bi
耐える
読め
##おい
1804
分岐点
のう
国技
##フード
##販売機
自動販売機
学内
酵母
解剖学
彼方
特捜
##おる
地下駅
広東省
Dig
代議員
快楽
杉田
海浜
##ャルト
##ural
元服
漢方
##ko
平均点
エッチ
パプ
ピーチ
フレンズ
啓発
条文
迫撃
##ノワ
##内容
開催日
フェンダー
シュミット
id
ペーター
二階
連作
チャップリン
カカ
長島
STV
##っぽん
分社化
上智大学
Del
多国
拘置
着く
菅野
オチ
俗称
##5千
##重量
自然数
プロパガンダ
派出所
兵隊
国文
##シェヴィ
東大寺
##ピード
Core
土方
操舵
##はだ
##era
##ima
金田一
タイラー
すすめ
本業
生時
##ks
ブラジ
西武鉄道
宮島
連戦
##流し
ジャコ
Little
念仏
目当て
覚書
##シュヴァ
シェーン
採決
最先端
等しく
kHz
おび
レイズ
修め
姉弟
福原
ナショナルリーグ
バートン
一節
栗田
もみ
ポツ
釜石
##セグ
ディヴィ
工学者
湖北
防犯
##浦町
##々しく
ドミニカ共和国
告訴
ネーミング
ピョートル
右目
扶桑
##語大学
##ストリーム
pp
擬人
栄一
##通貨
ジョッキー
自由度
盛り込ん
Team
おろか
慌て
行幸
資質
弁護人
蔵人
##der
##ロリ
##要素
プリンストン
増減
縄張り
製剤
##cess
##ヌイ
内紛
旧知
航法
##uel
##環境
##eng
##ada
観測所
通学区域
出せる
衝撃波
ペガ
リアス
空海
##八郎
しげる
日替わり
遠州
##カビ
身体的
審議官
プライバシー
小浜
長方形
電線
##APP
こま
債権者
具現
混ざ
真正
秋月
##WF
黎明期
アニー
命題
赤外
##ham
業種
構成要素
建てる
##tainment
エコー
##ミンスター
Fre
Top
放水
閉じる
##ネオ
プレッシャー
##ガスカル
さやか
タール
木津
bit
川原
敬愛
活字
##yle
HY
三鷹
##材料
ただちに
##ello
左遷
放電
取り調べ
ニューギニア
アーロン
ダイアナ
ハイデ
組み込み
きょうぎ
中等部
ねじ込み
富山市
機関紙
1792
パートナーシップ
747
ロキ
斬新
##見町
元治
##ハーン
##イーグルス
ブリストル
AX
久慈
突い
マダガスカル
ガッツ
機甲
汲む
##賃金
チュニジア
福知山
Ult
見物
関脇
くさ
参道
ステラ
ピル
脊髄
街中
言い伝え
##ヴォン
ヘリウム
品目
無期
献身
ジャイ
ヴァイオリニスト
インディアナ州
いで
北原
激闘
くわ
なで
セール
下さい
公約
大日
安楽
経口
輸送力
##FS
ワット
嘆願
敏感
朝刊
財宝
摘発
焼却
連接
シックス
同町
商法
気管
##太夫
##ッサム
PE
古参
疲弊
野中
くっ
まじ
包装
崇敬
年内
##調達
キングダム
中傷
キャッツ
スクリュー
1819
ドローン
AND
エメラ
相良
##uby
メリーランド州
ルイジアナ州
ロジャース
楽屋
構文
資金調達
ゆず
チルド
安部
異変
##ゾウ
青山学院大学
ツインズ
繁華街
クトゥ
減便
隠岐
##短調
金沢市
ロリ
喋り
孤児院
包丁
忠臣
競い
##ンドゥ
てれび
スルー
正史
直ぐ
##試合
NPC
伯領
優子
武漢
残せ
須賀
作品集
迎え撃
とどまら
ナマ
副大臣
土台
爆風
ポーター
呪術
恵那
既知
果樹
治療薬
Euro
乱暴
健二
四股
教職
砂浜
##コーダー
Grand
テムル
広まり
秋田市
見破
青空
##くじ
ラグナ
rad
モア
##選組
引きずり
600万
KING
##リーノ
##erson
解い
##レコ
##建設
1824
生贄
空洞
40万
1807
比定
取り入れる
取り巻く
BLACK
付随車
コネチカット州
いしゃ
##ISE
##チュエーション
内村
座り
##ディナ
ウイン
立像
素質
背部
##切手
パイプライン
海部
##ノウ
パラグアイ
組員
370
まっすぐ
ミナ
娘婿
##きり
##高等学校
PO
種々
##貿易
思い込み
サイバ
##ッフル
わら
##美術大学
1816
トカゲ
ユグ
優良
美智
プラトン
シェー
##ular
Bab
Gold
キープ
不時
削り
堀田
##リケ
##ガルド
Stud
テンプ
立山
軌跡
ナッシュビル
avex
混入
##公社
510
議定
##ates
格納庫
ベネディクト
LG
通行止め
縛り
豪快
##by
アイスク
専修学校
つとめる
Street
Michael
mph
なめ
シスター
配送
##トウ
215
##osa
暗殺者
退職後
年貢
有楽町
醸し
##ty
ハーバー
モンロー
オランダ人
聞き入れ
ウミ
一式
遺品
##HD
##BE
##状態
レイカーズ
ダルマ
村井
ステロイド
アンゴラ
江戸川
フルアルバム
筑摩
TIME
YU
サプリ
ネブ
丈夫
バングラデシュ
ちか
苦しい
開削
ラグビー部
Ca
UM
松戸
熱田
随行
##ross
トラスト
Engine
Gi
制止
##操作
##スタリング
##メキシコ
日本酒
ともども
スタイン
Wr
秘宝
縦貫
##カルタ
##ンダント
旅行者
キックボクシング
南アフリカ共和国
RAM
悪性
拳法
新世
本間
テッド
ルク
日置
自著
##35
併せ持つ
つね
宗像
西軍
課し
頭頂
##マッハ
##われる
##周波
演奏家
飼い主
国家公務員
スエ
ハーツ
下山
湿度
邪神
官房長官
動態
孫権
心得
##オート
ほし
ザウ
ノブ
千島
和尚
字体
真宗
租税
##28
##ゴリ
Wal
アホ
何回
先住
潮流
Corpor
AIR
htt
蒲田
蒸し
遅れる
##バイト
##ぐら
スネーク
ゲッター
巨額
自白
##ネラ
オーシャン
排出ガス
兼用
医薬
見合い
##リューム
和子
異色
方法論
Elect
度合い
論理的
適性
##ライド
セーヌ
コンスタンティノープル
xx
聖子
##ボトル
##エナ
加勢
激昂
##とも
Phil
不自然
そら
一様
シュテ
追尾
##ih
言い渡し
パラオ
クォーター
オークス
畿内
酸性
高瀬
フィオ
統治者
全米オープン
大学病院
フリッツ
見守っ
ピザ
潜り
呼ばわり
組合員
Vir
事案
答弁
##マニ
##総会
##agram
大型車
上回り
喫する
山王
暗く
止まら
生い
貯蓄
株主総会
洋上
目安
##首相
国民的
個体群
そごう
ラプ
菊地
##メカ
ルーレット
合理化
景品
歌集
燃える
埋め込ま
短期大学部
アミューズメント
群衆
情報局
破壊力
愛知県豊
すごく
密教
対向
大々
材木
##ipedia
1590
Dan
リターン
配さ
ライヒ
##モンテ
練習機
1829
自主的
三十三
京セラ
座長
野々
ローリー
勝ち馬
ヘレ
増進
わい
的中
##orld
スクープ
インドシナ
##イアール
ふつう
しめる
古田
新城
鍋島
##リックス
個人戦
関西大学
キュア
あさひ
VV
絶命
システムズ
##テクノ
スレ
念頭
暫く
本所
長所
##しゅう
##ンドラー
スピリット
防衛省
420
三菱重工業
ガーナ
津山
##バク
シオン
レスター
ファイアー
ISU
さかのぼる
ペイン
儒教
##ピス
##ッジョ
Sur
極力
詠ん
負ける
サービスエリア
グラスゴー
ミカエル
bl
企む
台座
降雨
ダイナマイト
MOD
##ぶれ
##我部
今夜
盟友
細か
フィルタ
##ヴァール
乗り込む
トリニティ
分署
武芸
破門
チョーク
ワトソン
総帥
##チク
引き金
##ーローズ
##intosh
ナゴヤ
ケーニ
ゾウ
刻ん
容貌
廃刊
町民
通説
##rich
来場者
チキン
リザー
実演
有意
老婆
迫撃砲
LR
土着
推さ
生け
紫外線
チャド
ジブラル
タフ
重役
ニューメキシコ
チャレンジャー
VII
cl
del
十郎
携え
景色
積む
藤堂
交通機関
東海テレビ
疑問視
カプコン
オリバー
##ECTION
吉祥寺
ad
都度
出入口
法師
矮星
##オパ
##サーズ
##外国語大学
皇太后
エクアドル
ポト
ルーフ
保養
空想
成功率
ロンバルディア
平戸
沈み
##バーツ
公道
履行
益田
豊田市
##48
月刊誌
八雲
街頭
ペプチド
白亜紀
心理的
正門
##フロ
##ハブ
ジャパ
JAM
将軍家
多様化
応援歌
メタン
昇降
身元
##コタ
##ぼれ
ビザ
家柄
プロバイ
シチュエーション
タオル
扮する
##ザメ
にっぽん
伸縮
手本
昇段
食肉
アイスクリーム
洗い
ダーウィン
インディアンス
ミーティング
不二雄
バチカン
ゼン
柏木
ローマ人
符号化
暗闇
面体
サイヤ
レベルアップ
メテ
メッキ
校庭
野原
鳴らし
##ミラ
チタン
バトン
入閣
厚木
後輪
バイエルン州
テニ
メト
局員
フィリーズ
ライブラリー
めちゃ
ゴット
武雄
##RY
突き止め
Park
太政官
歪み
猛烈
##越す
##gy
フォルクス
ニャ
重慶
防火
Fil
つぼ
マラー
##遊び
アルブレ
##体育大学
トク
軍服
##防止
スタント
見せかけ
アリストテレス
ハガキ
敢えて
桃子
植生
1813
オートレース
##ニャン
区内
シュト
放射能
一命
不平
曲面
##シーズ
##牟田
##リエール
グリム
命名権
受け継ぐ
##ディッシュ
振り返る
バビロニア
沢山
##サマ
スプレー
弁天
ベイカー
東野
##暮れ
ライム
Show
Oper
だれ
両津
税関
親和
バーガー
対称性
Ob
同棲
散見
##olf
秘密裏
励ん
癒し
罹患
長子
トレンド
pH
支柱
日没
シャム
見つかる
十四
コンチ
取り残さ
ハーグ
やる気
両替
江蘇
行ける
闘う
ディラン
出場枠
LIFE
GOLD
序文
戦犯
由緒
横浜駅
DP
放た
##大賞
1808
議事堂
うめ
由良
贈る
##工所
Che
デメ
素手
興し
##メタ
##代子
##ッパーズ
成り立っ
MTV
健闘
性行為
痩せ
高座
##ざす
##OWER
SUN
おれ
オシ
狂言
美学
Macintosh
##マガジン
Center
位下
平時
##ニッツ
##スタイン
女子大学
カープ
シダ
手の
清和
被り
防水
レイテ
先導
初登
スイーツ
浮かび
キール
大本営
オク
失策
##ゆう
学術的
ロッキード
お姉さん
変電所
ハント
守ろう
##送り
##官房
HK
ヘキサ
合気
殺傷
##使い
関東軍
つぎ
三つ
川辺
京都帝国大学
一人暮らし
##プロモーション
ラウンジ
##UG
##ンプシャー
1791
##ritic
San
技巧
##デヒド
入れ替わっ
ドジ
ルック
越冬
##シウス
##ガミ
##lad
##earch
オンタリオ州
ダグ
ワラ
宅配
宗谷
成就
見返り
頼る
イェール
九十九
すく
先天
布施
数理
純正
造詣
開講
ルイージ
総務部
口頭
権力者
パワフル
坂東
比重
##ブラー
マリアナ
737
ノズル
平穏
擬態
無条件
##モニカ
##ノート
##なべ
##ぞう
国民投票
農林水産省
キヤノン
かも
ガム
乏しく
営団
悪天候
格上げ
滅ぼす
神器
雨天
自由化
HOT
サキ
休館
本隊
裏切ら
エメ
CI
レム
増税
掛かっ
政変
明星
##観音
取り立て
アーカン
JRN
エピローグ
Arch
Av
対地
##66
##みらい
快速列車
メソポタ
レニングラード
元就
推論
##ダルカ
モーターショー
不信感
##シェヴィキ
ちば
セリ
取り下げ
テンション
Network
人為的
直江
##バレ
##ヴェイ
ラーン
奮戦
授かっ
諸外国
離着陸
##賀郡
アルス
内閣官房
##IDS
ぶち
住ま
漢文
カーネ
SIM
サンスク
年中
感度
略さ
社格
訪日
鉄人
##瑠璃
児島
連星
##con
ガイウス
##weet
瑞宝章
エメラルド
四谷
曲目
正宗
##AKA
SKE
中興
山車
放流
紛失
##シタン
##デザイナー
バニ
繋い
送り込ま
1776
山岡
所収
##aint
ギブソン
ホフマン
ロレン
久喜
文春
異様
被る
大々的
Count
MIT
ハプ
ムッソ
名取
血中
メソポタミア
RF
tra
カヤ
ガウ
ダライ
謳わ
麻呂
申し込み
ジブラルタル
WR
げき
急降
整合
東証
端部
須藤
##ジャーズ
##ミネーション
急降下
適時
##レック
ブルズ
原子核
アントワ
気付く
とち
ボールド
天照
弁論
矢作
##レアン
##思い
大阪駅
向かわ
Sa
寵愛
尾上
放題
真一
10th
地殻
御堂
手袋
白金
##テマラ
##養子
##ラスター
販売会社
ハリソン
##UMP
はね
ナンシー
曲がっ
##真面目
加速度
エキストラ
リベンジ
中区
酷い
トロリー
##ノルル
ジュエル
意思決定
っぽく
##ゴールデン
累積
##飛ばす
EXILE
カイル
ポータ
乗換
疑う
皇居
バーミンガム
キク
倍率
枢軸
溢れる
軽快
地下水
火口
インバータ
クラスメート
ダンテ
手がかり
あかり
ネロ
川西
日和
ひょ
むす
ニューズ
エイド
同乗
日成
良質
EB
レヴィ
新館
浄瑠璃
集客
制御車
ファミ通
市庁舎
散々
##リバーン
##たて
##神社
持ち込む
マルクス主義
アパレル
ホノルル
応じる
気仙
炭化
##アングル
足元
鉄拳
写っ
噴水
預かり
##河原
核融
コンビネーション
クイック
ESP
アクシデント
核融合
アノ
代え
在外
換気
鋼板
南山
幸子
貸し出し
JBC
いの
マルス
利か
前漢
口腔
奔放
榊原
##ワナ
スタミナ
ジャパンカップ
フュージョン
ボローニャ
ドーナ
食性
パーカ
ハンナ
健康保険
ユーク
偽り
域内
手話
等価
電球
パトリ
京畿
大口
護送
フェスタ
JAL
大根
##ボム
##演奏
##スタート
事務次官
メディアミックス
イク
担ぎ
江原
ニトロ
討た
ハイライト
1783
繋ぎ
##oon
##本松
マイペース
1805
降りる
原動力
まみ
区長
##月日
##構え
臨済宗
QU
あち
丸の内
低音
排他
疑似
公立高等学校
##サイタル
久し
内科
国人
岡崎市
悟っ
ジュピ
##ensis
Mil
ボア
エミール
擬人化
ポーツ
入出
##bert
##mann
ヒッチ
ロッカー
取調
同位体
吹雪
清盛
知見
驚愕
##YO
##エネルギー
##矢理
ショパン
無理矢理
國學
水利
1822
##ista
操車場
ハイデルベルク
アレイ
音符
スーザン
クリム
編曲家
スムーズ
図面
財界
ジェイク
まとっ
ほんの
ワルツ
全裸
劇作家
可汗
粘着
高低
Stand
払い下げ
警部補
und
ぱん
上川
場内
沢村
パラシュート
SOL
ゆい
乗艦
北大
真夏
絵図
##ange
ハロン
inc
1802
せかい
真意
軽自動車
クロノ
堆積物
列し
怪奇
独創
籠城
##宣言
徳島市
遠隔操作
サンスクリット
葉山
豊前
レイプ
依存症
ブレイド
##まつり
RED
盗難
精子
緊急事態宣言
Tu
ヘアー
磁石
##ーカ
##ールー
ゲームズ
切り離し
一元
##ドリー
##WS
オセアニア
ムック
応力
移譲
##ゲルス
##合わせる
ダビ
陶磁
##エージェント
comp
農薬
鉄製
飽き
オリオン
フィードバック
フセ
リキ
三成
305
専攻科
クウェート
従弟
##ga
日本中央
展示室
マリナーズ
1度
サハラ
仕切り
被験者
##ティーナ
エクストラ
公主
風潮
##連盟
販売元
かから
777
投げつけ
ポツダム
ルフィ
傾い
刀身
結束
陰性
馬術
##リノ
##った
持ち味
モノマネ
認知症
Mot
気流
発声
##ガング
##ister
スクラップ
リヒャルト
あふれる
qu
旅立っ
##ッディ
##改革
ストレージ
かる
速球
##ノ内
##重工
兄貴
利家
憲政
##rum
##しり
相応しい
なぞらえ
DFA
シティー
大隈
時系
直感
防備
キリシタン
時系列
ひみつ
バンダ
金城
リアリティ
エグゼクティブ
加水
微細
残忍
討つ
エレキ
レッドブル
必然的
レグ
捕捉
スタッド
あたかも
繰り出し
国技館
##だす
720
たまご
ACT
グアテマラ
リミテッド
SQ
ルキウス
地底
宮原
計器
##ナモ
##加茂
くるみ
バーゼル
マンダ
甲状
頭骨
##飛ばさ
##楽天
情報誌
##交通局
たこ
ちゅ
プッシュ
成瀬
捨てる
##ぬき
たいてい
リバース
Happ
山上
化学工業
End
VOL
トリス
万里
敵意
退避
プラネット
精神科医
一端
敷き
町議会
##go
##75
##ery
##ウンズ
スライム
##急行電鉄
CAT
乗せる
事典
小早
##市大
##44
サンティア
なんば
テレサ
無人化
折りた
ロナルド
十七
機転
##タンク
トランジスタ
ネクスト
##レギュラー
ベリ
八千代
山々
正四
流量
隣人
フェリックス
BASIC
三枝
台所
##タマ
##集め
##抜ける
シュガー
##ダルカナル
##まず
ファシズム
##une
1826
マイナーリーグ
高架駅
サロ
三輪
人身
粘り
発射管
Charles
終着駅
断続的
初登板
びわ
二塁打
失調
熱烈
良心
##コーナー
レクリエーション
あちこち
ガダルカナル
スギ
若宮
阿賀
霧島
ドラキュラ
中級
更改
政治活動
付き合う
1795
小麦粉
Intel
田川
配色
##マウント
##品質
東西線
Server
スクリプト
ウス
ロバーツ
行程
プロバスケットボール
同日付
無理やり
國學院
不参
内山
界隈
##そこ
##ストーリー
バンダイナム
PASMO
でる
エラ
危う
日出
森下
比叡
疑念
花子
馳せ
##セナル
イーグルス
切っ掛け
シグマ
家計
アスキー
シューマッハ
カステ
技術研究所
9000
DI
お茶
版権
##岡駅
ジャッジ
インペ
イギリス領
つり
社民党
叙事詩
御影
薦め
##ball
##非営利
シリアス
チャイコフスキー
##非営利活動
名護
和風
##ces
##ハツ
##外れ
##プロデュー
1582
大地震
ボイコット
Great
ホーリー
別館
名家
東区
森永
軍縮
##els
##ublic
Cy
健太郎
試運転
##のすけ
##くれ
290
Society
Thomas
Year
ほり
副長
副題
夕食
本稿
カシオ
変更点
バットマン
Tim
心霊
ホームレス
チューン
取り外し
sy
後身
春樹
退所
降臨
博多駅
Corporation
再評価
冠する
推察
税制
##ゾール
アーネスト
普通車
グライダー
いただき
シオ
スペースシャトル
アッバース
as
hp
あべ
ミール
##寄る
フューチャー
前記
##ning
東北楽天
恐怖症
##ゴールデンイーグルス
東北楽天ゴールデンイーグルス
NY
似る
新選組
至上
領内
##トリング
##ZA
市長選
##ジョー
手伝う
Cry
アンジ
無制限
Fest
乗務
小僧
着実
ジェシー
ロングシート
急い
慶尚
擲弾
法規
絞め
ハードコア
ドキ
エキシ
渡部
滝沢
臣下
1794
ロックンロール
手書き
212
クロスカ
Ba
はり
二子
発せ
##ヴァンス
付し
土星
植樹
通信販売
##ACH
療養所
居士
鉄骨
##財産
##運動
1827
MID
シクロ
新年
日大
遵守
ひろみ
奉行所
##ゴメリー
京橋
ディアス
ニューカ
ホームタウン
ピエロ
サック
天龍
矢先
羽柴
##装置
##OMA
トレーディング
Metac
スクランブル
サンティアゴ
Cre
ソマリ
幸い
##津川
##出せる
受動
##ゴット
##内市
廃寺
罵倒
酒類
##ヴァルト
WRC
券売機
ランカスター
リビング
塩田
曲折
濃縮
##ケーキ
ローブ
ファイターズ
ガソリンエンジン
われわれ
ハルト
小節
朝食
ブルボン
忠誠心
個数
前々
正方形
##コメ
伸び悩
ムッソリーニ
値上げ
光度
村民
熱意
直進
##いす
##コスト
フレア
ソーラー
##中央駅
##コンドリア
Kiss
ゾル
後編
横領
邦楽
部材
頑固
25万
##ander
効率化
ナチュラル
ニキ
##まとめ
ヘッドライト
先進的
同州
巡視
美穂
長久
黒星
##九郎
事業費
スペル
##awa
失効
岩本
##中毒
ゲームセンター
Children
Championship
伝導
強靭
爆薬
##財団法人
知的財産
Div
天武
患い
##ORN
ベス
体温
大町
搬入
減衰
美咲
部類
##88
クラシ
センサ
ロジ
同業
津島
免許状
創世
放牧
ハーレム
150万
回航
小谷
末っ子
真夜
##破綻
持ち前
特別区
経営破綻
うつ病
阿弥陀如来
ミイラ
比し
球状
福澤
露天
##シード
##キシン
バンダイナムコ
爆雷
##br
##レタリア
##之江
アルブレヒト
法皇
行ない
##シラ
組み合わさ
ルイーズ
コイ
マッコ
身延
##リサーチ
修道会
マジカル
根拠地
ミトコンドリア
MEN
やめる
大雪
月額
潜航
##会員
基本計画
##ハイマー
1823
レギュレーション
ザルツブルク
ラミ
子息
格下げ
水陸
浄水
観世
東京都世田
大海
大全
裕子
見直さ
##ネア
焼か
迫り
##フェスト
アドリア
1817
見抜い
花崗岩
Nat
旧型
梁山
特派
##va
##生放送
##恵子
##日本ハム
北海道日本ハム
ニコニコ生放送
Zepp
北海道日本ハムファイターズ
立ち直
断る
##コラ
1809
エドワーズ
コーポレート
mac
つめ
ゼー
文様
水沢
##ci
##ヒェン
オリエンタル
抵当
直交
競泳
生まれ変
##ITE
Da
異教
絵巻
##ARE
小早川
Home
たき
##ソナ
ウィリー
##ORA
予告編
城塞
春風
産まれ
兵科
心不全
最良
砂丘
##こま
##ori
ストラス
人間性
受信機
凱旋門
松任
PF
キノ
ダイス
マロ
原文
##hr
Metacritic
##かみ
コンシュー
影響下
ウェポン
伊勢崎
クビライ
ギフト
五男
別れる
大豆
美術家
OFF
旅順
烏丸
菌類
音楽大学
1811
見送っ
Im
かおり
ゴア
ヒマラ
原生
追い込む
類似性
##プラザ
コロラド州
アイドリング
射影
座礁
秀で
続々
衣類
黒崎
オートマ
っこ
つかさ
動乱
弓道
本心
おさめ
丸亀
抜粋
配管
##丈夫
バスケット
スクー
サルデ
リボ
下がり
店名
成体
特任
移入
##関市
トランジット
ドゥー
秘書官
住まい
##写真
ライツ
二階堂
かり
尋ねる
新木場
棋戦
毒殺
退屈
##んじる
1780
取り除く
ネプ
再任
別居
北宋
##ユキ
ダンカン
White
パーキングエリア
HBC
ソナー
宿敵
昼食
##二つ
引き揚げ
公務
所沢
ティーン
Mel
##29
プレゼ
##ッコロ
見下し
ゴリラ
且つ
損壊
獣人
綱領
鮮明
##ズィ
##そか
当たり前
SUMM
あかね
冬期
長政
高井
##実験
たちまち
##ste
##ワーゲン
パルチ
不参加
##代表
ジャスコ
バスセンター
広島大学
近畿日本鉄道
キョウ
トッ
下敷き
出国
##ニョン
取り込む
##チェス
##ウィウス
トレント
江口
球形
病状
角田
##cal
ドロシー
Roy
綾瀬
東京都江
##ラクティブ
ボルドー
共催
##ule
中央本線
レーガン
特定非営利活動
##新聞社
あおい
##責任者
護国
オスロ
感謝祭
Ben
JUN
みかん
喜ぶ
板倉
枯渇
物議
生業
病没
事業化
##ids
吉宗
製菓
##実施
中央線
祖父母
Land
了解
土塁
後遺
##ope
死刑囚
アット
デイズ
一心
下回っ
国債
属さ
プロトン
結びつけ
赤塚
##gar
プロモーター
マルチメディア
フッ化
わし
##ランジェ
財政難
ART
##落とす
950
Pan
イネ
バスト
人情
文官
気性
スタンス
結構
贈り物
ウィルス
選挙戦
ハードディスク
ヴュ
中居
山県
歌川
行き詰
440
クライスラー
no
ヒース
PRIDE
アーカンソー
ピリ
人見
##宇宙
契約者
Bus
伝わり
取り仕
ブルーム
Season
セシル
千種
配役
##uct
##マック
こうじ
入場者
トミ
公理
氷室
##シド
##こむ
##映画
君主制
ロット
代議
溝口
番頭
##グン
##ペクト
打ち合わせ
ジェネラル
ノヴ
法科
潰し
##ステス
構造的
リーダーシップ
メキシコシティ
にち
工費
片腕
県議
私設
分遣
王都
県会議員
##ole
##のく
サラダ
オホーツク
唐津
園田
感性
教導
退き
鳴り
##ワンダ
しのぶ
Party
サルデーニャ
レンダ
伸長
##シシ
##リョ
##指揮
##アルプス
バラク
くさい
主幹
半蔵
未実施
##YM
イエメン
BOYS
マフラー
Jour
きよ
ガレージ
均等
白地
鞍上
待ち伏せ
アケ
東都
一般財団法人
日本郵便
インディアナポリス
##歩く
スタンリー
リフ
教わっ
ジェフリー
東京都世田谷区
TG
オクタ
リサイタル
一律
思春
##ローム
##バニ
##ぱり
Unic
エミリー
##テーヌ
一刀
一挙
座る
自重
##ビキ
ターリバーン
ブレンド
キツネ
##びん
275
反戦
扇動
手札
揃い
##うた
##バリュ
キャロ
1796
廉価版
単勝
許諾
題する
呼び出す
エーテル
グラフィックス
たし
不備
214
##ウィッチ
George
ロッジ
加重
長井
μm
文体
##勝手
Ant
セレブ
ナガ
ノール
東上
東晋
アルフ
コンベン
アイザック
法律上
石灰岩
土手
実情
川中
湧水
湯浅
迷彩
タタール
ノベ
ホビー
各方面
手記
有理
会社員
列伝
格段
駅長
213
具現化
ハス
唐代
太っ
敵視
笑わ
##ude
##ミアン
##外科
ヤス
入籍
即日
奉天
敬遠
##トール
##あっ
##祖父
酔い
##口市
1775
成城
棋院
繰り下げ
美術史
見つめ
血清
##arm
ハーバート
LV
国史
水量
##INK
守護者
国有鉄道
セバスチャン
光緒
Media
勝山
台中
正一
##ディスト
インディー
##ゲームス
##ティンゲン
##九州市
おいしい
ベイスターズ
Luc
リバイバル
努める
##INT
練習場
マインツ
立たさ
慢性的
もろとも
中曽根
訳語
##カース
首都高速
呼べる
嘆き
奏法
漂着
細野
ダイバー
立ちはだ
生命保険
エスペ
女子プロレス
Book
さっ
プリー
傾き
文理
明かす
薄れ
##ジマ
ブルジョ
神奈川県川
NCAA
県外
##割れ
##ures
阪神戦
ロワ
##form
日本レコード
オリオ
山陽新幹線
原住民
##ヒコ
##スタル
ローゼ
グレートブリテン
神奈川県川崎市
カーク
峡谷
文治
題さ
##ルスキー
わがまま
ヘルム
リンド
二部
溺れ
購読
##oom
STUD
執行部
先立つ
婿養子
時報
統廃
芽生
##ring
##ボリューション
##バニア
日本レコード大賞
統廃合
右京
##コロン
資産家
リョウ
母語
転封
302
御殿場
##ハリ
##くろ
##入っ
ラーマ
囲い
橋脚
真偽
下水道
ファウスト
歯科医
##iness
書き上げ
Joseph
方角
軍管区
都市間
ユーティ
消費量
デーゲーム
GNU
少子
##雇用
##ターンズ
##シャフト
ちゃう
##競馬会
日本中央競馬会
艦内
見聞
##テト
##ASS
銘打っ
つぐ
子分
東村
アイリッシュ
##プロセッサ
見なす
Jean
丸く
決別
牡丹
違憲
スペシャ
ジェレ
##UFJ
Entertainment
微笑
斬首
案じ
絶頂
タイムス
わざわざ
選べる
##uch
##ゾフ
従業員数
リザーブ
求婚
##65
##隠し
仲間達
おもしろ
全駅
副知事
アウディ
イブニング
決裂
223
ジェイズ
契約金
並べる
内親王
西小
##当てる
##びり
キャンプ場
ミリメートル
水雷艇
両岸
後発
抗生
マグナム
柔らかく
空力
##積み
会議室
呼びかける
長野市
哲学的
クロスカントリー
Band
ロフト
欠乏
組立
後頭部
ヒマラヤ
##ステッド
ショートカット
OC
にっ
退化
##じゅ
##ぼん
レイチェル
##公園駅
好感
第1
足し
はさん
台南
移封
##迎え
振るう
細長く
Mal
クルド
淡い
ショッピングモール
Bra
CAP
Lou
ベール
兵団
沙織
瓜二つ
##専門
進行中
シボ
各自
山門
突き出し
振るっ
レキシ
沖田
黒部
##ogr
浮かべ
陸海軍
Nav
Wil
心境
神山
総計
黒沢
Real
少数派
OUT
和菓子
大林
祝祭
起伏
高円
##和歌
軍令部
初土
インストラクター
##ANA
なんか
居住者
初土俵
昇級
##センサス
コミュニティー
BEAT
ホリプロ
さる
ノエル
ビラ
九郎
分枝
浮い
転機
郡名
##まん
##台場
##集合
開発部
お兄
断ち
##ストーン
アーセナル
どういう
BT
ザイ
ヨコ
号室
殉教
見当
アルトゥ
スズメ
思春期
あんな
ツン
先鋒
年数
陪審
麻原
争奪戦
超音波
トッド
加筆
受精
急襲
未婚
瑠璃
クレタ
アンドレア
ファイバー
JB
cur
ビオ
ペレス
妖魔
等々
6th
マウンド
ラズ
高校卒業
クレーム
410
Games
廃れ
美和
電通
シュレー
打ち込み
##チュアート
ミネソタ州
える
凌駕
尖っ
海里
谷村
##はん
520
スカイライン
ユル
渋沢
##トフ
コンティ
入り込ん
押し出し
1799
チューリップ
mod
石材
総指揮
プレイステーション
とんねる
ホプ
副都心
絶た
##里町
サーブ
ジュネ
ボンネット
ネギ
克也
別物
味付け
平気
曽根
肩書
##ジカ
りんご
明日香
マーズ
大声
パーソン
##ental
やれ
感受
根元
桜田
##ガリ
##タラ
##はし
ヴィクトル
うまい
##gram
途上国
史記
子弟
白髪
##ホーフ
東北新幹線
マックスバリュ
全仏オープン
カーネギー
後遺症
##専門学校
カリー
パーマ
丸み
十和田
右舷
バビロン
収拾
氷川
西岡
国際線
ヴィーナス
アフロ
凄まじい
SBS
ぐち
アバン
上尾
神代
##ザム
##らせる
##払う
ウェザー
スチュアート
悪党
自民
開祖
##サノ
中書
##セプ
モンキー
下地
強まっ
須磨
##心地
##信越
##ぶき
##ざん
1798
マート
是正
罰則
ジェニ
午前中
飲み物
ゴリ
交わす
完投
屈辱
工区
張ら
戦局
替わり
靭帯
Batt
楠木
湾曲
電脳
##江町
##agon
##社会主義
ヴィンセント
ねえ
人脈
掘っ
##火器
リナ
伺える
家紋
砲架
観衆
##トップ
##削減
反共
叙勲
庇っ
犬山
開催国
工業地帯
イングリッシュ
クリスティアン
因幡
宝島
レイモンド
##ブレーキ
新婚
話せる
##がかり
##GHT
##孫子
スターダスト
Instagram
議定書
BA
LGBT
えび
シアン
壬生
斬ら
追走
乗り継ぎ
エリカ
北島
時差
無観
コンバート
後日談
東京芸術大学
サンテレビ
##ouch
プレイス
ファイナリスト
特定非営利活動法人
夏期
真人
シュワ
レスキュー
附属中学
レフト
ワカ
玄武
石神
##しこ
一部分
ラインハルト
渋谷区
貼り付け
マグネシウム
ZIP
ケニー
硫化
高所
##HER
エタノール
久しぶり
クッキー
右上
核実験
橋上駅
洞察
軍備
##プラン
カーリング
##ISA
999
セネガル
980
ANA
ドナ
ホッケー
ヴェルサイユ
Ext
カセットテープ
うかがえる
頑張っ
工業化
リクルート
抑止
金銀
音域
##北町
##まだ
コールサイン
ハロウィン
##flix
MW
宿禰
扱える
歪ん
##ンゲン
盛り上がり
大宝
職種
##ッシャ
スルターン
電磁波
##アニメーション
カヌー
幼生
恩赦
疑っ
学校長
入学式
アレクセイ
ヴァイマル
浮世絵
UHF
ネガティブ
Summer
マハー
目線
##ベルグ
ベルガ
切り離さ
とんねるず
無観客
つづけ
仙石
忠義
立て直し
##EEE
HTML
XML
グリーンランド
キャス
インダ
演劇部
レーシングドライバー
MIX
レナード
左近
愛読
絞っ
遊具
##セージ
##ヴォル
GHz
中宮
回生
根源
付き添
広島県広島市
フレームワーク
オリオールズ
斜字
##ison
由利
飛地
##電子
ナカ
キャビン
はと
ナックル
パピ
入道
十人
女将
就業
拾い
##ハール
海老名
にい
ヤコブ
乳母
女学院
智子
秘匿
しんのすけ
ひだ
村名
測る
門弟
##SS
##46
##続け
取り消さ
KN
なご
侍女
専制
支隊
##学会
##葛飾
つない
中西部
あふれ
##協議会
##休暇
ジェノヴァ
宇和島
病変
社外
##設定
tv
同席
小人
弾倉
腹心
闘病
高熱
マグニチュード
NIGHT
ぼん
パノラマ
半期
松崎
##風呂
Netflix
PDF
ぷよ
八尾
長浜
##ぷよ
ファスト
##ani
共演者
創価学会
ハングル
大乗
##LA
##べく
ユニコーン
プリンター
TEAM
ペガサス
ぷよぷよ
DLC
ボリューム
書面
頭蓋骨
営み
横穴
照らし
##ex
##寺町
なるべく
255
ビザンツ
ルーン
前髪
娼婦
挟む
##gg
##uter
##ハンド
##くし
##新星
##ift
ドミニク
ノヴゴロド
PTA
役名
新大阪
追随
野沢
##ヒロ
##びと
221
ヒラ
承知
洋服
花見
超新星
地域社会
かしら
冷蔵庫
笑福
習志
露見
##DAY
##安全
ティラノ
##ツェル
クルーザー
アンモニア
笑福亭
アジャ
三洋
孔子
ab
上山
作れる
咲か
大蛇
恵子
塗り替え
後援会
Tur
スモール
レック
叶え
薬用
豊岡
銃殺
##飼い
シャク
不活
与野
学研
怒鳴
霊園
シャシー
ホームドア
スノーボード
フォルクスワーゲン
シム
厚み
塗料
##バト
##レスコ
なじみ
塗っ
慎太郎
考証
##ミラー
事業団
医学的
福山市
簡潔
長田
##ender
政務官
こっそり
800万
レター
湿原
デール
モダ
岩槻
消毒
謁見
##だか
優等生
KBC
##芝居
ギン
パウンド
不器
井口
料亭
栗東
留まら
##net
ライガー
フェーズ
控えめ
ポーツマス
道内
SEED
大空
慣性
斯波
##千穂
##建て
ディケ
惨殺
招致
撤収
##レイン
##37
プログレッシブ
大丈夫
柏原
艦砲
Album
Tre
こじ
芸者
##セイド
競技者
八丈
口実
説き
##放送協会
替え歌
手先
アイオワ州
甲殻類
ひゃく
官能
##ヶ島
STS
グリーン車
Bell
調味料
##谷町
ギリギリ
世田谷区
オリエント
West
京城
佳作
危害
集電
みえ
初対
前川
在校
抑留
混じっ
済ん
県域
過大
高揚
##シブ
##グサ
231
1797
アサルト
初対面
排斥
馬券
##変異
12万
インフィ
医療機器
突然変異
不老
済州
発送
キャメロン
機関誌
##ムナジウム
がかり
ザック
ロベール
公文書
##こい
プロレタリア
引き上げる
精神病
##ova
スラッシュ
民俗学
fl
web
##がね
##ディック
オーソ
新世紀
族長
##コーポ
TN
からくり
実験室
##aki
債務者
道徳的
Unicode
JFA
三日
働か
復刊
敵軍
正三
##lish
マイヤー
指揮権
001
ロア
入局
於け
脳内
##焼け
東洋大学
インテリジェ
タミル
中山道
ハプニング
安東
風車
##ッセルドルフ
TSUT
アビリティ
カンザスシティ
##ッフェ
##VC
ファシスト
読み書き
スマトラ
ドルフ
弾性
蒙古
込み
Master
やき
後白河
耕地
MBC
パター
レノ
出奔
新旧
差別的
ちり
地検
宿し
富豪
徴用
断崖
装束
騎兵隊
サントス
富裕層
まどか
1781
ブランコ
North
Limited
パルチザン
ソウ
一蹴
切れる
禁忌
空冷
##BR
支配的
ジャスティン
Rac
ジブリ
接待
水辺
相生
秀雄
血圧
頼ら
##ta
##ブロー
ハーモニー
プリズム
吾郎
彫像
忌避
竹島
##ましく
ローランド
発見者
430
サカ
帯同
##ァー
##膜炎
##irc
シーケ
ゆうき
宮司
歳月
養蚕
##TRA
タブー
きよし
もじっ
城代
##マップ
##処分
ウィッチ
SPE
官人
216
地方選挙
##レンブルク
ひかる
総勢
鳴る
##ワークス
##ape
##クロウ
コンチネンタル
ダーツ
ラザ
指南
曲調
狭山
縛ら
食器
アルペン
##ather
MK
中嶋
変調
大元
岩見
慶安
BN
##明書
トランク
Def
前哨
後手
##ョク
##ーロス
福島市
ベイビー
日日
日帰り
阿佐
##床面積
##錯誤
関西学院大学
フィアット
なでしこ
パーム
分館
接頭
船尾
##シタ
##一致
バーバラ
背負い
柔軟性
ニューカッスル
Way
ああ
りく
リカルド
在京
日頃
##ダブル
222
設立者
後見人
公称
吐い
##たえ
ホーエン
上皮
新京
曲がり
替わっ
次点
無傷
箕面
駒澤
感情的
エクセ
かげ
ルミ
帰順
波及
青函
##ロト
##無し
##爆弾
ゴールデ
レオポルト
伊吹
デュッセルドルフ
FM放送
Hist
即死
潤滑
##クチャ
##御門
##ンプラ
行き先
原子爆弾
新宿区
アグリ
music
リッター
開城
駆り
##ダホ
##ビーチ
TSUTAYA
うし
作れ
作製
悪用
##ンチョ
##プロジェクト
ミッドウェー
ポンペイ
中尾
式部
汲み
第1子
辰巳
鑑み
引き続
アンドレイ
ハズ
飢餓
カーディ
特産品
RU
サティ
三宮
則っ
総じて
能楽
藩校
跳び
##うつ
##atic
デュラン
デイヴ
リベル
リボル
三村
##gin
##ミカル
ノーベル賞
ETC
ひで
随伴
電装
##バタ
##代わり
##足立
##遅れ
確かめ
グリン
投開
破局
脱却
##塗り
##スラフ
積み重ね
投開票
浩一
突か
統計学
フリップ
お台場
イト
フリース
応仁
羽織
葛城
##ブズ
##津子
##狩り
Jun
おっとり
##社会主義共和国
ウーマン
屏風
後妻
##モンスター
##フォート
コネクション
Road
大喜利
イモ
シヴァ
リオン
大勝
寺内
小姓
私立大学
##gan
アナトリア
出頭
宗主
尖閣
砲術
辞める
ライジング
VOC
おろし
オニ
モブ
就労
昼夜
衣笠
途端
フロイド
見舞い
一杯
惹き
抗戦
缶詰
遅刻
##ula
ハイジャック
スーパーマン
四川省
刻み
属名
桜島
飯島
フロート
総務課
納税者
たがっ
テッサ
##36
グループ内
ショッカー
シェリー
センチュ
上海市
救世主
刺殺
恋仲
無印
立証
##プシー
2030
ローザ
##ICS
インタラクティブ
つばさ
山荘
幼く
皆殺し
盲目
華北
##フン
特派員
察し
撮る
処さ
副首相
区切り
無色
解離
いちろう
エコノミ
木更津
旧友
期日
##De
フレディ
Express
タジ
団子
顧み
##85
ディエゴ
クロロ
ローラン
打開
貞享
高齢化
Research
HERO
カメル
方形
##ily
カルデラ
ドライバーズ
Leg
鴨川
##解け
設計図
アブドゥル
ギニア
外傷
法曹
情報源
年度末
がんば
クルト
テア
貞治
##間見
ヴィオラ
割り振
コンスタ
ZO
めざま
ブナ
加治
小鳥
##nal
##劇場
##ンバーランド
##idge
Webサイト
抽象的
ウソ
ヘンド
ユタ
直す
ジャージ
Version
わき
サバン
ビニール
リピ
硝酸
移駐
表皮
きっと
連れ去ら
キーパー
共和制
タッチダウン
わく
ホラ
定評
定量
弦楽器
柳川
##tube
オーランド
いちばん
##フレーム
阪和
##ゆり
##ニエル
##ハナ
マルグ
ブランク
インスピレーション
ピカチュウ
かめ
ハンバー
レンタ
ロク
沿う
軽視
##ッレ
246
ご飯
予期
実感
形作
故事
##会計
ジョゼ
指導員
Arm
シューマン
##経済大学
Gra
Ray
筆名
車道
立て続け
折り畳
あきらめ
ペスト
勧める
窺える
##ぶる
##経営
放送作家
体育会
Gar
カザン
茂雄
##ヴナ
##ンタイ
ルージュ
社会保険
オルタナ
奴隷制
オリンピア
IEEE
こな
テコ
一意
先着
原材料
未使用
##ミンゴ
コミックマーケット
願い出
Over
トスカー
リポ
刺青
押収
週替わり
##がたり
##パーズ
##BF
##療法
ジャカルタ
ウェストミンスター
走塁
##婦人
施行規則
職業訓練
銀河系
Py
ロム
球面
立会
蘇我
遺書
##里子
##elf
大いなる
ゴキ
失明
カナリア
医師会
所得税
##タナベ
Service
大館
発芽
見込ん
降着
コーカ
##ury
ファミリーマート
元町
全校
##SE
非対応
施設内
機能的
ヴァージン
完成度
##PGA
バント
建ち
新馬
本因
裁縫
##パワー
空気圧
大分市
近づき
スカーレット
ギムナジウム
主眼
東宮
民話
総重量
##限り
##資格
##連合会
Dance
脱し
##ドッグ
固有種
ノーツ
##erm
TOW
スロープ
カイト
問答
抗日
車名
##ちょ
都心部
亜美
休息
偽物
太極
炭水
オンラインゲーム
終止符
Just
想起
臨界
##ワラ
##シアード
810
サムスン
オードリー
SKY
お礼
ボツ
同い
完治
小夜
細身
閃光
スカラ
トライアングル
1615
##リュウ
ドーナツ
厄介
年表
電解
ものがたり
トライアウト
General
ナイス
帆船
悪戯
改元
来店
防ぎ
難色
##omo
ソロデビュー
Magazine
Bal
処遇
学費
##動脈
教習所
廃絶
経つ
マシンガン
点滅
荒らし
##漬け
##リカン
一人息子
ゴマ
修羅
手帳
腕時計
##LL
##西武
埼玉西武
セルティックス
定期便
パドレス
埼玉西武ライオンズ
プロヴァンス
コーティング
ヴァルター
保険会社
視覚的
Prem
掃海艇
テニスコート
おかし
怪しい
白鵬
目覚める
アストロズ
一ノ
劣っ
拍手
##96
シェパード
Inv
ジュピター
変性
残基
気弱
シャトルバス
ニンジャ
塗ら
小栗
通ら
##解き
701
無くなり
KA
世子
安井
浦安
##ヒルズ
言い放
##eek
Richard
FP
全羅
飢え
##ハト
ともなう
ストリップ
1770
決議案
門下生
IA
シウ
六郎
直角
緩衝
##ネズミ
クリケット
HIV
初動
就学
##アレス
##はら
Space
エニ
三谷
正当性
固める
後裔
有償
松山市
自筆
##戻す
解決策
中隊長
不器用
こけ
最北
##くう
延びる
##ヤクルト
そそ
寝る
希薄
浪士
##ポーツ
##ガネ
##松山市
##へい
フェアリー
支援者
##ンパン
あしらっ
ロイヤルズ
AH
ババ
ロワール
引数
接地
縦横
肉体的
雨宮
##ヴリ
##逃げ
ジャイロ
ナース
ムエ
下向
梗塞
##下げる
広告代理店
七尾
永野
##ケラ
##ペーパー
##つめ
アナザー
ジェット機
ピュア
ぶどう
古城
島村
採る
演者
高品質
##部町
乗り出す
上野駅
届け出
ネバダ州
甲状腺
Kh
丸め
新日
##ワシ
時間的
グルコース
##itz
ウァ
エネ
速射
##不動
榴弾砲
カッセル
上梓
八角
素朴
こんにち
本因坊
エセックス
円柱
段位
省令
短気
連続的
メダロット
##ヤクルトスワローズ
ガルフ
吸着
##DE
東京ヤクルトスワローズ
Vita
乳房
##ira
かっこ
ピサ
割当
たどり着い
多国籍
RP
前編
家元
左舷
御嶽
##zy
##調子
##ヴォー
シーア
イチロー
コンベンション
ウニ
命ぜ
矢印
純一
##エクス
217
##isch
マイスター
芸術的
##ッサウ
テイスト
エカテ
不評
同所
無縁
貝殻
鳴海
アレキ
アグネス
##YPE
VP
切除
平屋
抵触
短命
##ベリウス
##パーティー
ハイキング
ひろしま
巻き起こし
受刑
大滝
測度
筋力
花月
##ロジ
##RI
ヒロシ
コシ
動輪
熱く
肥大
2024
真っ先
吹田
抗菌
段丘
都知事
##スケート
##TY
##ón
SUMMER
再審
勝る
有吉
理系
##っ人
スーパースター
次数
色気
##ノリ
ときめき
ダイハツ
誘導体
9万
ねずみ
兵部
大冒
家賃
寂し
検地
諸事
##UYA
なかよし
##IMA
すずき
大冒険
くぼ
キヨ
同上
重んじ
半田
失恋
応戦
懸命
長打
鹿屋
##ホーク
下面
小諸
捻出
陥れ
##エリ
##ティッシュ
連隊長
Steam
請け負っ
感受性
ニース
仰角
可換
懲罰
東軍
西線
電子マネー
ソロアルバム
1784
ドリフト
助役
自室
舷側
死亡率
ブランチ
Soul
全豪オープン
ネジ
全軍
減額
##ナッツ
ティモ
Green
生年月日
MAT
UL
上奏
交信
真壁
纏め
血筋
##レクター
##トライ
##喜多
会津若
同い年
中絶
吸引
預かっ
シャドー
バイアス
ネブラスカ
いり
シリウス
冊子
垣間見
文帝
スプリン
細分化
ブラー
ブックス
交わる
和声
巨漢
斑紋
武具
西ヨーロッパ
討死
首位打者
パーマー
一直
朝貢
着うた
空位
返さ
##デーション
##カルチャー
反旗
獄中
発給
##ヶ浦
バーニー
サウスカロライナ州
ユリア
七夕
庄屋
静香
高杉
##カチ
メインイベント
おかしい
プランテーション
アベンジャーズ
バッティング
ノンストップ
領有権
バイン
偽っ
忍法
早速
略号
語派
豚肉
##シリ
##埋め
ビルバオ
基礎的
教養学部
見送り
680
チー
ベレ
ポワ
南町
変容
殺菌
飼わ
##指導
##チェーン
語り手
Die
倍増
同姓
見張り
##停止
創部
好戦
##戸町
##プリン
##ダーソン
フォスター
チェスター
Prof
Hal
米英
超常
重鎮
非合
食欲
##サンプトン
##ッルス
##83
カーティス
セガサ
サクラメント
新入生
前例
海南
##マイン
ストロング
ボリシェヴィキ
アンティオ
素早い
小切手
純子
貸付
スイカ
取り壊し
レキシントン
Pay
つら
レザー
余計
向井
##踊り
不明瞭
トリニ
ワタナベ
結託
1787
ブロンズ
ベガ
刺す
南陽
弘法
艦尾
補足
サーフィン
見逃し
農作物
利権
沿革
##蒸気
##ility
##ague
モーメント
1788
ホイールベース
チャールストン
ルワンダ
孫文
町人
落書き
黄緑
##res
##ろい
CE
偏諱
司書
喜ば
東條
芳しく
重き
##ザキ
制作者
乗っ取ら
一体型
アラバマ州
武闘
消さ
ノベライズ
ほの
ロンド
下顎
渡船
現像
留意
着信
節足
##CM
はじまる
短絡
道教
製造所
UCI
オーガスタ
##生命保険
##ンスタンド
仮装
佐川
##メラン
##ful
##ザニア
##マキ
立ち上がっ
実体化
Mad
Pla
ウガンダ
権益
集合体
ゴールデンタイム
三笠
同母
子守
布袋
得よう
異国
鬼怒
##大将
##チューン
順位戦
イム
武徳
顔料
ヴィジュアル
選挙権
変化球
メガドライブ
カメオ
文部科学大臣
イデアル
8th
ケヴィン
下士官
凌ぐ
岩瀬
強敵
昏睡
転じる
ジュゼ
Ka
倉田
再契約
大区
洋一
迷っ
すみれ
中越
辛く
シーズンオフ
トンガ
総本
##賀市
モーリ
保険料
最寄駅
シク
前橋市
定式
訴追
論説
鉛筆
首里
##セク
##上町
##造物
##彫り
研修生
だす
二輪車
冥界
助っ人
咎め
広める
愛犬
##んぼ
##神経
捕らえる
ur
乳児
休校
時効
洪武
サイレン
奈良市
ニコル
気象予報
ルソン
年鑑
水蒸気
##リンスタンド
経営学部
原産地
Institute
早大
柳家
正日
読める
ガソリンスタンド
常連客
ナショナリズム
オヤ
官制
那智
みちのく
Days
大理石
House
お父
帰ら
数列
##シオス
##エティ
##タク
ユニバーシアード
フーズ
ミシュ
レゲ
##がな
##アーン
##ドリック
##化け
##リーヌ
up
善光寺
聖霊
##ションズ
無くし
##ドゥス
##AKI
First
仕入れ
断裂
新駅
総辞
##まき
神学者
##コミュニ
総辞職
Jul
SAS
相殺
##AMI
千代田区
吊る
出来上がっ
ローマン
##ウィーク
##ずから
SUV
北日本
神武
譜面
黄海
バージョンアップ
新体制
寒い
幸雄
湖沼
話しかけ
##EEP
巨匠
弘仁
思える
沿道
親切
高津
プレイボーイ
Bur
Pri
sub
壊さ
惜敗
神職
ログイン
そろっ
9th
QR
丸太
湯川
都城
##ür
##訴訟
ブレーン
ハワイ州
ハットトリック
ヒスパニック
ペー
ホメ
叶える
届き
霊力
ドラゴ
万葉集
シンプソン
湖南
製糸
##raft
POWER
女中
攻める
翻し
英会
読切
##of
##ボエ
エンゼルス
けいさつ
アダムス
英会話
ガロ
ラバー
最重
火傷
##ギング
##ストリート
315
女子校
飛び込ん
救助隊
エデン
不運
光速
千尋
拓郎
正保
白雪
輝元
##ろく
ジョンズ
##グラフィー
United
##ugh
サザエ
白書
税率
非情
233
##ally
ミート
乱用
係員
稲作
西原
諫早
##ワーヌ
シャーロック
三日月
否認
有毒
縫い
##乃花
##郷町
サプリメント
FOMA
MGM
オモ
パブロ
満月
絶版
##76
##公募
ジュリエット
col
ハッキング
柳沢
江藤
龍之介
緊急時
Camp
一団
北関東
##物産
##ティナ
マンモス
大井川
WEST
ふしぎ
イワン
グン
戸長
捜し
線区
ストーンズ
バンクス
ジャーナリズム
クレイジー
中南米
用心棒
変光星
ベネット
旅立ち
納付
集成
フォロ
##ジャレ
流行語
国公
教頭
継が
化学科
キルギス
ox
##イック
##ビーク
##ゼス
またがっ
##ファクトリー
アメリカンリーグ
##iba
Commun
ビアン
##day
##機械
インディペン
END
残ら
黙っ
##水艦
##潜水艦
ウォリアーズ
アブー
##アントニオ
ABS
ザビ
亘っ
剛性
恥ずか
散策
曲輪
漏らし
##ts
##デリー
##メニ
プラネタ
RCC
コバルト
じろう
雄一
2025
##ette
##angu
Internet
FAN
ニチ
三位
ファウル
2000万
##ワーフ
マクレ
あすか
お母
固く
欠片
異論
託す
##ンダン
##ALO
ハードロック
大明神
ケネス
任せる
奥村
干し
融通
裂け
補任
離さ
##だっ
##埼玉
ベンダー
ヘロ
優雅
募ら
##過ぎ
グラナダ
労働基準
オルレアン
審査会
##理事会
手軽
昇任
蒲郡
##WOR
こだわっ
880
弓矢
振替
毀損
##請け
##蒲原
引き返し
果たして
言葉遣い
STAGE
マグロ
リハビリテーション
のせ
村松
##デット
一般公募
メイソン
AU
何れ
召還
##ゴム
カナディアン
こだま
##アメリカン
陶磁器
前倒し
葉柄
キャラバン
教育課程
妊娠中
全然
拓也
泳ぐ
##Script
##北九州市
##戸駅
##ADA
福岡県北九州市
名人戦
病原体
STUDIO
一手
初級
鐘楼
陳情
坐像
緑化
赤旗
##ハード
##すり
神経系
磨き
額面
##組ん
まさか
クレイグ
下北沢
カメルーン
モンド
リノ
史書
多治
手引き
##建造物
TOK
チルドレン
Hel
アギ
セス
城跡
山道
無茶
署長
退陣
同区間
TX
啓示
矢島
類別
##ばい
##押さえ
##USE
NGO
小路
##ぎょう
製品化
ソングライター
ノースカロライナ
姫路市
クリストフ
テュルク
Ve
パネ
坂道
投擲
##時刻
##itle
節足動物
単数
組閣
重篤
##クレオ
##ラーダ
##スコープ
1777
##ーレム
ジェネレーション
力強い
速水
音韻
タイトルロゴ
クリン
外周
星系
##デモ
##uth
スタニス
##デルス
ウェリントン
401
##iff
浙江省
SAT
ダンプ
外資
アルベ
取り出す
報道局
##スカヤ
##レルモ
1778
タンゴ
キタ
プルト
帰路
悪質
##めい
科学科
精神科
拘置所
まか
五条
人望
代わら
教派
水兵
神格
稲田
KAN
過疎
##och
##サカ
コンラート
サンアントニオ
引き続い
お化け
漢詩
焼肉
発券
直子
遼寧
##89
ジェシカ
ジェイアール
数千人
殺陣
等身
被覆
車輛
##eck
##obal
しゃべ
面白く
占い師
##ydro
レズビアン
ET
クラー
和光
掴む
減量
食わ
河川敷
壮絶
明代
末寺
##vin
カルチョ
まだまだ
630
GPU
整理番号
原子力潜水艦
保育所
ノックアウト
安曇
拠出
##ゴルフ
ウィンド
##ウェルス
1782
受刑者
カキ
元日
害虫
狭間
茂木
陸路
養護学校
占星
反り
##ida
ラーオ
京葉
入校
謀略
##所得
##ASE
尋常科
スリラー
みせる
中谷
凝固
準レギュラー
瞬く
紳助
鍛錬
閉会
##務官
Sl
計らい
賛美
霊的
##ウガ
##マーレ
無くなる
Abema
六十
哲郎
明子
異界
##デマンド
##がさ
##仕事
盛り上げ
ターミナルビル
クズ
デデ
ヒエ
利き
国庫
西アフリカ
CDMA
##スケープ
ガキ
テイルズ
倒せ
冷え
妨げる
##ージャンプ
ビーズ
国策
